#version: 0.2
Ġ t
i n
č Ċ
Ġ a
h e
r e
o n
a t
Ġ (
Ġt he
Ġ o
Ġ s
e r
t i
e n
o r
a l
Ġ c
Ġ )
e d
e s
Ġ in
Ġo f
a n
i s
Ġ p
e l
Ġa n
i on
r o
l e
Ġ w
i t
in g
i c
Ġ f
Ġ m
Ġ b
Ġ d
Ġ A
e t
Ġan d
Ġ n
at ion
a r
a s
Ġ re
a c
u l
ti on
o d
Ġt o
en t
Ġ e
i g
Ġ T
o m
e c
s t
Ġt h
i m
N D
u t
ĠA ND
l o
Ġ Ġ
Ġ C
Ġ N
u s
re s
Ġs t
u r
l y
el l
u n
Ġ čĊ
v e
Ġ O
Ġ I
Ġ is
Ġ S
t er
a m
t he
et w
Ġ h
Ġ g
o s
u c
Ġc on
od el
Ġ B
or k
i l
ĠN O
i d
Ġp ro
a b
ĠNO T
Ġ =
o t
Ġa l
Ġe x
Ġ 1
at e
o l
Ġf or
Ġ P
0 0
Ġ M
ĠO R
e re
Ġa s
etw ork
Ġ E
c e
Ġth at
i f
Ġm odel
it h
o w
Ġb e
i b
om p
Ġ on
Ġc ell
ti v
â Ģ
s e
Ġ l
G F
v er
Ġa c
e m
Ġ 2
Ġ F
n al
at ed
Ġb y
u m
Ġa re
p res
Ġn etwork
ic al
a y
r an
ĠT he
t e
lo g
Ġw ith
u re
Ġ [
o p
i r
t or
t s
tion s
i o
a d
ti c
t r
a p
it y
Ġo r
u p
ation s
q u
g e
a in
an d
t ed
Ġc omp
Ġc an
) .
g ul
Ġ R
p er
ro m
r i
Ġn od
m ent
ran s
Ġw e
Ġ v
at or
Ġ D
at h
Ġre s
p ec
t o
d uc
ig nal
Ġa t
un d
y n
at es
Ġac tiv
o le
d i
Ġ G
re d
Ġ k
Ġg en
Ġw h
e p
at i
t h
Ġ H
s ion
] .
Ġ 0
Ġ us
c h
as e
p on
ĠI n
f or
es s
ic h
GF R
y p
the r
c l
Ġf rom
v el
Ġt rans
1 0
i z
Ġ it
ab le
p h
Ġin ter
ac tor
u g
p ro
ĠT h
o re
ac h
p ut
Ġs ignal
Ġp ath
ent s
if f
y st
w ay
ti ve
o c
f ec
Ġs im
i es
yst em
an t
Ġre gul
ere n
Ġn ot
Ġ le
s is
ig h
o f
Ġw as
Ġth is
log ical
p l
Ġst ate
Ġ |
te in
Ġcell s
o ur
o ole
oole an
Ġwh ich
ati ve
ow n
in e
) ,
Ġd e
at a
Ġa p
ĠĠ Ġ
ĠI L
u b
Ġ r
d ing
ator y
i v
Ġs h
un c
Ġ 3
p le
yn am
for m
lo w
en ce
Ġp er
Ġ âĢ
Ġd is
0 1
pres sion
ti al
p or
ĠĠ ĠĠ
Ġw ere
iff eren
he n
Ġ W
Ġnod es
A T
h ib
al y
Ġ en
e x
ar y
Ġs pec
Ġ et
Ġc y
g en
t ing
a ge
âĢ Ļ
Ġpath way
ul ar
Ġ im
a ve
u e
Ġ L
c on
b er
Ġs ystem
Ġinter ac
st r
ig ure
ĠB oolean
r b
u d
g es
log y
ĠE GFR
g r
1 3
T he
ri p
Ġn e
ti m
Ġan aly
o us
al ly
c rip
v ed
Ġal l
per im
e en
Ġc h
t ain
Ġd ifferen
as t
ï ¬
Ġ 4
he re
Ġh ave
tr actor
Ġd ynam
o ut
t os
Ġt im
Ġsim ul
Ġre pres
Ġnod e
w o
und er
Ġpro tein
Ġa b
rb B
. ,
i a
Ġst ates
f fec
m al
i tion
c re
yp e
Ġ 5
Ġin hib
el y
1 2
s o
Ġp ar
he m
Ġk n
Ġe ach
er s
om e
a v
at ing
ac k
t ro
uc h
etw een
Ġc o
Ġon e
Ġex pression
v id
Ġex perim
p os
en d
Ġres ul
Ġs et
1 1
c ess
ug h
Ġres pon
Ġactiv ation
Ġv al
Ġo b
N A
Ġf unc
e ver
ab il
Ġ under
er m
Ġh as
b i
o in
Ġo ur
t ur
ĠTh is
Ġt wo
Ġa d
re c
A P
on g
Ġd ata
Ġc om
Ġat tractor
red ic
res pon
Ġm et
crip tion
Ġp h
w w
as ed
ĠC D
Ġ i
Ġtim e
il l
Ġsignal ing
tos is
N F
c y
Ġthe se
i le
Ġ up
ig n
Ġo ther
O S
Ġp os
ce p
ĠP I
a il
ti f
o st
Ġrepres ent
es c
io logy
an ce
Ġgen e
t in
Ġal so
Ġit s
op tosis
a k
Ġbe en
c ell
â Ī
A K
Ġb etween
s er
u st
Ġc or
if ic
Ġnetwork s
E GFR
Ġspec ies
Ġanaly sis
Ġdynam ic
b in
Ġ lo
ar i
di tion
duc ed
he r
Ġ J
ul d
Ġregul atory
m un
I n
a re
Ġin put
Ġ ro
re e
ir on
ot h
ar d
e ed
Ġe ffec
Ġ U
Ġs c
duc tion
Ġn o
ec h
ĠW e
I L
is m
h od
Ġd et
Ġon ly
Ġ2 01
Ġgen es
Ġ logical
ib le
Ġus ed
ï¬ ģ
Ġ V
Ġf actor
Ġcomp le
Ġp redic
r on
Ġ 6
ac tiv
c omp
um ber
r ib
Ġs uch
Ġas s
r ap
c o
Ġb io
Ġ un
es t
tur b
l ed
en s
Ġin to
ac ter
tro l
Ġs ub
c le
Ġexperim ent
a us
g et
s id
Ġinhib it
esc rib
C D
i ed
e ad
s s
i p
Ġrespon se
id en
c er
Ġg ro
tim ul
ut ation
Ġ K
l as
Ġcomp on
Ġa r
Ġp res
Ġo ut
ing le
Ġe v
os e
Ġin d
T AT
i x
re gul
Ġb ut
il d
7 1
Ġ2 00
i al
Ġp oin
Ġdifferen t
c ent
u es
igh t
ic ro
ĠF igure
o x
Ġ .
Ġm e
as es
Ġs e
ter n
Ġin f
Ġus ing
io us
ep end
abil ity
s es
he d
Ġin i
c or
Ġle vel
Ġw here
s ed
ed i
A S
R K
f f
Ġn umber
Ġthe ir
Ġ he
form ation
a g
h av
Ġpathway s
str uc
1 00
y l
Ġ /
Ġmodel s
Ġinterac tions
Ġ ,
am e
Ġ qu
âĢ ĵ
P L
Ġre l
am ple
por t
o und
ĠB iology
vel op
C C
Ġ y
f ter
s ible
yp es
Ġin v
m odel
iz ed
Ġfunc tion
u al
Ġthe re
tr ib
oc k
E rbB
] ,
Ġd i
Ġst r
Ġ iden
Ġsh ow
Ġ er
iz ation
Ġresul ts
Ġob ser
ead y
ĠF ig
Ġtrans cription
Ġt r
ac t
4 5
on e
os ph
ow ever
2 1
ti es
ul t
Ġs ingle
Ġp re
F igure
Ġ Î
c om
d e
Ġin cl
Ġcor respon
n ec
ar get
ro ugh
ole c
B A
in d
at ure
Ġb oth
i ve
Ġini tial
Ġ 7
cep tor
F N
in es
Ġm od
Ġpro cess
Ġcon trol
ĠF or
2 0
s c
on d
ul es
res s
Ġcomple x
n etwork
Ġap pro
re at
Ġm ore
r ug
ĠE rbB
Ġbio logical
y m
or g
Ġper turb
ur ther
Ġbe hav
Ġcom bin
Ġ 8
Ġinterac tion
an ism
lo s
ĠC ell
l ing
c es
j our
ere d
jour nal
b ack
00 00
l es
Ġd o
Ġ1 0
ol low
Ġfor m
Ġcompon ents
I R
Ġ) .
d o
i or
Ġexperiment al
i ent
u k
rec t
Ġmet hod
Ġh igh
Ġle ad
hen ot
Ġ ed
Ġa ut
ti t
Ġd escrib
Ġst eady
id e
is t
i e
Ġs timul
F ig
f ore
w ith
en tial
Ġst ud
i k
Ġw ild
Ġactiv ity
Ġgen er
ver s
rap h
1 7
Ġde velop
Ġsh own
eed back
Ġs up
Ġm ay
ar t
Ġo ver
le c
it s
Ġw hen
ĠC omp
tic al
Ġch an
C R
t p
Ġ el
Ġcon sid
c k
in ed
iv al
13 71
ar ch
Ġre d
ol um
ĠâĢ ĵ
Ġiden tif
in al
Ġw ell
Ġm icro
iv en
l is
v al
â Ĩ
Ġa m
Ġg raph
ph a
n od
E GF
1 9
or mal
om at
ix ed
t ype
Ġ 9
ir st
n ot
Ġprotein s
i tive
C A
n t
ti ation
se e
Ġl ar
Ġim mun
1 8
: /
di tions
utation al
A c
it e
am m
Ġsimul ations
l if
t tp
or s
âĨ Ĵ
Ġm ut
Ġkn ock
ĠA BA
Ġind ic
Ġs ec
Ġd ec
Ġre ceptor
Ġv ari
pl ic
Ġcy cle
d er
w h
Ġt arget
Ġm ech
2 00
N K
b e
Ġin formation
Ġpro vid
Ġex ample
b y
in s
er ation
ĠO N
iz e
Ġinv ol
ĠA p
ĠS t
R B
Ġa fter
ĠC a
Ġeffec t
M C
ac tion
fec tion
v ious
w th
3 8
T h
e y
Ġ if
qu i
Ġval ues
Ġm olec
Ġth an
Ġus e
R E
Ġan ti
Ġf ollow
Ġdynamic s
K B
t ure
Ġp henot
ĠA K
Ġcon f
t en
ple ment
Ġre m
ver y
Ġdet erm
th at
Ġpos sible
1 4
te gr
Ġstud y
:/ /
Ġthe n
Ġp l
Ġw ill
ch ron
Ġinf l
reat ment
G L
Ġfactor s
n i
o uld
u tion
Ġs ign
Ġin t
Ġf ound
ĠN F
uc le
cent r
s et
v iron
Ġs yn
Ġan y
Ġf eedback
Ġth rough
Ġap optosis
Ġne g
Ġpres ent
Ġo p
st re
Ġregul ation
R A
al l
is tic
tiv ely
aus e
it er
Ġb ec
ĠA l
Ġe qu
ol d
âĢĻ âĢĻ
AP K
I P
c ur
s im
ter nal
ĠAK T
viron ment
t rans
Ġ x
Ġcon ditions
Ġcy cl
at tern
o ther
oc y
Ġattractor s
ĠC C
2 01
o ugh
Ġs p
it ed
ul ti
Ġbehav ior
ï £
Ġ -
Ġtrans ition
tain ed
5 3
c an
u ous
Ġthe y
ĠPI P
k n
Ã ¾
Ġin cre
u di
ĠS TAT
il ar
ator s
stre am
1 5
ĠP ro
B oolean
L GL
Ġm at
ar k
as ure
gen e
v en
is e
Ġd rug
Ġal low
Ġobser ved
pres sed
2 6
ĠH owever
ug ges
Ġph osph
Ġ iron
Ġf ixed
Ġpro b
ĠP K
Ġde f
âĪ ŀ
Ġa v
ut e
to k
ystem s
Ġim port
lif eration
a e
ĠC A
ĠI FN
Ġdis cre
Ġmech anism
o ve
Ġm ain
Ġb ased
ical ly
chron ous
a red
le vel
ĠA n
2 3
R P
o logy
Ġm ost
Ġre qui
ex t
n e
Ġ !
pro tein
Ġlo op
ff ic
T GF
Ġg iven
Ġcon nec
epend ent
Ġincl ud
Ġt ype
an y
ur ing
Ġcell ular
ĠD NA
ĠAp optosis
Ġsc hem
AS P
lis hed
Ġ X
ti l
P A
ic s
âĢ ĺ
Ġfunc tions
s h
s ignal
Ġd own
ig ur
Ġst ep
ĠE x
p re
p ath
al it
as s
Ġsystem s
u le
Â Ī
Ġs ame
Ġc l
ol lec
ere st
Ġkn own
Ġgro wth
PL OS
m on
p c
s pec
Ġa g
st and
Ġth ree
Ġad dition
tin uous
uk em
Ġimmun e
b b
in ce
Ġs ome
Ġf irst
ww w
Ġpoin t
f unc
m in
Ġof the
ac tive
Ġwh ile
Ġp attern
ul ts
Ġcon ver
mal l
Ġco uld
a x
o ver
o ch
y per
Ġs ugges
se qu
Ġres pec
ail able
Ġro le
w ork
ĠT able
ad e
Ġcan cer
Ġlar ge
I S
u res
in ter
it her
am et
7 0
Ġre f
im al
ab ol
ĠM odel
O R
Ġm edi
ac e
do i
Ġneg ative
pc bi
r im
al ization
Ġc ir
Ġm ulti
ar acter
Ġac tive
Ġactiv ated
W e
d s
Ġ ran
Ġt reatment
Ġd es
por ted
Ġdynam ical
Ġup d
Ġinvol ved
T able
p ar
s tit
Ġin di
ĠM C
ow led
oc i
in k
ĠT o
Ġst udi
ab les
ĠE RK
Ġspec ific
Ġsimul ation
Ġc ase
ĠN etwork
Ġinhib ition
t al
duc e
vel y
9 9
or yl
form ed
âĪ Ĵ
Ġpre vious
owled ge
c i
e b
Ġl iter
hem at
Ġgro up
K K
Ġh ow
Ġcy tok
Ġne w
olum e
C Y
o g
Ġ low
Ġm in
Ġn on
Ġout put
Ġme asure
a j
Ġsignal ling
Ġappro ach
F F
S TAT
b ust
i ties
y s
wh ich
L R
f ul
am age
Ġer bb
5 0
i R
Ġt ypes
Ġb as
Ġval ue
ĠV olume
ucle us
TGF a
Ġc le
ac tions
Ġpro pos
m edi
t ent
Ġ &
st ate
Ġth us
Ġl ine
Ġpoin ts
Ġk ey
vid ual
Ġknock out
1 6
C L
ĠA c
Ġn ormal
ar ly
ur v
Ġmodel ing
way s
ĠâĢ ĺ
U C
u z
Ġle ukem
ĠComp utational
Ġconf igur
e ast
i tions
Ġ u
Ġf urther
ul ation
con struc
T P
c u
i ly
o gen
Ġs mall
ever al
2 8
h igh
i an
Ġd uring
Ġn ec
ĠThe se
tr ac
iff ic
Ġlevel s
Ġcorrespon ding
Ġel em
4 6
a f
r c
Ġe m
om ata
ĠC on
Ġst able
4 2
E M
in hib
ec tor
2 2
C S
M P
Ġb in
Ġr ules
activ ation
omat al
Ġimport ant
alit ative
Ġd ep
ĠI t
Ġh yper
Ġed ges
Ġav ailable
o id
Ġ Y
re st
re nt
is ion
Ġst ress
ĠP P
trib ution
b et
Ġw ww
ĠM APK
Ġstr uc
oci ated
L P
S K
u ding
Ġf r
et hod
Ġpro per
Ġpath s
ffic ient
T E
re l
er ing
Ġp ur
ĠT GF
ĠG en
Ġsim ilar
Ġ201 5
Ġass um
Ġdescrib ed
Ġdevelop ment
nod es
c us
Ġ ï¬ģ
al e
ic o
Ġd el
ac ro
ot ential
ay s
Ġexperim ents
Ġpos itive
ni vers
pres ent
Ġk in
ati vely
Ġinhibit or
h ttp
l ic
he s
en vironment
ly m
Ġcon tinuous
up plement
Ġen put
R F
a ult
Ġc ap
Ġm em
Ġsignal s
Ġpar tic
las m
B P
I N
p a
w ard
um ab
ĠThe re
log ic
Ġch aracter
S S
h ip
an ts
Ġre co
ig r
ĠB N
Ġ1 2
Ġloop s
f rom
v es
Ġin tegr
Ġre g
Ġcon sis
Ġv ia
func tion
e k
m ore
t es
en c
ĠA s
ly ing
ot e
ub lished
iv ed
Ġdi rect
amm atory
Ġliter ature
M A
o the
Ġ here
Ġe ither
Ġpar amet
bi om
Ġme an
Ġperturb ations
Ġdiscre te
urv ival
v ant
ut ed
Ġex pressed
Ġor ig
AT A
ss ue
Ġse qu
los ure
d om
um m
Ġconsid ered
nivers ity
3 4
M T
w e
Â Ĩ
en cy
Ġpro liferation
Ġdis e
comp le
Ac tiv
5 2
E RK
o b
Ġin fection
Ġd amage
ĠT NF
ĠS rc
um an
ess ary
ific ant
Ġhe l
ik e
P C
c hem
d c
r up
Ġs everal
or t
Ġf e
ul l
Ġk B
ï¬ģ c
cor ding
Ġy east
r ic
Ġo x
Ġc ur
Ġm ap
Ġd epend
ĠR OS
th ough
Ġro bust
Ġinfl u
2 4
at us
Ġthe m
er tain
ter m
ĠP L
ri x
d is
e f
Ġ j
an g
Ġw ork
it or
ĠS ystems
Ġ1 1
ap h
Ġmet abol
Ġpredic tions
Ġt erm
Ġw ould
Ġst omatal
ations hip
ment s
ex pression
ak e
2 9
k B
z er
Ġ Z
Ġ ver
in put
Ġs u
Ġh yp
Ġcon struc
il ity
if ied
ow er
tiv ity
op h
Ġdet ail
p e
ĠM ed
gr am
4 8
E T
p los
Ġthe rap
er g
ar c
Ġth ose
res h
ĠI ssue
op to
ĠâĢ ľ
Ġrepresent ed
Ġeffec ts
Ġfollow ing
Ġop en
P M
t op
Ġf our
ell ular
ĠS P
Ġcon tain
Ġor der
Ġkn owledge
Ġunder stand
Ġsec ond
ell ing
Ġal pha
gr aph
Ġanaly z
Ġdifferen tiation
Ġval id
Ġqu alitative
Ġam ong
uz umab
ethod s
lym ph
igr ation
O I
b io
c al
m e
r y
s ing
Ġsub set
Ġqu an
biom ed
B MC
b ol
n ucleus
o v
p oin
Ġ Â
Ġo c
Ġb lo
Ġre construc
ent ly
un t
tic le
ï¬ Ģ
opto tic
4 3
b l
Ġc las
an cy
Ġinput s
Ġdo es
d ifferen
in duced
Ġb acter
ĠO FF
ĠS O
crip t
Ġab le
ĠJ NK
Ġidentif y
RB B
kn own
Ġindi vidual
aj or
g or
g ro
u ally
Ġp otential
id ative
oc us
Ġpropos ed
n d
it ation
ar n
ĠC y
Ġ1 5
yn chronous
Ġphosph oryl
) :
ec ted
pl ied
Ġprocess es
Ġcombin ation
Ġrem ain
Ġleukem ia
5 4
S t
f er
Ġtrans itions
iffic ile
resh old
5 9
7 4
Ġre duced
Ġto p
ĠC l
Ġ2 0
AT P
cell s
Ġstudi es
E C
f l
n ess
ent al
Ġper formed
Ġob tained
Ġph ase
ym bol
Ġmut ant
Ġint erest
Ġcytok ines
Ġorig inal
Ġoc cur
2 7
B D
m an
Ġc al
Ġh ttp
00 0
ĠTh us
IR F
Ġmechanism s
Activ ator
B R
d ifficile
Ġm it
Ġto tal
Ġl ong
Ġen d
Ġad d
AK T
CY T
E K
N O
Ġs urvival
en ces
ic ted
Ġre pro
Ġpro m
ĠCD K
Ġmolec ular
Ġsign ificant
Ġpartic ular
e u
ĠC T
ve al
ĠR e
our ce
Ġresul t
Ġass ociated
regul ation
nod e
Ġphenot ypes
Ġdef ined
trac ellular
Ġpur pos
2 5
C P
I FN
n o
Ġ es
Ġ very
an aly
ro w
Ġb l
ul ations
Ġcomp ared
Ġab out
activ ated
Ġchan ges
Ġcir cu
in v
Ġs el
Ġd er
Ġre le
art ment
Ġphenot ype
ollec tive
D P
Ġ logic
at ic
Ġo sc
Ġd ue
ar is
as tic
ĠP A
ĠE GF
ĠâĢ Ŀ
Ġne ed
Ġab ove
ĠU niversity
Ġrel ationship
Ġincl uding
Ġcorrespon d
Ġnec essary
I I
b od
b ran
h or
k t
Ġf in
Ġm an
ĠA t
Ġcon tr
ï¬ Ĥ
Ġpres ence
ATP ase
b ased
i qu
he l
al pha
Ġc as
ĠS ignal
Ġcon dition
Ġperturb ation
hemat ical
ĠâĢĺ âĢĺ
Ġkin ase
m et
o S
z om
or te
Ġp rim
am pl
ith m
ĠD OI
Ġstimul ation
Ġchan ge
Th is
Ġbec ause
Ġosc ill
zom ib
8 8
O N
i um
at er
Ġof f
ĠM Y
cl in
regul ated
Ġdec re
Ġmat rix
Ġrequi red
orte zomib
d dition
n er
p lo
Ġs o
Ġs ize
Ġin the
ac hes
Ġl im
Ġwith in
Ġab s
Ġset s
cor por
Ġobser v
urther more
Ġlead s
Ġrespec tively
Ġran dom
7 3
T NF
g er
Ġc aus
Ġc ertain
ic ation
as is
ĠB cl
iz ing
form is
ĠâĢ Ļ
Ġrespon ses
cep t
centr al
ae formis
signal ing
Ġconfigur ations
c in
od ic
ĠP D
ĠD C
th is
Ġtrans duction
gr ad
Ġrepres ents
Ġresul ting
Ġcompon ent
Ġmethod s
Ġgener al
ĠThere fore
I A
t em
Ġ lymph
he ther
Ġc ol
Ġin s
Ġp ower
ar m
ig and
ĠO ur
Ġh uman
Ġ1 4
Ġl ines
Ġ2 4
Ġcan alization
Ġpredic ted
Ġev en
olum n
3 2
T I
t w
w as
w ere
Ġ 0000
Ġs er
Ġs ince
Ġc ases
ar s
ul ated
Ġ1 6
Ġac cording
nal y
ens i
Ġshow s
Ġdown stream
chem ical
Ġox idative
3 0
5 6
P S
in fection
re A
Ġm acro
ĠN GF
am ily
ĠB io
if y
Ġor g
Ġ201 2
Ġstr ong
Ġred und
Ġaddition al
C o
C on
d et
i el
Î ³
Ġ âĨĴ
Ġc losure
Ġf ocus
Ġre duction
ab or
Ġex ternal
cl us
Ġsim pl
CD K
Ġindic ates
Ġallow s
Ġelem ents
EM O
Ġcur rent
biomed central
D NA
N UC
d own
Â ·
re ated
al u
is s
ic e
Ġm any
ĠI RF
Ġg u
ĠG ATA
ex perim
Ġev ents
ĠÎ ³
Ġinclud ed
ĠSP N
ï¬Ģ eren
gor ithm
4 0
P age
h o
m it
r a
Ġd en
st ates
un g
Ġpro g
Ġup on
Ġrepresent ation
est ab
Ġev alu
Ġtarget s
ĠEx ternal
ian a
Ġproper ties
upplement ary
P I
i om
i ï¬ģc
re g
re present
al iana
Ġm igration
Ġm ajor
Ġre veal
Ġe arly
Ġidentif ied
Ġdeterm ine
TE N
A L
S O
T o
Ġt um
re en
Ġc ar
Ġin tro
Ġan other
Ġre ported
Ġcon trib
Ġcon centr
Ġ1 8
Ġ2 3
ame work
Ġvari ables
til l
Ġpattern s
Ġmulti ple
Ġprevious ly
Ġhyp othe
d ynam
n ing
p ir
w here
Ġ ent
Ġa ffec
Ġs uc
en se
ec tion
Ġth aliana
ĠC Y
ĠO n
Ġex t
Ġex pl
Ġbe ing
ĠR ec
cl ud
of the
Ġfunction al
Ġlead ing
Ġprovid ed
ĠMC s
Ġstruc ture
top lasm
i j
o res
in fl
at ely
Ġc our
Ġb el
Ġth reshold
il ico
Ġ1 3
ph osph
Ġed ge
eu tic
R N
l uc
Ã °
Ã ŀ
he ck
Ġf act
res sion
ĠF ox
Ġwith out
ess ential
respon se
Ġexperiment ally
Ġ200 9
Ġinf er
ond ri
min th
Ġdise ase
H K
I BD
e v
Ġin st
ro ss
Ġto ward
ĠC h
il es
ĠP age
ĠE RBB
Ġregul ators
tim e
ĠU n
ival ent
val ue
Ġprovid e
Ġcle ar
bran e
R es
c c
l ess
Ã ©
Ġ +
an c
Ġw ay
pres s
Ġsim ple
our s
ine tic
Ġdis tribution
Ġdis rup
Ġsimul ated
Ġpar t
Ġanti bod
RA F
ĠPK C
Ġmin imal
Ġparamet ers
Ġinflu ence
6 3
S P
in ally
Ġas ynchronous
Ġv ar
Ġap plied
gen es
ign ed
Ġwhere as
Ġprob ability
Ġphosphoryl ation
R NA
S A
o ol
y cin
Ġ unc
Ġt es
al th
ro s
Ġb u
ol ar
ĠM ore
io ur
ain ed
Ġcan not
Ġde ath
Ġsh ould
out put
Ġunder lying
IR AK
ĠON E
Ġclas s
Ġpurpos es
C ell
S T
b etween
c ard
l ine
s ystem
Ġp ublished
om mon
ĠC dc
ĠS im
Ġh ig
Ġal gorithm
pec ted
Ġactiv ating
ati ents
fec tions
Ġle ast
Ġper i
Ġ200 8
CC P
com bin
ĠAl l
ocy te
ĠPro tein
och ondri
Ġmetabol ic
Ġsu fficient
A p
A r
a T
a ir
p redic
r k
x t
Ġf um
Ġto ol
om es
ĠI g
os in
Ġl ay
Ġab und
Ġtranscription al
omat on
Ġag ain
och astic
Ġterm s
zer o
3 3
B I
C y
M Y
S F
Ġt est
ti g
Ġf ault
Ġf amily
ation al
Ġe very
ap X
Ġrepresent ing
regul atory
Ġcombin ations
Ġcycl in
Ġopen ing
Ġcas c
3 45
A l
M V
e qu
p age
t erest
v i
Ġs ource
Ġs till
Ġw hether
Ġm iR
Ġb iology
ĠT LR
ĠI f
il s
00 1
Ġl ink
duc ing
ch an
ast uzumab
Ġno vel
CC V
Ġsyn chronous
ocy tes
3 6
P ro
a h
a ges
c t
r is
r ay
t ot
u x
Ġ :
Ġ essential
Ġo per
Ġc itation
ĠM ethods
tr ins
ĠR es
ore tical
12 13
Ġ200 6
PL oS
ĠÎ ²
Ġdevelop ed
Ġrem o
ĠCA C
poin t
ĠSignal ing
ensi tivity
A D
E BP
M I
P K
k a
an e
it es
Ġe p
ig atus
im ers
Ġst o
Ġl igand
ĠR as
Ġtrans ient
of tw
Ġanaly ses
Ġpar tial
Ġlo ss
Ġshow ed
Ġschem a
eb pa
Ġfr amework
Ġdirect ly
Ġprim ary
luc ose
ommon s
trins ic
T LR
b g
i i
s ib
Ġt ri
Ġc heck
Ġm ade
ĠA ut
Ġal ter
Ġ1 00
ĠD ec
Ġactiv ate
Ġregul ated
ĠW h
Ġbehav iour
Ġschem ata
oftw are
E nd
r in
ing ly
Ġf ac
ĠA r
Ġn am
Ġto the
ut es
ell a
the sis
ĠP TEN
ch is
Ġr at
ous ly
Ġthere fore
Ġtr ig
Ġdescrib e
Ġmicro environment
19 54
Ġindic ate
Ġdec ision
Ġmeasure d
comple x
N etwork
g ree
w n
z ym
Ġ "
re x
at tractor
Ġs ol
Ġs umm
Ġin duced
Ġin corpor
od elling
Ġpro p
ĠF urthermore
per turb
Ġv ector
Ġinter pre
Ġar ticle
tit ative
Ġvari able
Ġsp ace
Ġsequ ence
Ġvar ious
3 1
4 4
D E
g t
s k
v ing
en g
Ġre al
Ġe vid
ĠC O
un it
am ycin
str ain
Ġ5 0
get her
Ġaut omata
Ġconsid er
Ġmolec ules
Ġequ ations
Ġbas in
Ġunderstand ing
Ġredund ancy
. .
4 9
7 5
C T
F C
R OS
d eed
e ach
p i
t y
Ġ estab
Ġt ak
Ġc olumn
Ġn et
Ġre se
Ġre actions
ot es
em ent
tic a
ĠR af
ri tical
Ġr ule
abil ities
cy toplasm
Ġbio chemical
ens ity
las tic
Ġdi rec
ie w
Ġreceptor s
Ġincre ase
Ġincre ased
Ġstep s
ĠGen e
Ġconsis tent
arn es
Ġcircu it
Ġcontr ast
Ġfum igatus
0 50
G R
J NK
m ost
s timul
Ġp air
Ġf ull
Ġd at
ĠA SK
ĠP C
op o
duc es
Ġwh ose
Ġen vironment
Ġ201 3
Ġdeterm ined
ne g
Ġupd ate
Ġenput s
aris on
) ;
9 0
B acter
S C
T R
g o
i er
n g
Ġt iss
ti re
el s
st ant
Ġst ar
Ġst abil
ĠS H
ĠP alpha
ĠM arch
ri or
ub le
ast asis
tur al
ĠJ AK
Ġsub sequ
17 52
path ways
medi ated
Ġblo ck
differen t
Ġrelationship s
Ġsuc cess
050 9
4 1
a ut
b een
r al
x L
es ter
Ġof ten
ion s
Ġre cent
im mun
us ed
id er
Ġ1 9
ap er
ep tica
ĠH igh
pon e
Ġinter ven
Ġdis cus
ron chis
Ġar rest
Ġind ependent
ind amycin
Ġappro aches
âĪŀ âĪŀ
Ġconnec ted
Ġinclud e
path way
spec ies
stit u
Ġmean s
Ġconstruc ted
ĠMY B
ddition al
Ġcour se
ronchis eptica
R ec
T A
Y N
i ella
Â ¬
Ġ 00
on str
Ġs ilico
Ġm al
Ġd ia
ĠA P
ec t
ab ly
ĠE ach
Ġcomp utational
ĠG bg
Ġsh ort
Ġper m
bi ol
Ġcom mon
cell ular
Ġar c
tern ative
sc ale
Ġstimul i
Ġinfl ammatory
Ġhel minth
ampl es
abor atory
Ar rest
* *
9 26
A n
A s
F s
I G
Ġ) ,
an cer
Ġp NF
Ġp atients
Ġd em
ĠI m
Ġh ad
ĠB MC
Ġex ist
Ġr ate
Ġim p
tif y
comp biol
Ġinhibit ors
network s
ĠPK A
Ġconver g
stit ute
plos compbiol
inv ari
D M
U T
a i
l ike
o logical
w it
od e
ĠC i
Ġst ochastic
Ġh ost
Ġ1 7
Ġfor mal
ĠP h
Ġgen us
con nec
escrib ed
ial s
anism s
Ġaut omaton
Ġdeterm in
Ġpresent ed
ï£ ¬
Ġobserv ations
Bacter ium
5 7
5 59
8 6
A R
C a
I F
M odel
d ata
Ġs oftware
Ġf ile
Ġm ight
tion al
ĠI EC
Ġh owever
Ġpro f
ĠM EK
ap optotic
ĠâĢ Ķ
Ġdifferen tial
Ġpos sib
ific ation
Ġse e
Ġmat hematical
Ġstudi ed
Ġmem brane
ek k
Ġfe w
Ġtherap eutic
Ġcontain s
ĠRe gul
Co A
559 46
D ep
t c
Ġt ur
at ter
Ġp op
Ġp rec
Ġf inal
Ġd id
Ġd iff
ĠT CR
ec ause
ĠS LP
am ide
Ġpro duction
Ġl ack
ad y
Ġactiv ates
Ġcy tos
cy cle
ser ved
Ġlo c
mun ity
ech n
Ġrel ated
ï£ ·
Ġrele vant
Ġfin ding
Ġabs ence
Ġprog ression
arnes iella
C h
M L
d rug
g ment
n ed
o k
s ymbol
in form
re qu
Ġb ortezomib
Ġb ronchiseptica
od es
ĠC ollective
Ġcon stant
ĠB oth
Ġal one
Ġex is
âĢ Ŀ
Ġl ike
Ġ2 5
ir m
Ġk inetic
gen er
cre te
Ġhe ter
100 43
Ġdi ï¬Ģeren
Ġpl ay
inter actions
Ġref lec
Ġdes cription
http s
Ġcap ture
naly sis
Ġinfer red
Ġtoward s
Ġhig her
3 5
C omp
N et
d en
d ependent
h ave
h ors
n ormal
o log
t aeformis
on ly
al so
an ti
ro ph
as et
ĠC ASP
ĠN o
Ġh ours
Ġg ran
Ġpro duced
ver age
Ġac h
tor taeformis
th rough
ĠH CC
eren ce
igh ts
Ġap plic
Ġpredic tion
Ġun iqu
ult ure
Ġhigh ly
ik ely
Ġam o
Ġmut ants
Ġprovid es
Ġcl ust
Ġrobust ness
Ġsel ected
C M
D ynam
F e
N B
c ap
e ffec
f ree
s up
y el
Ġc ollec
Ġc ritical
it ro
Ġn ext
Ġre ac
ent ral
om a
ĠC ac
un e
the re
Ġg o
Ġl ess
Ġac co
Ġcomp ut
ĠIn deed
Ġap pe
Ġap optotic
comp on
Ġinhibit ing
Ġcorrespon ds
Ġcombin ed
lis h
Ġsec tion
rel ated
Ġanalyz e
analy sis
Ġevid ence
invari ant
Ġach ie
0 5
7 8
A C
E B
M APK
R T
c ome
f t
m er
s ive
Ġin active
Ġp ost
Ġp rior
Ġf ul
Ġf low
ar an
Ġre tortaeformis
ut roph
ĠĠ čĊ
ĠC ebpa
ĠN ote
Ġst at
Ġex pos
ĠM ig
um er
te xt
ad es
ain s
Ġv is
Ġres ist
Ġde grad
Ġper form
ĠW hen
ĠL SS
Ġpredic t
ĠK RP
Ġar row
Ġev ol
Ġsec re
ĠPL C
ĠMed ical
Ġder ived
Ġbel ow
Res ults
Arrest in
A b
G T
h om
r f
r ight
w ise
Î º
ĠA PC
as on
Ġre action
Ġe f
ec re
res ults
Ġg lucose
Ġal ways
ĠR ac
iz es
11 11
ron ti
Ġtr astuzumab
ĠÎ ±
Ġsup ported
trans cription
Ġsugges t
Ġref er
Ġmedi ated
Ġelem ent
Ġdel e
ĠCT L
ĠDec em
5 1
H ed
L L
S up
n s
n os
r as
t om
w ell
re le
at ics
an ces
ĠS ince
Ġg ain
ĠIn ter
Ġap p
ï¬ģ ed
cor respon
201 5
protein s
spec ific
Ġbacter ial
Ġconcentr ation
infl ammatory
Ġlay er
Ġagain st
Ġdia gram
ronti ers
6 0
7 6
b ig
c ed
m ut
o tic
re hen
Ġw or
ic t
et al
ac y
ul ate
lo tin
Ġst and
tr action
Ġdis tin
The se
Ġtim es
Ġgene tic
activ ity
Ġrel ative
Ġer r
Ġgener ated
Ġmicro bi
Ġgraph s
kn ock
Ġcytok ine
Ġcharacter ized
Ġbacter ia
inform atics
lotin ib
F c
O G
d ep
e ep
e arch
l ar
r st
Ġ zero
in i
an s
Ġm o
Ġm ust
Ġb re
ĠT r
lo t
Ġal ong
ol ester
ĠF A
ĠF inally
Ġactiv ator
ĠIn terest
ĠL og
Ġsimul ate
pos sible
Ġcor rect
Ġsc en
Ġcomple te
Ġinv es
trib uted
Ġmolec ule
Ġbec ome
Ġconfigur ation
Ġbin ary
Ġhyper arc
bio logical
Ġlim it
Ġdem onstr
6 5
C H
C l
E N
F a
G N
n f
p en
u is
Ã Ĺ
Ġt reated
in di
re ative
Ġc lo
es cription
Ġin c
Ġin tracellular
Ġp aper
as ing
Ġre ad
Ġe as
Ġg reen
ĠB CL
id es
Ġal ternative
Ġex pected
ĠM L
Ġl ight
ad dition
ap pro
ĠH K
ĠH ere
Ġen c
Ġ6 0
ens itive
Ġse arch
Ġwild card
Ġrequi re
Ġcal led
Ġes tim
iom et
A kt
I CD
f i
n umber
r ing
v iew
Ġt em
re ceptor
Ġp lastic
ar ding
im um
ve rex
Ġh and
ate g
Ġl ung
Ġl atter
ver se
tor s
ich iomet
Ġdifferen ti
Ġob tain
cent age
ox ide
ten sion
Ġcycl ic
Ġhyper graph
Ġver sion
Ġdetail ed
ĠSO CS
Ġbl ue
arm ac
Ġtes ted
ĠMore over
ĠRegul atory
olester ol
3 9
E R
E x
N NB
m l
m icro
t a
t arget
t reatment
Ġ ir
in the
at ur
Ġc ause
an alization
is ed
Ġp H
ic a
Ġf ib
Ġb est
Ġd ri
as ite
Ġre pression
ig m
st o
lo c
ur g
Ġal though
if ically
Ġbe fore
ĠF ak
Ġen tire
ex pressed
Ġab ility
NF kB
Ġun til
Ġy et
olec ular
Ġbec omes
Ġupd ating
medi ate
Ġassum p
Ġmem ber
Ġanalyz ed
iel d
experim ental
Ġclear ance
Ġabund ance
immun e
Îº B
C ASP
I K
J AK
O X
S ASP
a fter
b oth
c ol
e ti
h as
r g
s ub
t wo
t ane
Î ±
Ġp lasm
Ġm ark
Ġd om
Ġd iv
Ġd ays
ec ond
us cript
ĠS ep
the se
Ġex plo
Ġ1 99
ĠP ax
Ġcomp arison
per i
ĠD is
pl ay
Ġen zym
ber t
str icted
Ġne utroph
Ġup stream
Ġass ess
model s
ind ependent
Ġstimul us
KB R
ĠNF KB
Ġmain tain
sh ow
Ġsugges ts
Ġsugges ted
upplement al
Ġmit ochondri
TNF R
alth y
.. .,
Ġtiss ue
rehen sive
Ġinves tig
) ~
C K
T RAF
b r
b al
f r
i en
m od
m ain
s p
s or
u tions
w hen
Ġ q
Ġo verex
Ġin duction
el f
Ġn ature
ar ized
Ġre ach
ĠN EMO
ĠB i
ere gul
ĠE n
Ġl ed
Ġac t
duc t
Ġwh ole
fec ted
of f
Ġph ys
Ġlo cal
ĠJ une
Ġev ent
100 4
Ġaut hors
Ġrequi res
Ġrespec t
Ġdel ay
Ġdepend ency
ĠBcl xL
Ġstrong ly
Ġremo ved
ĠWh ile
Ġrat her
926 0
Ġprof iles
Ġuniqu e
Ġreac hed
Ġexpos ure
4 7
I H
P CR
S r
k k
m p
m at
p ite
t ation
w ild
in is
at in
Ġs ymbol
Ġp e
Ġf ate
Ġf requ
Ġb et
ĠA kt
ĠA nalysis
Ġre ason
st eady
Ġst ability
ĠS upplementary
ĠE rk
up led
ĠD ynam
ĠH GF
ĠH ence
ĠH ATPase
Ġinter nal
Ġun known
Ġinhibit s
port ant
ym met
0000 0
Ġmut ations
ĠSt ress
Ġimport ance
Ġupd ated
Ġgroup s
Ġï¬ģ rst
Ġintegr ated
ater ials
Ġbu il
tot al
Ġdele tion
ichiomet ric
) )
3 7
B io
F or
F ree
N EMO
] ).
f ollow
l im
t ered
Â ¼
in cre
in tegr
er oxide
or der
al s
it hel
Ġm on
ĠA T
ul ating
ve red
Ġex am
ĠP AK
ĠP TP
ĠM odelling
ĠM ekk
Ġmodel ed
Ġ2 6
Ġcomp ute
ati al
Ġtrans fer
pro b
pro cess
ub lic
ĠâĢ ¢
Ġset ting
100 0
de velop
plic it
Ġuse ful
Ġfollow s
Ġop tim
Ġcycl es
Ġdrug s
Ġdes ign
inhib ition
Ġbin ding
Ġparamet er
ÂĨ &
plos one
Ġquan titative
Ġoccur s
ĠCT NNB
Ġintro duced
clud ed
echn ology
Ġful ly
Ġdistin ct
2 10
4 74
F A
M EK
S im
b ut
m b
p ed
t uzumab
v ent
Â §
Î Ķ
in to
re ement
ĠA BI
Ġto gether
ent er
res pec
ĠS ci
Ġcon s
Ġex cept
Ġ2 1
Ġ2 8
Ġcomp uted
Ġat traction
ĠH apX
ug ust
11 1
erm any
Ġph ph
Ġ/ âĪŀâĪŀ
Ġer lotinib
ind ic
Ġmod elling
CA M
sh own
ĠNetwork s
Ġmeasure ments
Ġvalid ated
Ġcal c
det erm
Ġtum our
Ġperi odic
Ap optosis
Ġrese arch
Ġcytos ol
, ...,
7 7
8 9
F b
H owever
S LP
b f
g f
p rim
t ures
x im
Ã Ń
Ġ {
Ġs ust
er ative
ro b
le x
Ġf ail
Ġf ind
Ġb ox
od imers
lo bal
un its
ĠS pec
ĠS reA
Ġg reat
Ġcon stitu
il it
id ate
ol ved
Ġl ate
Ġl ikely
cl uding
por ts
por ting
Ġim plement
con trol
Ġsimul tane
ak ing
activ ate
0000 1
can cer
Ġincre ases
Ġdiscre p
func tions
Ġmedi um
inhib itor
IN sim
ĠBN E
Ġsignificant ly
Ġantibod ies
ider oph
Ġformal ism
Ġdegrad ation
ithel ial
5 5
B C
G ATA
O YN
S E
T reg
a ved
a ults
c at
d in
f actor
l ated
r u
s R
in fections
re ady
en ding
Ġc ross
Ġp o
it ing
Ġm uch
Ġm ax
Ġn ow
as ter
om ic
Ġst art
ĠS uch
ot ed
Ġex trinsic
ĠM A
tor y
ad ing
cl es
Ġtrans cript
Ġde gree
Ġ3 0
Ġ201 1
Ġrel atively
Ġstr ateg
Ġfollow ed
Ġconf irm
ĠAl though
Ġallow ed
Ġcl indamycin
inter action
ful ly
Ġknockout s
Ġleukem ic
Ġdep icted
Ġstruc tural
MA D
comple te
ĠPA RP
tem ber
Ġsto ichiometric
compon ents
Ġlung s
OYN ET
6 1
9 6
F ox
S D
c um
f eedback
in ase
in tes
Ġa verage
at ures
ti ce
Ġp rin
Ġm ake
ĠA ugust
Ġn ucleus
ar ing
Ġre plic
st ep
ĠC at
ĠC ommons
the n
Ġex p
Ġex tension
00 2
ĠM AP
ĠM Ã©
up lic
ĠR ho
ĠG RN
Ġwh at
pro vid
ĠĠĠĠ ĠĠĠĠ
av ing
NF KB
de f
ie tic
ĠSt ate
Ġphosph at
Ġlow er
Ġassum e
Ġdetail s
Ġreconstruc tion
Ġend ocy
ĠPD GF
osin oph
opo ietic
Ġstar ting
Ġpop ulation
Ġamo unt
Ġmember s
ĠSep tember
A G
A t
D Fs
G en
M G
N o
S upplementary
S upplemental
T C
g u
m ark
o h
r ich
s el
s uch
u str
v is
x ico
z ed
Ġ z
Ġs een
ti s
or y
al es
le m
ic ense
Ġb i
Ġd iffic
et ing
tion ed
ĠT rans
ut ure
Ġst atus
ĠI KK
ĠS KBR
Ġh om
Ġg iv
Ġl aboratory
Ġ2 9
tr a
ĠR AS
ĠG SK
ep ar
ĠH e
Ġus ually
Ġch o
Ġco lo
NA I
Ġother s
cep ted
tif ied
Ġro les
Ġass igned
Ġse em
Ġperturb ed
val u
amm ation
ĠCa M
ni qu
sequ ently
Ġran ge
aj ector
Ġdise ases
gro wth
Ġdecre ase
Ġaffec t
Ġinst ance
Ġcasc ade
Ġprop ag
Ġdiscus sed
Ġtur n
Ġfinding s
ced ure
% )
6 4
A ut
E L
G AP
P D
g n
g in
h h
l ap
p s
t um
w t
Â ±
Ġ %
Ġ âĪŀ
Ġt ake
in ical
in formation
on al
Ġs ideroph
Ġin duce
et ort
st able
im e
ĠC X
us ing
Ġpro por
ĠM IS
Ġac id
op y
ĠR B
ĠR BR
por al
ĠL UT
str act
ous e
pos ed
tif ic
Ġ201 4
Ġinhibit ed
Ġcontrol led
Ġdo uble
Ġidentif ication
ace ae
Ġem erg
ĠCon trol
MP s
Ġreco vered
enc ies
Ġtherap y
Ġadd ed
Ġbl ack
plo y
Ġcol on
Ġorg an
Ġden ote
dynam ics
Ġantibod y
MV B
Ġligand s
Ġnam ely
Ġtrig g
TR etort
Ġconverg ence
wit ch
Dep artment
Ġdiff er
Ġacco unt
Ġplastic ity
Ġpe ak
intes tin
TRetort aeformis
0 6
D is
I D
P er
S B
b x
c to
l a
m ech
p ing
s ystems
Î ²
re stricted
at ically
Ġs epar
en esc
al izing
Ġc and
it al
ic k
Ġf l
Ġb ound
ĠA fter
Ġre st
ĠT OYNET
om en
im er
ĠC o
am mal
uc k
Ġcon text
ĠB y
Ġex hib
ĠP MV
ĠE MT
Ġon es
ĠF irst
ir ing
ĠR PS
ri es
ator ial
ĠG rb
ep G
hen ce
Ġch olesterol
end ed
Ġpredic ts
Ġmod es
Ġform ation
Ġdescrib ing
Ġgener a
Ġindic ated
Ġanti gen
ĠNF kB
Ġequ ivalent
cur rent
ĠIFN g
Ġindi rect
Ġcle aved
Ġkin ases
Ġreg arding
ĠPL D
ĠÂ ¼
Ġclas ses
gro up
ĠCy clin
Ġtop ology
ĠCl n
Ġgu ard
Ġreveal ed
ĠAr ticle
Ġdirec ted
Ġsubsequ ent
Ġinterven tion
Ġvis ual
Ġwor ds
Ġeas ily
eti tion
Ġplasm a
cto ber
5 74
C B
C analization
I m
I t
O P
U N
d k
d escribed
h i
n els
p o
v ari
Ġt ech
re n
ed ges
ed ia
es tern
Ġin fections
Ġw g
it r
Ġm ice
ĠA dditional
Ġg ive
Ġg lobal
Ġcon cer
ĠB arnesiella
id A
ĠP BMC
io logical
Ġcomp artment
Ġcomp ris
ĠIn stitute
our ces
Ġsh p
Ġen do
Ġad ap
Ġcom munity
ak es
ari ly
Ġhe althy
Ġstud ents
Ġover all
pha ges
ĠSt ates
RE BP
ĠNF AT
ĠIFN G
Ġag reement
Ġpropos e
enc ed
Ġcontain ing
me asure
Ġadd ress
Ġcircu its
ï¬Ĥ ux
ĠâĢĻ âĢĻ
SO CS
ĠUn ited
Ġdisrup tion
ĠIg G
Ġcasc ades
chan ge
ĠAut omata
Ġperm its
Ġdiï¬Ģeren tiation
yel oid
aran te
ini tial
ĠInterest ingly
indi vidual
Ġneutroph ils
+ ]
1 10
C F
O ur
R e
W G
b Hed
b urg
d es
i red
m o
p ri
t ypes
in c
al low
Ġc r
Ġc entral
Ġan ion
le uk
ĠA mer
Ġn umer
ar io
Ġe osinoph
ĠT ext
Ġth ough
ĠS pi
id ed
id ence
Ġal ready
00 3
Ġl is
Ġl ab
Ġl ast
ap e
ĠR ab
ĠIn formation
ĠIn tegr
Ġregul ator
igh b
Ġdis tributed
con f
con sis
gr amm
The re
Ġco un
ill ustr
cy bHed
ail ed
ĠU sing
model ing
Ġappro xim
Ġsup port
ival ence
Ġred escription
200 7
14 71
ucle ar
ĠAl bert
Ġsp atial
ĠCA V
PA R
ass ociated
eb ras
function al
umm ary
Ġdepend s
input s
Ġsubset s
Ġreconstruc tions
gro und
Ġneed ed
Ġlymph oid
phosph ate
Ġperi od
AD D
Ġcheck point
Ġestab lish
stimul ation
Ġrecent ly
connec ted
ï£¬ ï£¬
ï£· ï£·
Ab stract
Ġsimultane ously
ĠMÃ© xico
574 1
ebras ka
. [
E d
E KK
H F
M ethods
P P
T OR
e w
f ault
g ing
k s
l ong
l ight
m ap
p at
p are
r ac
r ine
s ingle
Ġ <
Ġ _
Ġ hemat
at form
en tioned
or m
Ġc ore
Ġc hem
Ġp hen
it u
ul ner
od ing
ĠC ancer
ur ine
Ġh aving
ot tom
ĠM icro
ce tic
Ġac ross
qu an
ĠD ep
yn thesis
ati v
Ġpath ogen
Ġle ft
pl ies
Ġdis t
ĠL PS
Ġch ain
Ġ5 6
Ġpar asite
Ġmet astasis
ĠJ an
sid e
Ġint ensity
Ġsyn erg
Ġsyn thesis
ĠAn ion
par ation
cu it
cus sion
ĠZ EB
48 6
Ġdecre ased
Ġins ights
Ġser ies
Ġhypothe sis
Ġep ithelial
Ġfac ilit
neg ative
Ġarc s
Ġimp act
Ġarrow s
Ġevol ution
eep ing
Ġbet ter
ĠPBMC s
8 0
B N
D e
E n
E RBB
N GF
R G
T T
n on
s ign
t ake
v an
v ector
z a
Ġ Ï
Ġ ÃĹ
at ec
Ġs ur
an istic
Ġf ree
Ġf ive
Ġm utation
Ġb ind
Ġd eregul
et he
et yl
ar ray
as hed
ĠN ebraska
ĠO ctober
ĠI P
ĠS un
Ġg over
Ġpro te
ot ing
Ġex peri
ĠM et
Ġl ist
Ġcomp utation
Ġcomp rehensive
ri tic
und ing
ĠG INsim
ch aracter
ph age
Ġregul ate
Ġle arn
Ġr un
ĠW ith
con ver
con strain
ud y
13 0
ari os
Ġ200 7
ox id
ag ment
ĠÎ Ķ
Ġmethod ology
Ġconsid ering
val ues
Ġindic ating
200 2
Ġinclud es
abol ic
Ġassum ed
Ġhel per
ĠAt tribution
Ġexpl ain
anc ies
ĠSim ilar
PK C
Ġtrig ger
Ġpossib ility
Ġerr or
knock out
TNFR SF
1004 486
ĠAmer ica
' s
L M
L IP
W nt
a ff
i ally
p rom
s ame
t ely
u ary
Ġs amples
er atin
en put
or respon
Ġc ut
ro gen
Ġf igure
et s
ĠC IR
ĠC reative
us e
ĠS K
ĠS ch
the less
ĠB T
Ġex pres
ĠE CM
ir B
tic ular
ap id
ĠR NA
Ġv i
ĠG ermany
ther ap
ach nos
ine ering
Ġen h
ĠL icense
con centr
av ailable
ack ground
ign ant
âĪ Ī
Ġeffec tive
Ġsc ore
Ġout come
cor d
100 23
Ġmod ules
Ġcomplex ity
NK G
be hav
201 7
ark ov
ise ase
Ġconnec tion
IS T
Ġcir cles
Ġem ploy
Ġreco ver
poin ts
Ġreconstruc ted
Ġcaus es
ĠBio informatics
Ġfocus ed
clus ion
predic tions
MY D
attractor s
Ġappe ar
Ġresist ance
ĠDecem ber
correspon ding
Ġmitochondri a
plicit ly
Ġdiffic ult
ĠJan uary
10023 45
3 12
6 2
6 9
A BA
B iology
H ere
J un
L T
L ig
M ed
R AS
g re
o gene
p y
p ase
p henot
u ence
Â ł
Ã ³
Ġt able
in imal
in cluding
Ġa im
at is
Ġs um
Ġs ample
Ġs ensitivity
Ġs ymmet
Ġs itu
Ġc re
Ġm RNA
Ġm ammal
od ed
Ġe fficient
ĠT A
im in
ĠC as
ĠC RE
Ġcon tin
ĠB ecause
Ġpro gen
ab ase
ĠM y
ir d
and s
Ġv itro
di ac
oc rine
Ġregul ations
Ġregul ates
Ġr ight
Ġper sis
ting uis
Ġim plic
ber g
Ġne ighb
Ġch all
Ġdifferen ce
Ġad vant
tif ication
Ġro w
ens ive
Ġini ti
Ġhe at
100 5741
Ġqu es
PL C
Ġtr ue
Ġtr ajector
Ġcomplex es
Ġaut hor
201 6
Ġconnec tions
Ġschem e
Ġconver ge
IS C
Ġfr action
Ġinhibitor y
Ġreg ard
Ġmean ing
ĠSO D
ĠCy cle
NO T
ĠDC M
TI CAM
pir aceae
ĠCY CD
clud e
Ġtool s
ĠIg A
Ġalter ations
Ġestab lished
Ġdat aset
Ġachie ved
Ġtem poral
Ġoverex pression
4 38
B F
B ackground
F r
H H
I C
M O
M ac
M KK
U niversity
a w
a res
b re
b it
c as
c ill
e ived
f ixed
j ect
l er
m ig
m ber
s u
v ance
Ġ ly
Ġ illustr
Ġt D
Ġt ext
re pres
Ġs ix
or ph
Ġb ack
ĠA R
et y
Ġn M
ĠS er
am ag
os en
Ġpro gram
ol ated
ĠP er
ĠP en
ĠP ath
ĠM T
ĠM ET
Ġas pec
Ġon ce
âĢ ł
ĠF OX
ad s
ĠR gt
ph ase
con ditions
Ġtim ing
Ġtim esc
Ġmet a
Ġi Treg
Ġits elf
Ġsc ale
Ġiden ti
org an
200 6
Ġinfl ammation
kn owledge
ĠPro liferation
Ġprob abilities
ove mber
PA RP
sequ ence
par amet
oryl ation
ĠTGF BR
Ġreco gn
ov ing
Ġlim ited
Ġcaus ed
ĠPD K
Ġsimpl ified
Ġgu arante
Ġevalu ation
SO D
ĠFox o
ah a
Ġoper ators
Ġexis ting
10043 38
Dynam ic
rele vant
cat en
Ġgiv es
leuk in
ĠIntegr ins
achnos piraceae
5 8
A dditional
E S
I M
P TP
R O
b iology
c g
c ir
d epend
h yp
j unc
Ġ Q
Ġ ion
Ġt yp
re qui
er amide
ed uc
is ing
Ġp ut
Ġp RB
Ġp olar
Ġp lot
ro p
Ġm ouse
Ġd ys
ĠT bx
ĠN odes
ĠN ovember
ĠO ne
ĠS tr
ĠS NAI
os cill
Ġcon strain
Ġpro cedure
Ġex tracellular
ĠM O
ĠM KK
ĠM DFs
âĢ ľ
Ġac tion
Ġac cur
ĠF OS
qu alitative
Ġcomp etition
ĠD es
Ġr apid
ex p
Ġ4 8
pos itive
Ġph armac
ĠV CP
escrib e
Ġme as
yl van
uk ary
Ġsup plement
Ġsup eroxide
Ġover lap
lif erative
trans ition
Ġrespec tive
Ġu til
ĠTGF b
Ġcharacter ize
Ġconsis ts
Ġfe atures
differen tiation
Ġremain ing
Ġrepro duction
Ġprom otes
Ġparticular ly
ddition ally
Ġrandom ly
Ġent ry
Ġenvironment al
ier arch
ĠSH P
Ġsuccess fully
Rec eived
10043 24
ns ylvan
rontiers in
Ġstand ard
Ġbre ast
ĠLog ical
Aut hor
Ġsynerg istic
nsylvan ia
# #
8 2
A A
A ND
B cl
B ET
D D
G E
I AP
L ow
P s
c losure
g ed
i tively
l m
l ation
m ail
r ig
s ection
u ti
u ro
Ġ ^
in ing
Ġa x
at io
Ġs ig
an n
Ġm edia
Ġre c
ul y
st udi
ut ing
lo od
ĠC ol
ĠN ormal
ĠN ational
ell ed
un ts
ĠO m
ĠO pen
ĠS h
ĠS ummary
ter s
uc ial
ĠB A
Ġex act
um ent
qu ation
ain ing
ĠR OR
di ï¬Ģeren
Ġnot e
Ġper tuzumab
Ġspec ial
ĠL ow
Ġinterac t
Ġdifferen ces
Ġ4 4
tro duction
Ġco upled
end ritic
ĠCD H
ĠU SA
Ġ201 6
20 8
Ġform at
Ġknock down
Ġequ ation
Ġequ ivalence
Ġcycl ins
Ġprob lem
Ġmain ly
ass um
Ġbas is
ĠAc cess
TP k
Ġcharacter istic
Ġvalid ation
Ġblo t
Ġoscill ations
ĠFox p
ros ine
Cy clin
Ġinterpre ted
eng th
Ġtak en
ĠSH F
hom inis
Ġscen ario
Ġestim ated
Ġassump tion
Sr cybHed
Ġbuil t
follow ing
ĠAT M
1000 438
rich ment
Ġtech niqu
Ġeosinoph ils
Ġhemat opoietic
* ,
A B
A naly
C X
C opy
F urthermore
G D
O n
V Y
a z
d amage
e as
f rontiersin
g iven
h yper
k inase
l iter
m ad
m acro
p t
r ad
t le
â ī
at hematical
er al
al in
ed u
es is
Ġp ERK
Ġp ool
Ġan not
ro ad
Ġf uture
Ġn rg
Ġre ce
ul tim
Ġe ukary
st h
st udy
ut h
ĠC enter
ĠN ot
Ġst re
ĠI R
ĠS up
Ġg ut
os is
Ġpro duce
Ġex ogen
00 55946
ĠM inimal
Ġl ater
ri ed
ĠD ata
ĠD ifferen
pec ially
to ch
duc ted
ĠH epG
ase gment
Ġtrans crip
Ġit er
Ġinter mediate
ĠIL K
Ġen g
Ġen s
Ġet c
Ġsystem ic
ud ding
tos e
Ġkn ow
ack age
end o
11 00
Ġad j
Ġph ot
ĠCD KB
Ġpredic tive
ĠK Ã¾
Ġmod ule
Ġstimul ated
Ac id
sim ulations
alit atively
stand ing
Ġtreatment s
pa ir
dis crete
Ġrepro duce
ĠAt tractor
Î³ R
iï¬ģc ant
Ġtum or
MY C
ĠRes earch
Ġremo val
RT K
Ġmo tif
atur al
ĠBi ol
BC N
uplic ation
Ġpropor tion
ĠMIS s
pare n
Ã³ n
ĠPen nsylvania
8 1
9 29
N T
P E
R ho
S RN
T G
] ;
b ivalent
c he
d h
e ither
f h
g odic
m em
p ly
p attern
t est
u ate
v o
w ide
Ġ 71
Ġ hence
Ġa per
Ġthe oretical
Ġs ink
Ġs ense
Ġs witch
en ch
al k
Ġc at
Ġp an
el low
it ors
Ġf i
Ġm im
Ġb iom
Ġd ur
Ġd one
ĠA b
as ion
Ġre duce
Ġre cap
ac ion
Ġe ight
ĠC M
ĠC bl
ĠN a
ĠN rf
res ul
Ġst ages
ur sor
ĠS MAD
Ġh h
Ġg ates
Ġal tered
Ġex press
ĠM K
ĠM aterials
se q
ĠF HF
ran d
ran ce
tr y
ap optosis
Ġcomp os
Ġcomp are
Ġcan alizing
ment al
Ġv ir
ĠG a
ĠG ro
Ġk eratin
Ġ3 3
Ġdis tinguis
Ġen ab
Ġen ables
ex ample
Ġim pro
ue z
Ġsystem atically
Ġch osen
bi ome
Ġup take
ail ability
Ġcomple tely
timul i
Ġrel ation
Ġer godic
Ġpre paration
com es
de grad
20 3
Ġbiological ly
ĠCell s
Ġdo i
vers ely
Ġsup press
Ġlar ger
Ġmech anistic
Ġpl atform
Ġx i
201 2
Ġav oid
Ġcl inical
Ġsugges ting
ĠModel ing
Ġmedi ator
Ġdes pite
Ġoutput s
ĠAc tiv
Ġsmall er
Ġdep ending
bet a
Ġpartic ip
ĠZ h
bl ack
Ġremain s
ĠCl b
man n
Ġpurpos e
Ġman ner
73 9
Ġorg anisms
Ġevalu ate
Ġcar diac
pir ical
Ġext ensive
Ġexis ts
Ġapplic ation
Ġdiv ision
ien ti
Ġoptim al
ÂĨ& !
Ġsust ained
Ġbox es
ĠâĪŀ /
Ġsideroph ore
ĠCX CR
concentr ation
behav ior
ĠMy osin
A MP
B K
B CL
D el
F os
F rontiers
P GN
c f
c ulture
i hominis
j ec
l k
l igh
l ink
n as
q R
s ome
v ation
y rosine
z y
Â ģ
Ġ âĪ
re m
Ġs i
Ġs low
Ġin tra
ic ine
Ġf und
Ġm yeloid
Ġb ottom
Ġd ig
ar ization
Ġre str
Ġre tur
ul a
ul os
ĠT wo
im portant
ĠC HK
ĠN ICD
Ġst age
ĠS B
the s
the ir
Ġcon cept
ĠB ased
ĠB IR
Ġon the
ĠThe y
duc ible
Ġactiv ators
red und
Ġgen ome
ep tor
th reshold
ch ang
Ġregul a
Ġnot ation
Ġr ates
iv o
Ġ3 7
01 3
tial ly
perim ental
wo uld
CD C
ip her
cer tain
Ġnumber s
Ġpre vent
nec essary
sc hem
Ġdescrib es
vious ly
14 739
Ġint u
sim ulation
26 6
Ġdef ine
Ġconnec tivity
signal ling
Ġconver sion
work s
eb p
ÂĨ ÂĨ
Ġconstruc t
Ġconstruc tion
cal led
me an
inv olved
Ġ0000 0
Ġmacro phage
Ġden oted
Ġcontrib ute
Ġconcentr ations
Ġexpl an
ĠCh IP
anc ed
predic ted
Ġsubsequ ently
Ġinterven tions
effec t
ĠLSS s
Sup pl
Ġmicrobi ome
Ġsymbol s
Ġphosphat ase
enesc ence
pri ate
conf igur
ativ ec
ĠSimilar ly
Ġmammal ian
ĠCRE B
Ġmeas ures
Del ta
6 8
7 2
: :
B arnesiella
D ata
E D
G G
I T
d ec
f act
i ï¬ģed
l and
n am
n ature
u od
Ġ vers
Ġ ultim
in active
on ical
Ġs ite
Ġs ampl
ti de
en um
or ing
or ig
Ġc bi
Ġc ulture
is sing
Ġp ublic
el et
ro sis
Ġf ar
Ġf ix
Ġf ield
Ġf aults
Ġm M
Ġm akes
Ġb al
Ġd ay
ĠA dditionally
as k
om ics
lo op
ĠN K
ĠN UC
ĠO ther
ĠI G
ĠI N
ĠI s
os ome
Ġcon ducted
ĠB ir
Ġex tent
Ġfor the
Ġfor IBD
ĠM arkov
ĠE gr
Ġac cum
ĠF rom
ĠF urther
ran t
tr ation
ĠR IP
Ġv ivo
red ited
red uplication
th ree
Ġ0 1
yp ic
oc ument
Ġr ac
Ġper centage
Ġspec ified
con tain
con sid
Ġ4 9
here nt
out s
cre ativec
Ġcor rel
In troduction
Ġass ay
utation a
Ġpres er
Ġthere by
Ġtr act
Ġcontrol s
Ġcontrol ling
Ġaut ocrine
Ġgener ate
Ġchan nels
Ġinvol ve
RE C
Ġop pos
Ġmain tained
âĢĺ âĢĺ
signal s
ĠEx pression
Ġspecific ation
Ġline ar
Ġu ell
Ġnec ess
Ġbin arized
Ġsequ ences
Ġj ust
Ġsecond ary
Ġquan tify
ĠCDK A
Ġsel f
Ġmacro phages
clus ive
experim ent
Ġmajor ity
Ġreveal s
dynam ical
Ġent ries
ĠRec Lig
ool Net
combin ation
perturb ation
perturb ations
Ġtak es
go ing
ĠIm mun
Ġprec ursor
Ġreflec t
Ġsecre tion
Ġef for
ecre ase
Ġapp lying
Ġmicrobi al
Ġhyperarc s
Ġinc ub
ĠML K
appro ach
Ġexplo re
develop ment
Ġdiscrep ancies
mech anisms
Ġcr ucial
Ġadvant age
Ġaspec ts
Ġguarante e
208 41
ĠIR AK
Ġrecap it
ebp b
uod enum
creativec ommons
/ Ā
8 5
9 8
C itation
b u
b ec
c el
c aus
e ars
f irst
r il
r af
t ence
Ġt yrosine
in a
Ġa st
re pro
on ic
Ġof IL
is ation
el ine
ro bust
Ġd ra
Ġd imers
ĠA RE
Ġn t
ar l
ar row
ĠT BET
ĠT SRN
st s
st ability
im en
ĠC LL
Ġst omata
ĠS ingle
ĠS econd
Ġcon tained
Ġcon served
ĠB L
ate gor
ĠM it
Ġcell cycle
Ġl Biology
Ġac ti
Ġac cess
Ġ2 2
ĠF as
op er
up d
qu is
per formed
Ġv ary
ĠG ut
ĠG ab
ĠG fi
ĠH og
10 1
pro liferation
Ġr ad
iv ing
Ġdis play
01 929
ex pected
Ġspec ifically
Ġcom mit
ific ations
Ġhe pat
Ġshow ing
ym ph
ik ar
Ġsup porting
ĠComp utationa
Ġel ec
Ġel imin
Ġam bivalent
200 9
Ġinvol ving
istic ally
ĠAl so
Ġbehavior s
tok ines
ĠAn y
Ġliter al
Ġdep ic
Ġproper ly
pa ired
ob tained
ob served
Ġhel p
Ġfe ature
Ġinflu enced
ĠPL oS
St at
Ġlong er
no log
Ġman uscript
Ġabs ent
Ġobserv ation
arm a
Ġredund ant
pir atory
Ġunc ertain
Ġlink ed
chan ges
MI CA
ĠAut hor
Ġnam es
ĠPh ys
Ġdetermin ation
Ġcollec tion
Ġgo al
Ġelement ary
ĠDecem b
ĠLog ic
Ġinc idence
ĠML CP
Ġenzym es
Ġphys iological
Ġcalc ulated
Ġmax imum
Ġtranscript ome
At tractor
Ġpropag ation
ĠAnion Ch
oxid ant
repres ents
Analy zer
chang ed
ipher al
B L
D es
E V
F AS
P ublished
R R
R od
R IP
S CR
] )
b on
b le
c ase
c hed
d ers
e valu
f ate
k b
l ines
p ublished
s reA
s ensitivity
v a
v on
w or
Ġ ;
Ġ ide
Ġ Ã°
Ġt od
in ation
in ant
Ġs ites
Ġs ensitive
Ġw r
it ting
Ġm ass
Ġm urine
Ġb ars
Ġb road
Ġd ependent
ĠA ss
ĠA TP
ĠA cetic
et h
et erm
Ġn a
Ġn g
Ġre view
ac cess
ul se
Ġe ffic
ĠT RAF
st ead
st atec
ĠC SS
Ġis s
ĠS p
os ynthesis
Ġpro duc
Ġex plicitly
ĠP OR
ĠP aris
ĠM ost
ĠM AL
ĠE R
ib ility
âĢ Ķ
Ġl ength
ĠF C
ĠF AK
ĠF rance
Ġby the
ĠThe oretical
op os
tic s
tic ally
Ġcomp aring
Ġcan c
Ġcan be
ĠD e
ĠD AG
ĠH MG
Ġ3 2
ĠW NT
ĠL e
ĠL ymph
Ġsystem atic
13 8
tim es
ome ost
Ġresul ted
Ġph ases
Ġup per
Ġrepresent ative
Ġlo ok
ĠJ uly
Ġro und
Ġsc ores
Ġcomple ment
ĠK n
AS ASP
Ġobser ve
Ġtr uth
ĠÎ Ľ
Ġcombin atorial
with in
18 32
200 4
200 8
ĠSt art
Ġrem oving
Ġallow ing
Ġphosph o
ĠIFN GR
sequ ences
Ġmedi ators
ĠTGF B
Ġsequ ential
ĠTNF R
Ġcur ve
Ġmetabol ism
Ġmetabol ites
ĠZ AP
me ans
Ġprom o
Ġes pecially
Ġcaus al
clus ions
represent ation
Ġcar ried
dynam ic
Ġaffec ted
Ġinst ead
Ġtes ting
Ġbu ild
Ġabund ances
tot ox
Ġsumm ary
Ġinterpre tation
Ġpair s
Ġmal ignant
ĠIEC s
through put
Ġcomput ing
Ġachie ve
Ġstat is
lar ge
Ġscen arios
Ġdemonstr ated
Ġclo sed
Ġir re
Ġinvestig ate
Ġfrequ ency
respec tively
Ġimplement ed
Ġprin ci
intestin ihominis
Dis cussion
Im mun
Ġcompris es
Ġdist ance
Fr ag
Ġax is
Ġens ure
endo za
ĠSB ML
013 1832
ocument ed
7 9
9 7
A F
A d
B ased
C re
G C
O FF
S ci
T CR
U RE
Y CA
b ecause
b oh
c ip
c olumn
d ed
d ence
f old
g reen
h uman
k ey
p nas
s ource
s nf
t on
t ol
u PAR
v ae
} ,
Ġt w
Ġa T
at aset
Ġo s
Ġo wn
Ġc los
es p
Ġin activation
Ġin duces
is sion
el ikar
Ġan al
ro se
ro phosphate
le ft
Ġw ays
Ġf ung
Ġm ul
Ġd ark
Ġd ashed
et ent
Ġn ull
Ġre verse
ac u
ĠT bet
ĠT ime
ĠT alin
st an
Ġth ird
lo ck
Ġst op
ĠS w
ĠS CF
am ong
Ġh or
Ġ1 000
ĠP GN
if e
se mb
Ġl a
Ġ2 7
op e
ad ic
ĠD i
ĠG AL
th us
Ġus es
ch ased
ĠIn put
for ward
Ġtrans lated
ex ternal
gen ic
Ġim plies
ï¬ ĥ
ever theless
cy clin
Ġother wise
ron ic
activ ating
co gene
ens us
Ġout comes
Ġse gment
Ġiden tical
com ing
ĠCell Net
tit y
plic ity
Ġinvol ves
ĠAp ril
ey de
ucle o
sim pl
ĠAn ti
Ġconnec ting
path s
Ġref erence
par ticular
stit ut
Ġnew ly
Ġcle arly
Ġbin arization
Ġreco vers
ves tig
Ġintegr in
ang les
Ġvalid ate
bl ue
Ġidentify ing
fer red
Ġtop ological
Ġinterest ed
Ġfin ite
ify ing
represent ed
AL T
Ġintro duce
Ġhypothe ses
equ ations
Ġsto red
Ġsumm ar
Ġincorpor ated
Dynam ical
mut ant
Ġassump tions
Ġcytosol ic
Ġconstitu tively
factor s
ĠMA CR
Ġstrateg ies
Fox p
gramm ing
Ġphen omen
ulner ability
ĠMicro biome
Ġques tion
caten in
hyp othe
Ġrec ru
ĠOm aha
Copy right
acion al
rand on
Ġdistinguis h
quis ition
totox ic
. )
0 2
2 26
C ol
C dc
E RA
F IG
M ore
M MPs
R Y
S I
S pec
T r
X T
a ffec
c ies
d ri
f ound
f ocus
h ow
h aus
i ency
k inetic
l d
l ux
m olec
m ulti
p otential
r m
r am
r ate
r ules
s ol
s pon
u ed
w g
x ed
y d
Ġt ran
in fected
in cluded
he st
re vious
Ġs ens
er n
ti z
en ess
en tific
Ġc ere
Ġc AMP
es ides
an sion
an uscript
Ġp in
Ġp red
Ġf er
Ġf ore
Ġf old
Ġm entioned
ac ch
Ġto o
ig en
ĠT fh
om bin
st alk
lo ad
ĠC H
res sed
res ist
un restricted
ĠS I
ĠS te
ĠS ome
Ġh old
ĠB C
Ġpro state
ol ding
ĠP BCN
00 4
00 5
ĠM DM
ĠM olecular
ĠE bf
Ġac ts
op sis
ad igm
tr boh
Ġcan onical
ĠR ed
ĠR EL
rom e
ĠD ISC
to f
di rect
ĠG iven
th ase
ĠIn hib
Ġinter val
Ġinter medi
pro liferative
oc cur
Ġregul ating
Ġle t
ub iqu
ding s
Ġper man
ĠW T
ĠW estern
Ġspec iï¬ģc
ĠL i
con tent
The oretical
Ġpar ts
av es
Ġrespon sible
abil istic
oin t
Ġad ult
ĠCD C
ĠU p
Ġdet ected
ĠV al
Ġsub constrain
cer amide
Ġind eed
Ġ200 5
struc tion
ual ism
trib utions
Ġtr a
ĠÎ ¼
de gree
do es
Ġred escribed
Ġmicro array
Ġ9 0
Ġlar vae
Ġdec l
Ġvari ety
Ġphenot ypic
ten ance
Ġstudy ing
Ġsign iï¬ģcant
trans duction
201 3
Ġincre asing
Ġdef in
Ġdes igned
Ġbas ins
ĠAc tin
ĠPP I
Ġproper ty
Ġï¬ģ n
environment s
enc ing
Ġhere in
Ġtherap ies
Ġblo od
Ġmit osis
IFN Î³R
ĠPA I
Ġins ight
iel ds
Ġcurrent ly
Ġevalu ated
Ġcontrib uted
ĠCY CB
Ġhig hest
BI D
vi ations
Ġtri als
perturb ed
ng th
Ġexist ence
AR CH
Ġheter ogene
Ġcollec ted
Ġresist ant
Ġerr ors
Ġbre ak
loc ation
Ġdom ain
Ġassess ed
Ġevent ually
prob ability
210 5
ÃŃ a
Ġfail ure
Ġgreat er
SE ARCH
Ġz ap
Ġcand idate
itr ary
Ed itor
Ġsymmet ry
ĠFOX P
cir cuit
Ġput ative
liter ature
Ġpan el
Ġdur ation
ĠZh ang
ĠCHK REC
elet on
Ġvary ing
ĠLymph ocyte
Ġstatis tical
FIG URE
ubiqu it
+ -
6 6
6 7
9 3
A DP
D S
D OI
E bf
F as
F unding
L og
M odelling
M athematical
S REBP
U LP
W hen
W IST
b el
d le
d isease
e ap
f eren
g ence
h aran
k e
k eleton
l l
l ational
m aking
o u
s f
s um
s ugges
s ince
s mall
s econd
u ff
v are
x i
Â ©
Î ¼
in t
in ï¬Ĥ
Ġthe network
Ġs qu
Ġs ources
al t
al ter
Ġin ser
Ġin IBD
Ġof a
an ge
Ġp rac
Ġp ackage
el i
el ed
Ġan imal
Ġf iles
Ġd uodenum
Ġn uclear
as h
Ġto be
ĠT F
ĠO ver
ĠI BD
ĠS NO
ĠS nf
am ond
am ental
Ġh ierarch
uc tural
id opsis
id haran
ab idopsis
Ġex er
ĠP ark
if ies
se ver
ver sid
ĠF VY
op en
ri ef
ĠD O
di rec
ĠG ai
Ġk ind
ati ent
th ose
ĠH OG
ĠH eyde
ĠIn s
cl ust
Ġr ab
Ġen able
Ġen ough
Ġcy totoxic
con tr
ous ek
Ġ4 0
ia e
12 0
Ġco e
Ġad ding
Ġpos itively
ost er
âĪ Ĺ
bin ding
Ġeffec tor
ĠV ir
co uld
Ġbio log
Ġun its
Ġ200 3
Ġinf erence
Ġy ellow
Ġ7 0
sc ape
Ġappro priate
Ġgraph ical
Ġ9 6
wh ile
wh ite
be ing
Ġpl ays
ni versid
Ġsyn chron
Ġneg atively
Ġequ al
sim on
Ġdef ault
ae z
ass ess
spec tive
Ġag ents
Ġconver ted
Ġconver ges
stit utes
âĪĴ âĪĴ
uz zy
ogen ic
Ġnec rosis
Ġem pirical
CS F
Ġdevelopment al
MA L
Activ ation
itor y
bio chemical
Ġpotential ly
Ġ20 10
met abolic
Ġcol or
Î³ Î³
down stream
Ġcour ses
ĠFox O
ros stalk
ST M
Al l
equ ivalent
ah n
Ġtri ple
Ġinterpre t
Ġcolumn s
Ġrese mb
Ġtiss ues
Ġstabil ize
TA FC
Ġconverg ed
Ġloc ation
effec ts
ĠInter leukin
Ġclo se
Ġdri ven
din ary
Ġpo ly
Ġconfirm ed
No G
vis iae
ĠHe at
tum our
Ġlis ted
quan titative
Ġderegul ations
ĠMet astasis
gre es
Ġsitu ation
Ġchall en
Ġtechniqu es
Ġaper ture
ĠAcetic Acid
Ġcanc ers
ULP B
vare z
ousek eeping
niversid ad
8 3
9 4
A IF
B i
B randon
C I
C ollective
C reative
F ADD
I s
J UN
K Akt
M aterials
N MA
P h
R g
R SK
T OS
W h
b as
b ox
c hes
d uring
e an
f ac
f urther
h p
l t
l ab
l abor
m ong
m ax
m ethod
p ower
p ris
p tc
t l
t z
v ia
Â º
Ġ Ã
Ġt en
Ġt ask
Ġa rb
re z
re construc
Ġs a
Ġs eed
Ġs ide
al ing
Ġc ollective
Ġc ategor
ed ge
es tim
Ġin ducing
Ġin fected
Ġin complete
Ġin herent
Ġof IBD
is h
Ġp i
Ġp tc
le ar
le ading
it able
Ġf eed
Ġf uzzy
Ġm orph
Ġb ist
Ġd on
Ġd if
Ġd endritic
ĠA d
ĠA g
Ġn or
Ġn hh
Ġn atural
od ynam
Ġe c
ĠT Fs
om as
st B
st ar
im port
ut ri
ĠC I
ĠC rk
ĠN R
ĠN ck
ĠN ext
ĠN evertheless
un x
ĠO f
ĠS idA
ĠS REBP
ĠS timuli
Ġg et
ĠB b
ĠB l
id ely
id dle
Ġpro duct
ab s
ot al
Ġex trac
ĠP H
ĠP TC
00 01
ĠM EKK
ce ed
ow ard
Ġon to
Ġon co
Ġon set
Ġl ated
Ġac ting
Ġac cord
ĠF ile
ĠF AS
ran ge
te x
ap plied
ĠR ep
Ġwe ak
Ġat tem
Ġactiv ities
ĠG u
th an
cl ic
cl onal
pro g
pro statec
Ġ3 1
form ing
Ġcy toplasm
ular ity
ĠL et
ĠL ig
ĠL achnospiraceae
ges t
Ġne ver
Ġch ronic
Ġab normal
AP C
ill us
Ġpos ition
cep tion
Ġcor related
In s
In ter
Ġsc ienti
Ġno ise
Ġ6 3
Ġass oci
Ġun it
est ine
ens es
sid er
iden tify
ĠK EV
ag ing
100 45
100 226
ound s
Ġtranscription ally
de burg
Ġmod ifications
Ġform s
Ġhigh ligh
Ġwild type
omat ic
Ac cepted
Ġtarget ing
ĠSt m
Ġpl us
Ġpl ant
Ġpl ants
Ġint estine
sim ilar
201 8
can alization
ĠAn other
sh ip
pre gu
stand ard
oryl ated
CY CD
ĠAc cording
rel ationship
Ġpur chased
ĠGen omics
present ed
Ġintegr ating
Ġreg ions
Ġconsis ting
Ġmap ped
Ġquan ti
Ġinterest s
Ġmit otic
Ġprom ote
Ġrele ase
ĠMY C
Ġcar bon
Ġhypothe tical
Ġext ended
ĠRec eptor
Ġbel ong
Ġdisrup tions
line ar
ĠSim ulations
combin ed
ĠRes pon
Ġpartial ly
ii i
Ġincorpor ate
Ġincorpor ating
Ġdat abase
ider mal
Ġkinetic s
Ġheter odimers
Ġcapture d
Comp eting
Ġgran t
Ġclust ers
Ġclust ering
78 0
Ġdemonstr ate
Ġdifferenti ate
sto od
Ġenzym e
br id
ien tific
duct ase
Ġbuil ding
Ġexam ined
Ġcons ensus
Ġstrateg y
Ġreplic ates
Gen e
gin ning
Ġemerg ent
vari ables
Ġendo reduplication
Ġchem ical
Ġbind s
aff old
Ġemploy ed
Ġcre ate
Ġneighb our
Ġtrajector ies
Ġly s
Ġtyp ically
studi es
diï¬Ģeren tiation
Ġstre ngth
Ġadj ac
resul ting
Ġkeratin ocyte
Ġrestr ic
redund ancy
Ġultim ately
orig inal
Ġbal ance
Ġoppos ite
Ġdra wn
nolog ies
Rod rig
cip al
tol i
ĠCellNet Analyzer
sever al
simon ious
10045 71
100226 7
+ +
C ebpa
D yn
E ach
F AK
G A
H GF
H OG
I KB
L F
L G
M ig
M CD
M EKK
N rf
O L
P ax
P TEN
R S
R IA
S H
S il
S ystems
T S
T bet
V H
W T
^ :
b p
b acter
b ortezomib
c ient
f ied
l ig
l am
l ate
l ast
l aboratory
m ay
n a
r gt
s ize
t C
t biomed
v ol
w ill
Â °
â ĺ
in terest
Ġa ber
re ports
Ġs pl
Ġs ex
Ġs ys
Ġs reA
Ġs atis
er ate
en ef
al ity
Ġof p
an o
is to
ro und
le ukem
Ġm ach
Ġm aster
Ġb ran
Ġd ensity
Ġd amag
ĠA RF
et er
Ġn ame
ar b
Ġre pe
Ġre ductase
ac tose
ul ates
od imer
Ġe arl
ĠT echnology
lo ss
ĠC sk
ĠN acional
ĠI S
ĠI KB
ĠS T
Ġh omeost
Ġg ray
ĠB e
ĠB ach
ĠB acter
ab out
ab ove
ot ted
Ġex haus
ol ic
ĠP l
ĠM at
ĠM irB
ĠM anuscript
Ġas well
ĠE N
Ġac tin
Ġac quisition
ĠThe n
ure d
up ling
qu es
and ed
Ġcomp ar
Ġat ten
und ance
ep t
ĠH H
ĠH om
ĠH ahn
ĠH ousekeeping
10 10
iz a
pro te
pro per
ĠTh iel
oc oc
Ġsim plicity
Ġde fec
Ġr ise
Ġ3 8
Ġen richment
âĢĻ .
Ġch rom
Ġch ose
ast atic
Ġsimul a
Ġsimul ating
Ġinhib itions
Ġpar asegment
Ġour nal
her in
Ġno vo
ism s
ï¬ģ rm
comp ared
Ġun restricted
turb ation
Ġy ield
Ġdi amond
45 780
ind le
Ġmod e
20 86
ĠComp ut
ck p
Ac tin
Ġtarget ed
Ġprovid ing
Ġsyn thes
trans lational
201 1
ï£ ¯
ven tion
ove rex
ne w
Ġofthe SASP
ade h
Ġran k
âĪĴ ]
iR NA
ĠY ap
Ġfr agment
lic enses
ob ser
Ġmap s
ĠMed icine
arc in
ĠSP HK
cript ome
Ġindividual s
Ġremain ed
St ress
corpor ating
Ġlymph ocytes
experim ents
ĠOn ce
Ġext end
phosph orylation
Ġunc over
combin ations
Al though
Ġtransient ly
Ġrat io
Ġtak ing
ĠJAK i
Ġpossib ly
Ġprec ise
gener ated
ĠNo tice
Ġapplic ations
Ġef ï¬Ĥux
Ġenc oded
receptor s
Ġfib re
igm oid
Ġdiv ided
Ġact ual
Sr idharan
ĠDynam ics
Bio informatics
incre ase
ÎĶ snf
ĠSpec ifically
Ġbi osynthesis
ĠIKK i
Ġcolo red
Ġseem s
ick ly
Ġnumer ical
consis tent
Ġestablish ment
Ġfacilit ate
Ġlearn ing
Ġvi ability
Ġprogen itor
Ġpersis tence
ĠSer toli
Ġtimesc ales
Ġidenti ï¬ģed
paramet ers
ĠQ u
ĠBA X
âī ¤
ulos a
Ġvers us
Ġnecess arily
imen sion
Ġcommit ment
Ġhepat ocytes
opos ide
Immun o
Ġarb itrary
Rodrig uez
âĺ ¯
ĠThiel e
/ âĪŀ
0 3
A M
C E
E E
F RA
I ron
I kB
I ON
O UT
P IP
Q U
R as
S N
S p
S TE
S MAD
T rans
T ime
U n
V F
b ed
b es
c ad
c dc
d a
e ff
e ven
g F
h n
i vely
l igand
l varez
m a
m x
m ajor
m olecular
n ents
o clonal
p ens
p NFkB
s cription
x on
x ample
y gen
y east
z adeh
Ã ¡
Ã ¼
Æ Ĵ
Ë Ĩ
Ā /Ā
Ġ #
Ġ Ã¾
Ġ ï¬Ĥ
Ġ ubiquit
ģ lvarez
Ġt end
Ġt echnology
in duction
Ġthe model
Ġs l
Ġs igmoid
er r
or b
Ġc dc
Ġc reated
Ġc rosstalk
Ġin te
Ġin form
Ġin coming
is ts
Ġp y
Ġp ulse
Ġm erg
Ġd ose
Ġd ual
as ome
ac ity
Ġe o
ĠT AK
ec tive
st ochastic
ND I
ĠC al
ĠC ar
ĠC hem
ĠC IA
ĠC ebpb
ĠN on
us ch
res ult
Ġst atic
ĠO r
ĠI D
ĠI AP
ĠS ub
ĠS NF
ĠS everal
ĠS ets
ĠS RY
ter ior
ter ococ
am p
Ġg re
os ing
Ġcon ven
Ġcon clude
ĠB lood
il ding
Ġpro t
Ġpro duces
ĠM ek
ĠM DP
ĠM IG
em zadeh
ĠF GFR
ran dom
ap s
Ġcomp o
ĠR IA
ĠR AC
ĠD ue
ignal ing
Ġat trac
Ġactiv a
ĠG SD
Ġus er
ĠIn i
cl ase
10 6
pro posed
tein s
ub lish
Ġ3 4
Ġper spective
01 23
01 63
por ter
ĠW il
ĠL IH
con dition
con stitu
Ġinterac ting
13 7
tain ing
Ġ4 46
under s
ition al
Ġpar simonious
Ġunder go
Ġunder stood
erm inal
NF AT
cep ts
ail s
âĪ ĳ
Ġcor re
Ġcor rob
mun ication
Ġdet ection
Ġ201 7
Ġass ign
Ġun changed
turb ations
Ġsub stan
escrib es
las ts
Ġar ray
Ġind ex
regul ate
Ġ200 1
tern atively
ag deburg
Ġdi verse
ĠFig ures
21 64
Ġmod elled
Ġform ing
do uble
uk e
Ġgener ation
Ġred escribe
plic ation
wh ose
Th us
RE L
RE SEARCH
Ġanti oxidant
Ġsign s
Ġint es
Ġfeedback s
âĢĻâĢĻ ,
sim ulated
ï£ «
ï£ Ń
Ġmat er
Ġmain tenance
ĠAn d
ĠMC S
Ġbas ic
16 3
ogen esis
Ġem er
inhib it
Ġdep ict
cus sed
Ġcap able
Ġmem ory
Ġintegr ate
Ġmap ping
Ġinflu ences
Ġver ified
top ic
ĠSO X
Ġphosphoryl ated
Ġadd ressed
Ġneed s
Ġcontr adic
Ġoscill atory
TI CL
Ġser ve
Ġser um
Ġsimpl est
Ġsimpl ification
estab lished
represent ing
ĠCY CA
ev ation
ev ent
ĠUn der
cc A
SA gF
Ġunc lear
ochondri a
ochondri al
MY B
Ġlink ing
ĠRes ults
Ġsumm arized
SC AP
Ġstabil ized
Ġblock s
Ġblock ing
aut omata
aut omaton
Ġindependent ly
Ġhelminth s
926 2
Model s
Ġtur ned
anti gen
Ġgran ular
Ġamo unts
Ġcomput er
compon ent
ĠInterest s
Ġlimit ations
addition al
Ġexplo red
ĠDis crete
Ġmaintain ing
Ġmitochondri al
portant ly
process es
ÎĶ mig
respec tive
ĠSci ence
determ ined
prim ary
Ġconstitu tive
Ġdiscrep ancy
Ġexp ansion
provid es
mark ed
sel ves
Ġhom olog
Ġcho ice
intestin al
measure d
allow s
There fore
map s
ĠÏ Ħ
enput s
orrespon dence
Ġexpres sing
phenot ype
ĠAR TICL
Ġrecogn ition
junc tion
az emzadeh
sth at
che str
mem brane
pattern s
Ġintu itive
Ġexplan ation
configur ations
loop s
ĠIG VH
Ġeffor ts
Ġrad ical
Ġdisplay ed
Ġprinci ple
ucleo tide
Ġcere visiae
Ġbist ability
import ance
ĠGu ard
FRA G
Ġcorrob or
. (
9 1
9 5
A k
A RE
B S
B T
B IR
D H
E P
F LIP
H MG
K azemzadeh
M o
M AP
M IS
O U
O r
O s
O ther
P hi
S h
S er
S yn
S ince
S PC
U K
W ith
X i
a rom
b ound
c is
d iff
d ered
e g
e arly
f low
f ace
f amily
f olding
g ely
k z
l ikely
m en
m utation
m any
m entioned
n ce
n ers
n ai
p op
p art
p RB
r ays
s ilico
s ensitive
t ag
t ual
t reated
v asion
w hether
y ond
y ces
Ã ¶
Ġ 000
Ġt reat
re view
on es
on the
ti ties
al f
Ġc ard
Ġc urv
Ġc ode
Ġc eramide
Ġin fec
Ġin trinsic
an other
is try
Ġp ass
el es
ro le
Ġw ide
it ec
ing h
Ġf it
Ġb it
Ġd ocumented
ĠA v
ĠA ICD
ar ies
as ynchronous
as ites
Ġre aches
od y
ĠT reg
im p
lo p
ĠC ur
ĠC entral
Ġst em
Ġst uck
ve re
ĠO ut
ĠI ka
ĠS APK
ĠS DM
Ġg ate
ĠB ar
ĠB ortezomib
id el
Ġpro to
ot ent
Ġal most
Ġex ec
Ġex cluded
Ġex clusive
ol ation
ĠP CR
00 6
ĠM a
ĠM c
ĠM ar
Ġas semb
ĠE M
ĠE GR
ĠE quation
Ġbe ginning
tiv es
em at
em pl
ĠF e
ĠF r
ĠF FA
pres ence
ure r
ap pe
Ġor chestr
Ġcomp eting
ĠR al
ĠR ap
ĠR ef
ĠD M
ĠD rug
ĠD SB
ath rin
Ġres piratory
to gether
duc er
cl b
Ġtrans differentiation
10 5
ph as
ph ot
ph ys
ub y
Ġ3 6
ĠW nt
ex ist
Ġcy toch
con tinuous
gr ay
13 1
Ġne uro
under standing
Ġab bre
12 3
Ġpar adigm
Ġob vious
Ġph ag
ific ance
bin ary
Ġlo st
ĠU niversidad
ĠU pregu
Ġ6 8
activ ates
co xon
iden tified
Ġgro w
Ġout going
regul ates
Ġ200 2
Ġ200 4
ox in
struc ture
Ġ/ âĪŀ
Ġqu alitatively
Ġform er
ie ve
ie ved
Ġstimul ates
with out
Ġchan ging
Ġchan ged
Ġconsid eration
CA G
ï£ ¶
ï£ ¸
Ã¾ ATPase
ĠPro cess
Ġav ailability
level s
Ġaddition ally
Ġmin utes
Ġmin imum
Ġbas eline
Ġline age
Ġsmall est
Ġstruc tures
ĠTNF a
Ġsu itable
plos biology
fer on
ĠCl indamycin
Ġoccur ring
DP I
bod y
Ġman ip
hel minth
ĠDC II
Ġ0000 00
Ġcontrib utions
Ġaffec ts
ĠUn certain
Res earch
Cy cle
Ġfault y
Ġoper ator
ĠÎ² e
ĠAr abidopsis
Ġsol ely
SC F
Ġdiscus sion
Ġfew er
Ġappe ars
Ġstat ins
Ġapp ly
target s
Ġfib res
Ġmark ed
show s
mat rix
wild card
lim p
Ġexam ine
Â§ Â§
prim ed
Ġmax imal
def ined
Ġendocy cle
sel ected
tum or
Ġtrigg ering
Ġpeak s
Per centage
Ġrest ing
Ġexhib ited
110 32
Ġlis ts
ĠDep artment
De P
phenot ypes
Ġprogen itors
Ġdataset s
âĢł ,
educ ed
ĠSh c
Ġexact ly
GD I
Ġrece ived
PE ST
Ġcat aly
ĠGa q
ĠGro up
Ġenab ling
ĠActiv ation
Ġdig ital
Ġfix ing
Ġcorrel ation
Ġproduc ts
Ġhold s
Ġdecl ared
Ġï¬ģn dings
contr ast
Ġneighbour ing
Sil va
lam t
Ġearl ier
Ġintes tin
arom yces
kz f
Ġcurv es
Ġcytoch rome
ĠUncertain ty
8 4
A nalysis
B l
C at
C as
C HK
E quation
F rom
G P
G AL
H e
H CC
I KK
K E
K ey
M icro
N ext
O ne
S e
S MP
S LT
T RA
U sing
a verage
c ation
c and
c PARP
d t
d ue
d ress
d ecrease
g L
g a
g lucose
h t
i tis
j aT
k x
l ay
m iR
m ice
m otic
m ission
o R
r r
s re
s urvival
t ack
u fact
y et
z e
Ä ±
Ġ und
Ġ **
Ġt a
Ġt ight
Ġa f
re f
at he
at ch
Ġthe s
Ġthe ore
Ġs k
Ġs us
Ġs em
Ġs iRNA
er y
er ior
Ġc i
Ġc redited
ed ical
Ġp ure
el e
el an
Ġf iring
Ġm TOR
Ġd by
Ġand rogen
Ġn ine
Ġn WG
Ġn utri
as ive
Ġre ct
Ġre organ
Ġre pair
ac ed
ac tin
ac etyl
Ġto ler
ig ures
ĠT P
ĠT pl
ec u
ut ations
lo cal
ĠN f
ĠN IH
us ion
ĠO ST
ĠI I
ĠI GF
ĠS mad
the m
Ġg e
uc cess
Ġcon sequences
ĠB ID
ĠB oolNet
ĠB limp
il i
id ates
Ġpro ven
Ġex amples
ol ip
ĠP E
ĠP redic
ĠM em
ĠM esp
ĠE L
ĠE d
ĠE ven
ĠE SCR
if i
if t
ver sion
ver sible
em ents
Ġare a
io red
ad der
tr act
up stream
qu al
and M
Ġv iew
Ġv acu
ĠD ataset
to ol
Ġactiv ations
ĠG al
ĠG PA
Ġk eep
ep ti
ĠH SP
ĠIn stead
for ce
Ġtrans formation
10 38
oc omp
Ġsim ply
Ġnot ed
pl es
pl as
our se
Ġ3 9
Ġper ipheral
AT M
Ġet al
Ġim od
ĠL M
ĠL GL
ĠL IP
str ong
ast ro
Ġ4 5
Ġtim ep
Ġrepres ses
Ġ5 4
Ġexpression s
11 4
11 001
11 86
Ġob jec
NA S
Ġad di
Ġmet astatic
Ġi is
NF BK
ign er
In stitute
ech nologies
co very
co upled
Ġun re
Ġgro wn
ĠK it
las min
Ġar ise
Ġpoin ting
Ġhe art
ag ain
velop ment
Ġstr ain
ult ane
Ġinitial ly
Ġmod ularity
Ġprocess ing
sc ientific
ym edi
ces sion
Ġform ally
Ġgener ally
Ġsup ports
Ġel uc
amm a
amm ing
Ġmut ualism
set s
all el
201 4
Ġsp e
Ġprob ably
Ġprob abilistic
sh ould
min imal
inter pre
70 82
Ġref ers
Ġcir c
par tial
99 2
CY CA
CY CB
Ġu PA
inhib iting
ĠGen es
Ġreg u
MA C
ĠkB a
ï¬ģc ation
ric hed
dis cussed
ef ï¬Ĥux
oph il
graph s
lymph ocytes
Ġquan tified
St ate
no P
analy ses
Ġrele vance
ĠâĢĿ ,
Ġfin ally
Ġoscill ate
Ġlymph ocyte
Ġprog ress
Ġsuc rose
Ġexpl ained
Ġthreshold s
Ġalgorithm s
Pro liferation
MI DE
ĠDec ision
zym e
Ġprop ensity
DE L
Ġdirec tion
ĠGene tics
As ystems
IG H
Ġhost s
Ġdetermin ing
Model ing
Ġprof ile
Ġloc ated
Ġloc ations
Ġgran ulosa
Ġclust er
Ġgo od
dep icted
Ġcorrect ly
Ġdifferenti ated
Ġhypergraph s
Ġmark ers
Ġdom inant
Ġinvestig ated
Ġq RT
Ġphys ical
1004 131
Ġfrequ encies
ĠDynam ic
integr ated
Ġsetting s
rob lasts
Fox o
gin ia
la uti
Ġconcer ning
measure ments
Re gul
003 0163
Ġcoun ter
sign ificant
ĠÏ ī
Ġgover ning
conver ted
ĠÎĶ mig
therap y
therap eutic
ĠTA FC
Ġtrajector y
Ġregard less
ĠPath way
Ġtimesc ale
paramet er
requi red
Ġpolar ity
ĠStr uctural
Ġconstrain t
Ġconstrain ts
CX CL
Ġeukary otes
ĠDifferen tiation
Ġiter ations
Ã³n oma
Ġcompos ed
Ġimpro ve
Ġaccess ible
Ġelec tro
wor ds
Sci entific
Ġfung al
ERA MIDE
acch aromyces
load ed
ĠREL Ap
Ġsubconstrain t
Ġdefin ition
Log ical
inï¬Ĥ ammatory
Ġsqu ares
ĠOver all
rief ly
Wh ile
Ġcompar able
cad herin
ĠWil coxon
ĠARTICL E
Syn thase
itec ture
ĠIka ros
ufact urer
ĠESCR T
lauti a
5 00
6 54
A g
B o
B y
B cell
B mp
C N
C IR
C bl
D V
E G
F OS
G K
G an
H E
H IGH
I B
I g
I ND
K IP
L A
L S
L g
L et
L achnospiraceae
M K
M et
M EC
O M
O ff
P TC
R uby
S pi
S idA
S mad
U SP
Y ap
Z D
b its
c a
c ing
h owever
i ti
i ability
k ap
m ust
m igration
p in
p ared
p bio
s yn
s umm
u able
u ores
v itro
x f
x idative
y rate
z eles
} .
Â ª
Ã ģlvarez
Ġt ion
he y
re ad
at abase
Ġ( )
Ġs ay
Ġs ug
en j
en berg
or a
or ders
al m
al one
Ġin oc
Ġin struc
Ġin ï¬Ĥ
an a
is enberg
Ġp I
Ġp he
Ġp ic
Ġp atient
ro g
le ge
it ud
Ġf t
Ġf re
Ġf all
Ġf unders
Ġm uc
Ġm aking
Ġm issing
Ġb ud
Ġb one
Ġd imer
ĠA trboh
ĠA mong
et o
et hel
Ġn ic
Ġn one
ation ary
Ġre ly
ac ts
ig g
ĠT WIST
om er
ec on
ec ts
ĠC analization
ell s
un known
ĠS E
ĠS o
ĠS ip
ĠS aez
am in
the y
Ġh apX
Ġcon clusion
Ġcon ï¬ģrm
ĠB o
ĠB ut
ĠB esides
ab ases
ab undance
ot in
Ġex pon
ĠP RK
ĠP henot
ĠP revious
00 40
ĠM M
ĠM P
âĢ ¡
Ġl and
Ġl ip
Ġl ife
ĠF yn
ĠF gf
nal ing
ure gul
tr iv
qu iring
qu alitatively
Ġcomp lic
ĠR KIP
per g
Ġv av
ĠD et
to the
ĠG C
ĠG P
ĠG as
ĠG reen
ĠIn corporating
cl ass
Ġtrans it
Ġtrans formed
10 3
fec t
Ġsim u
Ġr are
Ġsh ape
AT EN
Ġen tities
Ġim mediate
gr r
Ġco logy
vid ually
pos e
11 5
ever y
erm ann
Ġhas been
Ġcom b
Ġph arma
ak en
Ġlo ci
In put
are nt
ĠU pon
Ġsc ales
Ġsc affold
Ġun folding
ens ities
trol led
Ġpres ents
regul ators
Ġini tiation
cor rect
Ġwhere in
Ġy ears
Ġy ields
Ġtr ad
Ġmod ified
20 6
20 10
0000 2
Ġform ed
do zeles
Ġaut o
Ġaut om
Ġsup pression
Ġover come
inal ity
val id
Ġlar gely
Ġknock ed
Ġvari ant
der ived
200 5
RB R
MC s
Ġpl ace
RA C
RA N
istic s
Ġequ ally
trans itions
Ġsp ur
can Wnt
ark ers
Ġag ree
ade o
Ġcir cle
Ġu PAR
TP ase
af s
EM T
inhib ited
Ġdel ays
Ġcap abilities
IN G
Ġreco very
Ġintegr ation
chem istry
rup tion
Ġox id
Ġj us
Ġver ify
Ġhyp os
arc s
Ġanalyz ing
ĠÂ ¬
Ġmit ogen
CYT C
Ġrepro gramming
Ġprom ising
met abol
Ġoscill ator
clin ical
TNF Î±
ĠBio logical
Ġorg ans
Con tinuous
Con clusion
clus ively
ĠÎ³ t
Ġden otes
iï¬ģc ation
Ġintro ducing
Ġfunctional ity
infl uence
anc ers
Cell s
combin atorial
Ġlay out
chan nels
PK A
Ġalter ing
ĠWh i
Ġincorpor ates
tire o
Ġsuccess or
Ġcommon ly
ĠPh armac
Ġdetermin istic
Ġpop ulations
drug s
Ġreflec ting
Ġstat istically
Ġsecre te
hom odimers
right big
ĠInter action
ĠTr afs
Cl n
Ex perimental
micro environment
treatment s
Ġir relevant
Ġdri ve
rg odic
Ġreach ing
mat hematical
ĠPTP PEST
develop ed
Sim ulations
ĠSci ences
indic ated
Ġimplement ation
Ġreplic ation
ĠRho GDI
provid ed
Ġsideroph ores
ĠCX CL
Ġtrigg ered
Ġexhib it
ren ce
110 210
Ġlab eled
Ġapproxim ation
ï£·ï£· ï£·ï£·
ĠDep olar
Ġgover ned
orrespon ding
ĠSK I
Ġchall eng
Ġplot ted
Ġaccur acy
ĠDes pite
## ##
Ġcharacteristic s
eas ible
Ġeukary otic
ĠAttractor s
paren left
ĠNa ive
ĠMK Ps
ĠâĪŀ/ âĪŀâĪŀ
Ġfund amental
Ġsampl ed
experiment ally
robust ness
ĠMit ochondrial
Ġide a
Ġpromo ter
Ġanal og
More over
dri ven
multi ple
tiz ation
Ġintermedi ary
ĠDO i
Ġcoe fficient
hp k
abs ence
oward s
Ġaccord ance
ĠRep oR
prostatec ancer
Ġscienti sts
Ġaber rant
Ġhomeost asis
2086 2
terococ cus
Ġemer ge
imp act
idel berg
ĠEM SA
sre p
astro intestinal
scientific reports
ymedi um
Off ermann
ethel ess
0040 312
triv ial
ATEN IN
dozeles in
ĠRepoR ts
( )
( +
) /
) ).
+ =
0 7
9 2
= (
A fter
B ach
B EGF
B usch
D A
D O
D R
D ifferen
D ISC
E gr
F inally
G iven
G RP
G ermany
G uti
H apX
H elikar
L e
L oc
M a
M igration
M ekk
M BF
N ode
P AK
P CA
P OR
R ed
R ac
R af
S m
S ch
S rc
S reA
S VF
T O
T xf
X P
X X
a ight
b lock
c r
c rib
c ollec
e per
f a
f ile
h l
h and
i re
i ï¬ģ
j Ã°
k r
l in
m i
m ing
m RNA
m yeloid
m TOR
o red
p H
p tim
p ag
s i
s ust
s ynchronous
s ymmet
t d
u u
y o
Ï ī
Ġ log
Ġt ables
in ity
in ary
in istic
Ġa ge
Ġa round
re action
on ad
Ġthe ory
er no
er ately
en a
en arios
or ly
al actose
Ġc c
Ġc ent
Ġc all
Ġc dk
Ġin n
Ġin spec
Ġof DNA
is es
is ting
Ġp ip
Ġp Stat
el ay
le ads
it ment
ic as
Ġf ates
Ġf aster
Ġm l
Ġm arrow
ĠA G
ĠA TR
ar v
Ġre tr
ac ting
ĠT H
ĠT ype
ec ting
st rip
st abil
st omatal
st uck
im plement
ĠC U
ĠC IS
ĠC dh
ĠC GC
ĠC ERAMIDE
ĠN E
ĠN at
ĠN HK
ĠN ew
ĠO F
ĠI F
ĠI CL
ĠI CP
ĠI rf
Ġis activated
Ġis olated
ĠS ic
ĠS TE
am a
Ġh ap
Ġg rad
Ġcon t
Ġcon stitute
Ġcon cepts
ĠB ad
ĠB AD
il ed
il ities
ĠNO S
Ġpro ved
Ġ1 01
Ġ1 22
ĠP rim
ĠP ublished
ĠP NAS
ĠM ol
ĠE ps
ĠE isenberg
ib r
Ġl M
ĠF actor
ĠF YN
um or
pres sing
te p
tr astuzumab
Ġcomp art
Ġcan al
ĠR T
ĠR GT
ĠR OP
ĠR AF
ĠD uring
Ġres id
ĠG RB
Ġk eeping
Ġk ept
Ġwh y
ĠH yp
ĠH ers
for the
Ġtrans form
Ġtrans lation
iz on
ph ing
ĠTh omas
sis tent
Ġde al
Ġde grees
Ġap op
ub s
Ġsh are
Ġsh ared
Ġ3 5
ĠW G
AT L
ex pl
ex ogen
ex tracellular
gen omic
ĠL ight
con trib
Ġanaly sed
crip tions
Ġ4 6
Ġco inc
pos itory
Ġrespon d
Ġval uable
oin ts
Ġour model
respon ses
ill in
In stitut
are st
Ġsc i
Ġsc al
ĠV av
Ġcomple ted
Ġ6 6
co un
Ġun less
Ġun expressed
ĠK AP
Ġar ch
regul ations
Ġ200 0
Ġse ven
Ġse vere
tern ational
ff ry
ag ement
Ġqu ickly
Ġrel ies
de ath
Ġincl usion
Ġinitial ized
Ġ7 2
Ġcombin a
ie ffry
Ġam pl
Ġvari ations
wh at
RE SS
Ġrem ark
Ġthrough out
âĢĻâĢĻ )
âĢĻâĢĻ .
RP PA
Ġmost ly
pre viously
mon es
ax is
inter vention
rim ental
par asite
Ġspecific ity
tal ity
Ġ& (
Ġline ages
ĠAc cepted
ĠCon versely
Ġhyper sensitivity
ĠY es
Ġï¬ģ nd
Ġcap tures
Ġcap acity
Ġorig in
Ġfe as
ĠkB i
Ġox ygen
term s
dis tribution
Ġterm inal
ĠÂ ©
Ġoccur red
IFN G
Ġbl adder
inv ol
Ġder ive
Ġcorrespond ence
bran es
iqu e
Ġprim e
ON d
Ġdecre ases
Ġdecre asing
Ġlim itation
TNF SF
grad uate
Ġpower ful
ensi vely
mit ochondria
iï¬ģc ally
Ġtum ours
Ġcontrib ut
ĠOn ly
ĠCh ange
Ġdisrup t
Ġbu ff
vi ated
Ġep idermal
Ġdecision s
Ġsol ution
sk i
Ġevid ent
ng ineering
Ġstabil ised
Ġshort est
An other
tify ing
wit ched
Ġdifferential ly
Ġlack ing
echn ical
gener al
Ġreflec ted
Comp utational
yel oma
Ġprior i
Ġperform ing
ecre tion
nos is
Ġdiagram s
big uous
dep n
appro aches
Ġenc oding
atur ally
Ġmark er
Ġ199 8
Ġneutroph il
br ac
Â¼ 1
incre ased
ĠSpec ies
step s
Ġexp anded
Ġtrigg ers
Dis crete
Ġsepar ate
Ġindirect ly
OP EN
dk f
Ġthough t
consis ten
ï£¬ï£¬ ï£¬ï£¬
ĠAnion EM
character ized
py rophosphate
Ġsymmet ric
cas c
cg i
ĠMO MP
Ġsupplement ed
GE F
Ġannot ations
ĠNot ch
Ġeng ineering
Ġmotif s
ench mark
Ġenab led
Ġfund ed
schem ata
dec ision
ĠIs l
Ġaccum ulation
contain s
Ġincub ated
cel evation
Ġdepic ts
Ġuncertain ties
RIP K
Ġphenomen on
molec ules
ĠInhib ition
ĠVal ues
Ġheterogene ity
clust ers
Ġchallen ge
tl uu
ĠÃ Ĥ
sider oph
Ġhighligh ted
Ġrepe ated
proper ties
Ġdefec ts
Ġdiamond s
ï£¯ ï£¯
QU AD
0123 4
ĠMCS s
Ġhomolog ues
Ġcorrobor ated
review ed
lop py
clb tluu
Ġneuro de
Key words
ht ml
Ġreorgan ization
iored oxin
Txf Hed
( âĪĴ
) (
. .,
/ )
1 13
2 206
3 28
8 7
: (
A ss
B B
B oolNet
C O
C an
C EBP
C enter
C orrespondence
D C
E A
E SS
F irst
G AT
H igh
H epG
H XT
I NK
K n
K AP
M ex
M DFs
N I
N ote
R est
R gt
S tr
S OS
S NAI
T wo
U b
U p
U SA
] :
] ),
a ure
a Rg
a ONd
b ility
b ry
c en
c ar
c am
c ial
c redited
e in
e tic
f ill
f aults
g over
i L
i y
i able
j S
m its
m ethods
o bust
p ts
r ist
r ule
s L
s on
s ized
s enescence
t u
t ase
t ailed
v ations
x j
z one
Â ¤
Â ½
Ġ '
Ġ *
Ġ ?
Ġ GF
Ġt re
in ding
in ases
in ternal
Ġa Boolean
he ad
he idelberg
re ib
re ported
re veal
on ents
on trolled
at o
at her
Ġthe SASP
Ġs enescence
Ġs omatic
Ġs loppy
er k
er bb
ti ssue
or th
or tality
al se
al though
Ġc ave
Ġc ues
Ġin side
is ic
Ġp om
Ġp JNK
Ġp ublish
Ġw et
Ġw idely
it ts
it ten
Ġf ast
Ġf av
Ġm igr
Ġb r
Ġb udding
Ġb ody
Ġd im
Ġd uplic
ĠA CC
ĠA IF
et ed
Ġand C
Ġn s
ar a
ar ran
ar ge
ar rest
ar ves
ar ticle
Ġre ducing
Ġre ports
ac illus
ul atory
ul ators
tion ally
Ġe i
om al
st ress
Ġth ous
Ġth ink
ĠC L
ĠC P
ĠC an
ĠC AT
ur s
ur rent
ĠI TT
Ġis activate
ĠS C
ĠS OS
ĠS CC
ĠS LT
the tic
Ġh itting
Ġh alf
os ine
os ci
ĠB ase
id s
Ġpro v
Ġpro lif
ab normal
ot rop
Ġex pec
Ġex empl
Ġ1 11
ol istic
00 10
ĠM od
ĠM ap
ĠM ulti
ĠM endoza
Ġas yn
ĠE P
ĠE p
ĠE RA
ĠE stB
Ġbe yond
em ia
ĠF os
ĠF ADD
op rob
ap se
Ġor dinary
up on
Ġcomp etent
ĠR D
ĠR P
ĠR ole
ĠR PM
ĠR LM
ĠD ros
Ġat tain
Ġat tained
Ġat tributed
Ġat tack
ĠG AP
ĠG sk
Ġk it
ĠH T
ĠH ill
ĠH uman
ch ing
Ġtrans loc
10 7
10 9
Ġinter p
Ġinter rup
ĠTh at
oc al
ies is
ant a
Ġ| (
Ġde vi
Ġr ational
Ġen riched
gen us
âĢĻ ,
ĠL PL
Ġinterac tive
str ate
13 4
The Author
Ġ4 2
Ġhave been
Ġrepres s
Ġrepres sed
Ġrepres sing
mal ignant
Ġ5 2
Ġ5 7
Ġpar asites
Ġpar allel
av id
ack ing
Ġco upling
vid ence
Ġad en
Ġup Z
cell cycle
In tegr
In vasion
eed S
Ġdet ect
ï¬ģ ned
comp utation
comp utational
Ġsub unit
sid ering
CD KB
ĠK OUT
Ġ. ..,
Ġhe alth
ag ents
yl ated
PL D
port un
CC S
Ġinv asion
Ġstr ains
Ġstr aight
Ġiden tity
Ġ7 5
sc isic
Ġ10 5
Ġhigh light
ĠComp arison
CR EB
Ġidentif ies
19 0
Ac etyl
Ġdec ided
Ġvari ability
wh ole
ĠAK AP
Ġdeterm ines
trans fer
Ġsp ent
can not
ise ases
tok ine
ove red
sequ ent
IS A
Ġmedi ate
Ġupd ates
hemat ics
Ġnon functional
Ġmeasure ment
ĠAc ad
high ly
ĠY et
ĠMAPK s
Ġpur ple
ĠGen us
Ġsimilar ity
Ġassum ing
Ġï¬ģ xed
dom ain
umm y
comple ment
Ġdepend encies
ef t
Ġwork ing
Ġver tical
bio tic
Ġquan tification
poin ting
ĠÂ ¨
ĠÂ ±
ĠÂ ´
ĠCl athrin
Ġ20 7
EC M
Ġinterest ing
BR CA
Ġrepro duced
Ġrepro duces
analy zed
Ġder mal
Ġcas pase
Ġabs ol
Ġhuman s
TI ON
Ġorg anism
Co ol
det ailed
Ġfocus ing
ĠÎ³ Î³Î³
ho od
mit ted
Ġaffec ting
phosph at
Ġdisrup ted
Ġpart ners
genes is
olar ization
line age
ĠSim ulation
Ġlink s
Pro tein
Ġoper ations
Ġcheck points
ĠAut Ã³noma
complex ity
Ġsol utions
Ġvector s
Ġdat abases
opo iesis
Ġenvironment s
Ġdiscus s
ĠPh osph
gener ative
Ġdiï¬Ģeren t
Ġreflec ts
olog ies
there fore
Ġacco unts
1111 11
1111 111111
Sup ple
Ġapp arent
correspon d
ĠTr x
Ġeas y
Ġenc odes
target ed
main ly
sp ace
ĠBi ot
Ġreason able
Ġmon oclonal
Sim ilar
Sim ulation
indic ates
inhibitor y
Ġprin cipal
Ġendocy t
Ġendocy tosis
Ġhom o
ĠHe alth
Per turbation
Ġcand idates
Ġantigen s
Ġvisual ize
burg h
conf irm
orm ally
atis tical
Ġques tions
HH t
ĠMT H
Ġtyp ical
Ġrapid ly
Ġpharmac ological
studi ed
assum p
Ġtranscrip ts
Rho GAP
Ġmim ic
Ġmim ics
link ed
Ġslow ly
nam ely
Ġsampl ing
Ġpublic ations
Ġincub ation
repro duction
ĠPhys iology
Ġwr itten
Ġeffic acy
Ġeffic iency
Ġlook ing
ĠKn owledge
ĠTNFR SF
Ġos motic
Ġclos ely
Ġhor mones
yd ro
Ġperman ent
ĠLi u
direc ted
Ġrab bits
ĠVir ginia
Ġresemb les
prog ression
ĠAccording ly
Ġadjac ent
bacter ial
Ġsatis fied
imension al
âĺ¯ ,
eff lux
Ġsubstan tial
ï£Ń ï£¬
pop ulation
Ġproto col
appe ar
Ġphag ocy
ï£¸ ï£·
Ġintestin al
tool s
HE J
enj es
Ġland scape
ĠHers hey
reib urg
ĠACC ESS
Ġthous ands
oprob acillus
ĠDros ophil
" .
% ,
) -
) =
- ,
. ).
0 10
4 15
5 01
A nd
C ul
C ommons
D NF
D RE
D AC
D AG
E MC
F IS
G RB
G fi
G INsim
H RR
I kzf
K G
K i
K RP
K eap
M B
M an
M DM
M irB
N P
O ut
R educ
S Y
S ub
S CC
S NO
S DP
S RO
S alt
T el
T ext
X g
b ra
c lo
c ence
c ollective
c heck
c ourse
d em
f it
g ran
g ments
i ents
j PGN
l f
l i
l at
l om
l ut
l ations
l atter
n k
n et
n om
n eed
p r
p ases
p atients
p ublic
r uz
r astic
t yp
t ail
u PA
v ir
v anced
v ulnerability
x l
x x
Ã ¤
Ã ±
Ġ ith
Ġ ions
Ġ âī¤
Ġt er
Ġt ed
Ġt ax
Ġt each
in ferred
in ery
he ter
he sion
re me
re main
re clbtluu
on s
Ġthe expression
Ġs am
Ġs izes
Ġs light
Ġs phing
er a
er vo
en see
or din
al ong
al ways
Ġc d
Ġc ited
Ġc oding
Ġc arcin
ed eral
Ġin activated
Ġin MMPs
an yl
is k
is olated
ro om
le arly
Ġw aves
Ġf ash
Ġm ature
Ġb ring
Ġb enef
Ġd depn
ĠA A
ĠA DP
ĠA ZD
et es
Ġre n
Ġre vers
Ġre pre
Ġre active
Ġre quiring
ac cording
ĠT RN
ĠT SC
om ain
st er
st ants
lo id
lo red
lo ch
lo str
ĠC am
ĠC LP
ĠC ulture
ĠN A
ĠN MA
ĠN kx
res ses
res olved
Ġst ores
Ġst ationary
ly s
un i
un am
ĠO b
ĠO DE
ĠI ron
ĠI kB
Ġis not
ĠS ph
ĠS ASP
ĠS UC
ĠS ection
ĠS MO
am ine
Ġh ubs
Ġg ets
Ġg astrointestinal
Ġg alactose
os it
Ġcon sequently
Ġcon sequence
Ġcon clusions
Ġcon stitutes
Ġcon junction
ĠB ay
ĠB MI
ĠB uff
il ib
il ari
id ium
Ġpro ducing
Ġ= (
Ġex it
Ġex tra
Ġex ception
ĠP U
ĠP ar
ĠP itts
ĠM ac
ĠM th
ĠM cl
ĠM acro
ĠM adeo
ĠE ngineering
se arch
ĠF our
ĠF unc
Ġare credited
ĠThe f
ap es
Ġor th
Ġor dered
ge bra
Ġcan Wnt
ĠR el
ĠR em
ĠR unx
per man
per tuzumab
Ġwe b
Ġwe ights
Ġv s
Ġv ice
ĠD en
ĠD KK
ĠD ef
ĠD GK
ath way
yn etwork
ĠG A
ĠG RK
Ġk ill
Ġwh ite
ati ves
ĠH ow
ĠH sp
ĠH RG
ĠH elikar
ĠH XT
ch all
ĠIn c
ĠIn stitut
ĠIn vestig
10 73
Ġinter leukin
pro duce
ĠTh rough
ore xample
pl ays
Ġde v
Ġde activation
Ġde eper
Ġap plies
Ġr t
Ġr al
form s
form al
low er
Ġdis tributions
01 5
ifferen t
ĠW ild
ĠW ang
AT F
AT ION
Ġen ding
Ġen comp
gen ous
ĠL AT
con s
con tribution
con cept
Ġinterac ts
ud ents
The Cell
Ġne ither
Ġne arest
Ġch ar
here nce
tos ome
tos keleton
12 9
av age
Ġexperim en
pos sib
Ġrespon ding
erm an
bi al
cy cl
cy tokines
Ġup regulated
ign ificant
tin ued
In the
In fection
ĠU lm
Ġno tice
comp ute
comp rehensive
Ġun able
Ġun like
Ġun perturbed
Ġsub network
Ġsub systems
aus ible
sid ed
escrib ing
iden tification
ĠK eap
Ġpoin ted
ox idative
Ġinf il
ag AM
hav ing
yl ate
ound ation
model ed
ĠÎ µ
BA X
Ġmod erate
Ġprocess ed
ym et
Ġperturb a
Ġform ula
with the
ik i
Ġgener ic
Ġconsid ers
ck r
Ġmicro en
19 97
Ġ9 5
CA V
CA MP
Ġlar gest
Ġimmun ological
Ġsec tions
Ġvari ants
200 1
be it
ĠSt at
ĠCa IM
Ġconf idence
Ġrem ove
Ġpl cg
Ġsign ificance
Ġneg ation
Ġop portun
iter ia
trans criptome
other ap
ĠPro b
ĠPro CASP
gene tic
PA I
sh p
pre vent
Ġcl ar
Ġcl onal
bb re
Ġref ined
par asegment
âĪĴ +
Ġgroup ed
Ġem phas
inhib its
Ġimportant ly
oid s
ward s
umab ly
ĠBN M
enc oded
ĠTNF SF
ï¬ģc ient
dis cre
dis play
Ġj oint
ang er
Ġwork s
Ġver iï¬ģed
Ġhyp h
gram s
arc hed
Ġvalid ations
bl p
bl ast
ĠCy tC
NO CM
ĠCDK s
analy ze
row s
Ġman ually
Ġoscill ation
Ġoff ers
Ġcol labor
Ġstrong er
Con clusions
Ġsimpl ify
Ġevalu ating
Ġcontrib uting
where as
phosph orylated
press or
Ġtri angles
wn reclbtluu
zym es
Ġreal ity
Ġreal istic
49 5
CT L
Ġdirec tional
stimul us
Ġstar ts
Ġstar ted
Ġblock ed
aut hor
aut hors
TA G
Ġmal ate
Ġperm utation
ĠIm munity
ĠIm portantly
ĠBMC Bioinformatics
ĠRegul ation
Ġcytos keleton
ML K
Ġheter odimer
Ġplay ers
den otes
Ġclust ered
Ġcomput a
Ġflow s
ecre ased
transcription al
rele ase
correspon ds
Ġstand s
Cl b
Ġread ily
Ġread outs
Ġestim ate
Ex ample
Ġfib roblasts
Ġdri ving
igm a
Ġdom ains
Ġdelay ed
wild type
Ġreason ably
ĠDynam ical
follow s
MEK i
indic ate
determ inistic
control led
din burgh
Ġpo lym
provid e
Ġcho ose
niqu e
Ġemerg ence
SB ML
mech anism
Ġsepar ately
enesc ent
Ġfl ux
Ġbound ed
group s
Ġvisual ized
UN X
ren ds
Ġendo genous
Ġcoun ted
Ġsur pris
Ġcomputation ally
ĠÎĶ rgt
prom oting
ĠSch ool
Ġenh ance
Ġimplic ated
Ġiniti ate
Ġiniti ated
su fficient
depend encies
Ġpolar izing
oscill ation
ĠBA Y
Cyclin C
Ġtechniqu e
Ġpool s
Ġiter atively
paren rightbig
Ġswitch ing
Ġvir tual
ĠGro wth
ĠâĪ §
ĠâĪ ¨
rem ely
Ġretur n
schem a
configur ation
:: :
consid ered
Ġpreser ves
ĠImmun ol
bec omes
Ġuncertain ty
Ġiss ue
Ġiss ues
ĠLe ukem
Ġrecru ited
Spec ies
affec ted
spon ding
igen etic
resist ant
resist ance
ĠBC ATENIN
direct ly
Ġperman ently
Ġprac tice
eli E
Ġsa id
estim ate
star ting
Ġonco genic
Ġattem pt
Ġabnormal ities
ĠRespon se
brid ge
OL OG
leukem ia
Ġdamag ed
ĠIS GF
Ġexhaus tive
Ġsynthes ized
overex pression
Ġinform a
ĠNon etheless
Ġradical s
ĠRal BP
Ġabbre viated
Ġtight ly
Ġtheore tically
Ġsus cep
Ġsem i
Ġtoler ance
ecu tive
alm ers
Ġexpon ential
ĠPRK CA
uregul in
Ġrare ly
Ġtrad itional
ĠÂ¬ (
Ġchalleng ing
parenleft big
erno ull
Can Wnt
Mex ico
obust ness
Ġpom be
arves ted
osci ences
Ġabsol ute
ĠDrosophil a
Cul loch
Reduc tase
Ġteach ing
ervo ir
Ġfash ion
ilib ri
ilari ties
Ġorth olog
, :::
- ?
/ âĪŀâĪŀ
2 23
4 002
9 25
= .
= {
A dozelesin
B O
B ortezomib
B ecause
C losure
C PC
C ebpb
C urrent
D CM
E rgodic
F ixed
F VY
G PA
G MP
G RF
G bg
H C
H OS
H hn
I f
L ck
M c
M y
M ET
M olecular
M arkov
N R
N IH
O DE
O pen
O BL
P alpha
R el
R LM
R unx
S c
S EM
S DM
S nf
S KBR
T a
T y
T at
T AK
T SS
W estern
Y i
Z AP
a ud
a ugh
b ph
c ases
c ritical
d at
d imers
d rich
d ashed
d imensional
e e
f erence
h our
h osph
h apX
h aps
i is
j X
k p
k ines
m ation
m edia
m Ruby
n ib
n ight
n uclear
o vers
p et
p end
p NF
p ackage
q L
q s
r un
r sk
r mo
r ather
s w
s ent
s amples
t D
t re
t us
u B
u ity
u ge
u age
u fficient
v ents
w are
x I
y mal
y brid
z ing
Â ´
Ï Ī
Ġ >
Ġ ~
Ġt e
Ġt i
Ġt rends
in clud
in vestig
Ġa id
Ġa ff
he a
re al
re ed
re ec
re ach
re duced
at s
at ethe
Ġthe activation
Ġthe nodes
Ġthe dynamics
Ġo v
Ġs id
Ġs atur
er ve
er rez
en zymes
or age
al gorithm
al tered
Ġc um
Ġc are
Ġ) ;
es ench
Ġin Figure
Ġin consisten
Ġof different
an not
is ch
is ely
Ġp or
Ġp le
Ġp ap
Ġp dk
ro y
Ġw ater
it ely
it tle
ing ton
ic ial
ic ient
ic illin
Ġf a
Ġf o
Ġf am
Ġf em
Ġf ace
Ġm y
Ġm en
Ġm ess
Ġm ixed
Ġm utational
Ġm ove
Ġm ale
Ġm kk
Ġm iddle
Ġm ortality
Ġd il
Ġd otted
Ġd rastic
ĠA D
et ting
et ry
et oposide
Ġn D
ar g
ar ti
ar rays
Ġre duc
Ġre pl
Ġre lying
Ġre stricted
Ġre cord
ac es
ac omp
ul in
Ġe a
Ġe ver
Ġe ff
ig her
ĠT i
ĠT arget
ĠT TSS
om ology
ec ess
st ance
im ens
im ulations
ĠC om
ĠC PC
ĠC eramide
ĠC sf
ĠC ccA
ĠC oprobacillus
ĠC learly
ĠN C
ĠN P
ĠN IK
ĠN RG
ĠN ADP
ĠN HEJ
res ent
Ġst a
Ġst er
Ġst orage
ur k
ur ations
un ting
ve xt
ĠI on
ĠI ll
ĠS S
ĠS m
ĠS TG
ĠS accharomyces
ĠS QUAD
the l
Ġh is
Ġh olistic
Ġg onad
os a
Ġcon di
Ġcon ser
Ġcon tent
Ġcon current
Ġcon caten
odel s
ĠB ax
ĠB udding
ĠB lautia
id ing
id ic
Ġpro ve
Ġpro be
Ġpro min
Ġex per
Ġex plicit
Ġex clusively
Ġ1 14
Ġ1 50
ol l
ol ution
Ġfor ward
ĠP a
ĠP ix
00 34
ĠM e
ĠM al
ĠM ef
ĠE qu
ĠE ffec
ĠE SP
ce ived
ow el
Ġon s
tiv ated
se par
se where
Ġl i
Ġl ic
Ġl ig
Ġl ik
Ġl iving
Ġl ckp
Ġac ute
Ġac cepted
em erg
ĠF LIP
ĠF oundation
Ġby p
um in
um ing
op ro
op tim
ir cuit
ir relevant
io tic
ad ded
tic ip
up regulation
Ġcomp act
Ġcomp ounds
ĠR G
ĠR L
ĠR R
per centage
rom ised
Ġv ast
Ġv ital
ĠD E
ĠD o
ĠD ia
ĠD NF
ĠD ij
ĠD ROS
ĠD isease
ĠD USP
ĠG SE
ĠG raf
ĠG TPase
red escribes
Ġwh o
ĠH amming
ĠH enjes
Ġ0 2
Ġ0 1010
cl ature
Ġtrans duc
10 4
10 8
10 89
Ġit eration
Ġit erative
ph armac
Ġinter connected
pro duc
pro duced
pro duction
pro duct
pro pag
ĠTh ieffry
Ġsignal in
Ġsim ilarities
ant ly
Ġle uk
of ten
pl cg
Ġr as
iv es
ple en
Ġdis junc
Ġen umer
ex cept
gen eration
ĠL ck
ĠL ough
ĠL td
Ġne ar
Ġne ut
Ġ4 7
Ġab i
Ġab scisic
Ġ5 00
end all
end double
cess es
cess ive
NA R
Ġunder graduate
tur n
tur ing
rec ted
Ġi in
bin d
Ġlo cus
Ġlo ading
In deed
ĠU l
Ġno tion
Ġpredic ting
Ġ6 5
activ ator
activ ities
comp uted
comp arison
co ver
co unt
Ġun stable
Ġsub system
Ġsub types
Ġsub section
CD H
ĠK v
ĠK lamt
ĠK endall
Ġar g
Ġar ising
Ġout side
regul ating
ox ins
Ġ. ..
Ġme kk
AS T
ff ymet
Ġhe x
100 328
Ġrel iability
CC B
Ġinv asive
Ġer k
com mon
com munity
de g
Ġcombin ing
Ġ8 0
0000 3
ollow ing
Ġed uc
Fig ures
fore mentioned
Ġgener ating
Ġover night
ĠComp ared
Ġ9 2
Ġ9 4
18 0
Ġknock ing
Ġdec ay
plic ations
Ġmech a
ĠSt able
38 9
Th P
qui red
RE G
Ġanti biotic
ten ding
Ġpl ates
Ġsign ed
Ġsign ature
Ġint ensities
sim ulate
trans ient
trans formed
ĠCC L
ĠCC S
Ġsp eed
Ġsp indle
ï£ §
can be
Ġprob iotic
Ġdef ining
Ġdiscre tization
ĠDNA D
ĠX g
sh ort
Ġdown loaded
ĠEx p
ĠEx t
ĠEx perimental
mon a
Ġag g
Ġconver ting
OR F
Ġindi vidually
ĠTo gether
ci um
eb ru
hemat ic
Ġmin or
ful l
Ġbas al
Ġ& !
CL IND
ĠAc id
ĠAc tivity
Ġnormal ized
Ġem bry
ĠCon nec
ĠCon tinuous
ĠCon sequently
ĠCon sidering
Ġhyper active
Ġhyper sensitive
TE D
ĠGen ome
Ġsimilar ly
Ġassum es
Ġï¬ģ t
Ġï¬ģ nal
Ġdel ine
acro ss
lic utes
Ġcap ability
Ġmem branes
IN OU
tes ted
enc oding
ÂĨ ÂĨ&!
ï¬ģc ult
ric es
term inal
ĠPL A
ang uage
Ġterm in
zer land
oph osph
erg odic
Ġfour th
cal c
unt reated
Ġbacter ium
ĠCy tokines
Ġphosphoryl ates
St art
ĠRe g
IFN g
Ġsel ection
ĠâĢĿ .
Ġman if
Ġman ufacturer
Ġprim arily
Ġoscill ating
88 88
ĠMY D
Ġcaus ing
Ġcertain ly
TI F
ĠBio Med
Con tr
CDK A
down s
Ġgu ide
ra w
iï¬ģc ance
Ġcar ry
ĠRec ently
ij SrcybHed
ĠCh rist
Ġclass ified
predic t
Al ternative
Pro CASP
Ġtri plic
Ġcheck ed
Ġalter ation
Ġfac ts
arnes yl
opo ulos
Ġsuccess ful
TA H
Ġmal tose
Ġperm utations
wit zerland
connec tivity
Ġdiff ers
Ġlack s
den oted
normal Tel
Ġuniqu ely
cap ture
Ġgo es
Ġappe ared
Ġpost erior
Ġful fill
Ġdegrad ed
Ġevol ves
Ġsecre tory
rele vance
mut ations
mut ants
Ġtimes tep
indi rect
Ġwildcard s
Ġversion s
Ġentire ly
peri od
show ing
Ġreach able
mp g
Ġfrequ ently
Bio Med
lim ited
incre asing
prob abilities
Ġoptim ized
Ġformalism s
Ġpo orly
Ġreplic ate
ĠRho K
ĠTrans cription
ĠTrans duction
Ġgiv ing
Ġcho osing
Ġcolo ured
ĠCaM K
Ġfl uores
omen clature
Ġadap tor
Ġadap ted
Ġcr iteria
Ġnumer ically
gramm ed
Ġapproxim ately
ï£¬ï£¬ ï£¶
Ġphen o
Ġpathogen s
Ġfacilit ates
De gree
En terococcus
Ġderegul ated
Ġprote asome
Ġrun s
constrain ts
Jun b
Ġsitu ations
Ġefficient ly
Ġcontin ues
Ġcontin ued
Ġimplic ants
Ġheat maps
Ġregard ed
Ġmeaning ful
cas pase
su ited
Ġillustr ate
Ġillustr ated
ĠPer ipheral
ĠFOX L
RO TOS
depend ency
requi res
oscill ations
ĠMO CK
Ġaccur ately
Ġutil ized
Ġutil izing
ierarch ical
uro pe
assum ed
On ce
hyper graph
Ġstre am
toch astic
ĠKÃ¾ channels
Ġcat al
Ġbiom edical
Ġbiom arkers
ĠCM s
Ġvir us
Ġimpro ved
land scape
Ġculture d
Ġeffor t
Ġrecapit ulates
bu ilding
caus ed
caus es
arrow s
upd ating
01929 49
Ġelimin ated
Des igner
evalu ation
Ġna Ä±
ĠDe velopment
Ġirre ducible
column s
ĠSw ed
ï¬ĥ cient
Ġsummar ize
Ġphenomen a
hypothe sis
kinetic s
Ġsens or
Ġpin pointing
Ġfer ri
Ġinterval s
feren t
Î¼ g
Ġprac tical
Ġhierarch ical
ĠIns P
assess ed
Ġcategor ies
Ġdon ors
ĠAg ain
odynam ics
Ġextrac ted
ship s
ĠRespon ses
Ġmach inery
ĠST M
ĠHom ing
Ġchrom osome
Ġyield ed
Actin Dyn
obser vations
Un der
Ã¡ n
Ġï¬Ĥ ow
Ġpy rophosphate
ĠCal zone
constitu tive
REL B
Ġmater ial
ĠÏĦ estimate
Mo T
MIS s
Ġcard inality
Ġinfec tive
Ġexec ution
Ġassemb ly
TRA DD
Ġnutri ent
Ġvacu ole
epti des
Ġunre paired
ultane ously
Ġeluc idate
Met astasis
kap pa
Ġinstruc tions
Ġfre ely
amin o
Ġcomplic ated
Ġspur ious
Guti errez
Ġinspec tion
ibr ary
ATL AB
coun ter
Ġarch itecture
Ġfeas ible
dkf z
sideroph ore
Ġstraight forward
ĠÎ³Î³Î³ Î³
dem onstr
lom bet
Ġtax a
lostr idium
ĠBay es
Ġsurpris ing
OLOG Y
ernoull i
bph omology
nib us
esench ymal
ĠNADP H
vext enddouble
Ġpromin ent
ĠLough ran
ffymet rix
100328 6
ebru ary
normalTel omer
ROTOS OM
( /
+ ,
. ;
/ ),
0 8
4 10
6 13
A cetic
B H
B ig
C U
C ub
C ellular
C sf
D rug
E SP
F t
F yn
F ull
G al
G raph
G SK
H RG
H SPC
I l
I BR
K A
K TS
L IH
M ar
M ost
M endoza
N U
N IK
O D
O m
P H
P RK
P BCN
Q u
S ome
S UC
S everal
S timuli
S ingh
T F
T SC
T otal
V al
W hi
X A
Y CC
Z B
Z H
^ (
a o
b ro
b ar
b ere
b ts
b ottom
b lood
c d
c ole
c ally
d id
d one
d ummy
e ffic
f ib
f our
f igur
g le
g ap
g uez
g lut
h im
h am
h ard
h ours
h igher
i aceae
i Ã³n
j ected
j SLP
k tr
k deg
l ac
l ers
l ating
l ckp
m ed
m ight
m ade
m odelling
m pi
m kk
m akes
m agdeburg
n ity
n ous
n ext
o ly
p ur
p hen
p ost
p ip
p ty
p aper
r ink
r ÃŃ
s ess
s ample
s oftware
s uccess
t ally
t owards
u o
u el
u ated
u ilding
v av
v ial
v ision
w TP
w hel
x n
z al
z ap
Ã Ī
Î »
ĉ Ġ
Ġ ve
Ġ ign
Ġ âĪĴâĪĴ
Ġ NDI
Ġt t
Ġt ar
in activation
in corpor
in ducing
Ġa E
Ġa tion
he althy
re mo
re pository
on i
on set
Ġ( âĢĺâĢĺ
Ġthe a
Ġthe information
Ġthe original
Ġo i
Ġo m
Ġo range
Ġo lig
Ġs en
Ġs or
Ġs il
Ġs ure
Ġs af
Ġs ensi
ti o
ti ï¬ģed
ti zed
en e
en h
en yl
en tiation
or f
or ough
or det
al lo
Ġc s
Ġc ul
Ġc av
Ġc ust
Ġc DNA
Ġc dh
Ġc ope
Ġc JUN
ed ication
Ġin S
Ġin g
Ġin tr
Ġof both
an titative
Ġp a
Ġp r
Ġp at
Ġp AKT
Ġp olic
Ġp otent
el d
el ement
el ements
Ġan terior
Ġan ymedium
Ġan sw
ro unding
le y
le ment
it o
it at
it ative
it ric
ing en
ing less
ic es
ic iency
Ġf il
Ġf resh
Ġm lk
Ġm elan
Ġm yeloma
Ġb ir
Ġb old
Ġb tc
Ġd t
Ġd y
Ġd ot
Ġd educed
ĠA M
ĠA N
ĠA and
ĠA naly
ĠA LL
Ġn itro
Ġn omenclature
ar ting
as pec
as ses
Ġre con
Ġre tain
ac o
ac iÃ³n
ul ties
od d
Ġto an
Ġto study
ent o
ent re
Ġe ï¬Ģ
ĠT OR
ĠT ables
ĠT REG
st he
st at
st atic
Ġth ioredoxin
lo ts
ĠC B
ĠC NA
ĠC orresponding
ĠN ode
us p
Ġst ated
Ġst ron
Ġst ead
un expressed
un ique
ĠO xidative
ĠI C
ĠI ts
ĠS Y
ĠS a
ĠS c
ĠS ur
ĠS FF
ĠS urvival
ĠS chem
ĠS nai
ĠS ingh
ĠS anta
ĠS witzerland
ter ob
Ġh a
Ġh our
Ġh ard
Ġh isto
Ġh arvested
Ġg p
Ġg athe
os ition
os ited
Ġcon tribution
Ġcon cluded
Ġcon stants
ĠB el
ĠB ool
ĠB mp
ĠB lock
ĠB riefly
ĠB YCC
il le
il st
il ies
id i
Ġpro ï¬ģ
Ġpro ject
Ġpro liferative
ot ype
Ġal ternatively
Ġ1 20
Ġ1 73
ĠP os
ĠP ublic
00 7
00 45780
ĠM ur
ĠM ay
ĠM ech
ĠM CD
ĠM any
ĠM Ps
ĠM SN
Ġas perg
ĠE lk
ĠE ED
ĠE XP
ĠE CCB
ĠE urope
if orm
Ġon line
âĢ ĥ
se gment
Ġl at
Ġl ive
Ġl ie
Ġl aw
ĠF is
ĠF ate
ĠF ull
ĠF uture
ĠF ederal
ĠF orexample
ĠF ebruary
Ġby stand
um b
um ents
um ina
Ġare as
Ġare the
pres ses
ay ek
te ady
op tosome
ad ding
ad vant
tic les
tr ajector
ap i
up to
qu ist
and the
and rogen
Ġcomp ound
ĠR A
ĠR UNX
per mits
ri e
Ġwe ek
Ġv ulnerability
ĠD endritic
duc tor
Ġat tr
ĠG CR
ĠG CSF
Ġk r
Ġk s
Ġwh om
th ism
ĠH IST
ĠH BEGF
Ġus age
Ġus ers
ĠIn cre
ĠIn fl
ĠIn addition
ĠIn stitutes
cl indamycin
Ġfrom the
Ġtrans ported
Ġtrans fected
Ġtrans location
Ġtrans mission
10 2
iz ations
pl ant
pl ines
ple x
Ġdis orders
por ated
por ters
ĠW here
Ġen tity
ex pos
ex plicitly
ex isting
Ġet oposide
Ġcy to
gen d
Ġim por
Ġim medi
Ġim possible
ĠL in
ĠL ife
ĠL aure
ĠL ayek
con text
con ductor
str ateg
The rmo
Ġne ur
tim esc
crip ts
perim ents
Ġch ains
ast ly
ia gen
mal ate
Ġ5 9
Ġ5 99
Ġco st
11 6
Ġunder pin
bi an
Ġad ults
Ġad ecrease
Ġad hesion
rec ombin
Ġcom es
Ġcom ing
Ġcom munication
Ġi exp
cy tos
cy tokine
ĠPI C
Ġrepresent ations
ak ar
cell line
cell collective
âĪ ¨
ĠJ r
In terest
ard less
Ġeffec tors
ĠU GR
Ġsc hed
Ġdet er
comp are
Ġass ays
co lo
Ġun am
Ġun expected
acter iaceae
timul ation
ĠK r
Ġar ri
Ġar tif
Ġpres umably
ix ing
regul a
Ġbut yrate
ox ia
ff en
hav es
struc ted
yl in
yl ation
Ġqu ite
Ġqu alit
Ġrel a
Ġrel ate
Ġy Ed
Ġfunction ing
Ġfunction ally
ult y
Ġpre ferred
Ġpre pared
de h
rough t
BA D
Ġmod ulating
sc ienti
Ġappro ved
Ġ8 5
Ġ8 9
ĠCell ular
ĠCell Designer
0000 5
Ġaut omat
Ġstimul ate
fore ach
Ġstud ent
Ġgener ates
vers ibility
lec ted
its elf
Ġwhen ever
ĠComp lex
Ġel ic
Ġred escribes
Ġmicro sc
Ġmicro bes
Ġam big
Ġgraph ically
Ġimmun o
Ġimmun os
Ġimmun ity
Ġimmun ocomp
Ac ore
Ac tive
Ac cording
Ġmut ually
Ġvari ation
der ing
ĠSt d
ĠSt omatal
Th rough
Ġconf er
chron ic
Ġint ended
Ġsyn thetic
Ġneg ated
Ġequ ilibri
Ġphosph or
Ġprob able
Ġdef iciency
ĠAn n
RP D
RP S
ne utroph
ĠDNA damage
Ġschem atic
ĠX IAP
ĠX enarios
âĢĺ ~
pre paration
path ogen
ass ing
Ġcl in
Ġsome times
Ġofthe network
inter acting
amet er
Ġmedi ates
ace u
Ġran ging
Ġdes criptions
par ts
ĠMC L
tal k
99 9
og aster
Ġcle avage
ĠAc etyl
Ġconfigur a
construc tion
construc ted
cu its
high ligh
ian g
ĠCon roy
inhib itors
Ġdep ri
ĠY CA
bet ter
rel atively
ĠGen eral
Ġï¬ģ g
RF OR
Ġcap turing
Ġintegr ates
Ġreg ion
Ġconsis t
Ġconsis ted
othe n
ob tain
rup tions
Ġox ide
Ġj B
Ġver tex
Ġconstruc ting
Ġamong st
bol ic
ĠÂ §
ĠSO P
Ġoccur rence
Ġprom oting
IFN GR
DP K
Ġcontr ary
Ġcas pases
ĠSignal ling
ĠMY L
Ġcol itis
Ġhuman ized
Ġaccording ly
ĠBio Models
CDK s
iss ue
Ġden oting
Ġprog nosis
Ġreveal ing
Ġhypothe sized
Ġent er
Ġext ensively
ofthe se
ij TI
Ã° t
ev ated
Res pon
Ã© d
RNA s
ool s
Ġunc ontrolled
olar ity
Ġclass ical
system ic
rk A
ĠIg E
Ġlay ers
Ġabund ant
Cy clase
Al drich
equ al
ĠÎ² and
Ġep r
Ġframework s
Ġtri vial
Ġtothe vector
Ġconsider able
Ġstabil izes
Rec eptor
Ġmal ign
Ġdia g
ĠIm age
Ġimp ly
ai ver
Ġstochastic ity
connec tion
57 6
Ġpossib ilities
Ġtherapeutic s
Ġprec isely
Ġdid not
Ch ains
gener ate
den ote
den ylate
ĠNo G
Ġapplic able
sup eroxide
yel low
mer cial
Ġsecre ted
Ġrefer red
Ġdele tions
Sup porting
mut ated
Ġdistin c
ĠFA HRR
CH UK
Ġenc ode
Ġestim ation
number of
Ġtem por
Ex pression
col i
Ġplasm id
Ġ199 7
Ġ199 9
Ġcomparison s
ĠDis cussion
Ġenzym atic
Ġmaintain s
Ġinvestig ation
fr amework
fr agment
sp atial
Ġoverex pressed
ĠEn zyme
follow ed
Â¼ 2
incre ases
integr in
Ġmon ot
ĠAT F
ÎĶ rgt
Ġsust ain
lex opoulos
Ġfail ed
Ġfail ures
ĠĠĠĠĠĠĠĠ ĠĠ
def y
ĠState ment
Ġphosphat ases
vis ual
Ġdiffic ulties
Ġcolo ur
valu ation
EL ISA
PD F
ps u
Ġpropor tional
Ġemerg ing
Ġorgan ization
Ġsepar ation
Ġfl ip
Ġfl ora
ĠFirst ly
ĠCyclin D
OP TOS
vari able
itr ate
Ġcompris ed
Ġcompris ing
Ġadap tive
des ign
Ġeosinoph il
Ġapproxim ated
Ed ited
fault y
Ġdist ant
Ġsur face
ĠMet abolic
Ġrun ning
conver gence
knockout s
prom o
Ġenh anced
âĪĪ {
Ġappear ance
ogene ous
Ġaim ed
Ġimplic ations
Ġadvant ages
MO DEL
Ġmeta genomic
Ġrecogn ized
requi re
Ġdys function
Ġaccur ate
Ġsupplement ary
Bcl xL
ĠCol lege
ĠOm nibus
ĠROR gt
ĠROR GT
Ġspecial ized
CX CR
On cogene
eas ily
macro phages
ĠSup porting
ĠDifferen t
Ġadj ust
ĠKÃ¾ efï¬Ĥux
Rho GEF
resul ted
degrad ation
Ġparticip ation
Ġparticip ate
Ġparticip ates
Ġrestr ict
Ġretur ns
redund ant
ÂĨÂĨ ÂĨ&!
IT F
ĠOther wise
contain ing
Ġpreser ve
Ġrecapit ulate
Ġast he
upd ate
ĠPhys ics
Attractor s
Des CyclinC
evalu ated
wor ld
eterm ine
Ġcomplement ary
ĠKn ock
Ġpromo ters
Ad dress
Ġmul tic
Ġhor izon
particular ly
Ġsummar izes
Ġrecru itment
Tr cybHed
molec ule
ram atically
Ġpin point
Ġpred om
ĠRed ActinDyn
Ġtra its
bel ow
eli hood
Ġhierarch y
Ġexer t
Ġrab bit
Ġsynchron ization
Ġpoly nom
Ġchallen ges
fac ilit
Ġdif ï¬ģcult
odynam ic
Ġec topic
Ġattem pts
Ġnever theless
Ġlys ates
Ġadjac ency
RS L
SH P
leukem ic
Ġmach ine
ĠBacter ia
Ġexhaus tively
Ġatten tion
indle CP
Ġuncover ing
bed ded
ligand s
Ġmerg ed
Ġmerg ing
ĠCar mona
Ġgre y
Ak tp
cis o
ĠAv ailability
ĠMc Culloch
Cycle Arrest
He at
lay er
Ġrect angles
ĠNf kB
plas ma
Ġtimep oint
Ġobjec tive
interpre ted
Ġelectro ph
Ig G
Ġsug ars
Ġinï¬Ĥ uence
Ġpic ture
Ġconï¬ģrm ed
ĠMP T
Ġcomb ine
RAN ZB
Ġanalog ous
(+ )
crib ed
sust ained
Ġinn ate
ĠCU L
ĠPrim ary
ĠMol licutes
Ġcompart ments
casc ades
Ġneurode generative
Ġmigr ate
Ġprolif er
ĠRP PA
public domain
ĠSph K
osit ol
bbre viations
Ġsuscep ti
,::: ,
Ty r
Yi exp
Ġinconsisten cies
Ġpor tion
Ġpap ers
Ġrecord ed
Ġlic ensee
ĠRR M
Ġembry onic
ĠBayes ian
IBR OBL
rÃŃ guez
wTP M
whel ming
Ġcav ity
Ġcust om
Ġstead yst
terob acteriaceae
Ġgathe red
Ġimmedi ately
Interest ingly
denylate Cyclase
OPTOS IS
" ,
% .
) ),
+ ï£«
, *,
1 12
3 389
6 24
A trboh
B and
B ra
C d
C hem
C IS
C IA
C eramide
D ef
E lk
E stB
F Ta
G a
H O
H S
H ides
I CP
I den
L k
L ip
L SS
M R
M S
M e
M al
M MP
M MI
M mp
M SN
M DV
N on
N od
N OS
N ature
N ICD
N Lk
O ver
O CCS
P ath
P AP
P redic
P revious
P arv
Q iagen
R al
R GT
S R
S uch
S ER
S ignaling
S agAM
T H
T PL
T bx
T fh
T BK
T WIST
U pon
U lm
V CP
V AC
V CAM
Z EB
Z MB
a R
a uff
b a
b one
b ronchiseptica
b enef
c b
c ul
c ut
c ated
c ross
c Fos
d x
d Ã°
d escription
d eregul
d amag
d elay
d iseases
e z
e vidence
f y
f iles
f ew
f ï¬ģcient
g ut
g ab
g ous
h I
h a
h is
h ic
h ind
i u
i ol
i regul
i Treg
j F
k d
k o
l an
l ular
l ack
l ik
l ived
m m
m s
m y
m ic
m urine
m iddle
n el
n ation
n ith
n WG
n ucleotide
o ok
p our
p lying
p ERK
p rior
p tom
q PCR
r p
r ations
s en
s ur
t od
t to
t ary
t ech
u er
u iz
u yl
u til
v ate
v ated
v ating
v ances
v acu
v contribution
w ant
w idely
x k
y th
y clase
z n
z eb
Â «
Ġ ut
Ġ ell
Ġ ri
Ġ ess
Ġ esc
Ġ âī
Ġt c
Ġt s
Ġt gf
Ġt BID
in stance
Ġa res
Ġa ir
Ġa and
Ġa kt
Ġa Rg
Ġa ware
he pat
re actions
re pe
on ce
on ym
on struction
at al
at the
at ible
at pour
Ġ( +
Ġthe logical
Ġthe Boolean
Ġo mitted
Ġs es
Ġs ion
Ġs om
Ġs ole
Ġs idA
Ġs pleen
er v
er ic
er ies
er ight
er lotinib
er ries
ti ated
en etwork
en able
en ger
or n
or ation
al di
al most
al ready
Ġc e
Ġc is
Ġc am
Ġc opy
Ġc Jun
Ġc Fos
Ġ) :
ed a
ed ited
es ted
Ġin al
Ġin duc
Ġin for
Ġin Table
Ġin which
Ġin this
Ġin activate
Ġin ducer
Ġof NF
Ġof all
Ġof SASP
Ġof Cre
an ted
an ne
is on
Ġp ak
el eft
Ġan a
Ġan emia
ro blast
le ast
Ġw ant
Ġw iring
Ġw arran
Ġw anted
it t
it ations
ic on
ic an
Ġf x
Ġf is
Ġf lex
Ġf ields
Ġf alse
Ġf ocal
Ġm ere
Ġm SREBP
Ġb ed
Ġb ar
Ġb order
Ġb enchmark
Ġd a
Ġd s
Ġd ate
ĠA C
ĠA UC
ĠA EBP
ĠA DM
ĠA BH
et ts
Ġand in
Ġand IL
Ġn etw
Ġn ormally
ation ar
ation ale
ar ce
ar se
ar di
ar ious
ar ide
as ingly
Ġre p
Ġre port
Ġre act
Ġre duces
Ġre current
Ġre cessive
ul um
ul ative
ul ae
ul ocyte
od on
Ġto ok
Ġto ll
Ġto identify
ent enyl
Ġe ti
Ġe ast
Ġe gf
ig or
ĠT ec
ĠT PL
ĠT RA
ĠT echnologies
ĠT LS
ec tively
st art
st ationar
im ulation
ND OG
ut amide
lo xed
ĠC hen
ĠC losure
ĠC EBP
ĠC SD
ĠC lostridium
ĠN et
ĠN aldi
us etts
Ġst e
Ġst ables
Ġst aining
ĠO wn
ĠO ptim
ĠO defy
Ġis the
Ġis ogenic
ĠS tein
ĠS IN
ĠS DP
ĠS equ
ĠS TR
ĠS upplemental
ĠS DS
ĠS MAC
ter ing
ter ol
Ġh in
Ġh und
Ġh uge
Ġg ly
os h
os omes
ĠB I
ĠB M
ĠB al
ĠB as
ĠB etween
ĠB uilding
ĠB ordet
il lo
il umin
ĠNO D
id ation
ab l
Ġal gebra
Ġex change
Ġex clude
Ġ1 100
ol in
Ġfor cing
ĠP an
00 8
ĠM igration
ĠM EC
ĠM inis
ĠM agdeburg
ĠM ATLAB
ere ceptor
Ġas ym
ĠE ss
ĠE TS
tiv ities
âĢ ¢
âĢ ¦
se ud
Ġl ies
ver gence
Ġac y
Ġac cession
ĠF P
ĠF ac
ĠF GF
ĠF RK
ĠF Acore
ĠF IBROBL
nal s
nal og
Ġby a
um p
Ġnetwork Figure
te br
op lastic
op entenyl
ir a
tions hip
ad d
ad atpour
tr ig
tr ials
ap atin
ap plication
Ġor IL
Ġor nith
up le
up per
up regulated
and G
and n
and er
Ġcomp utes
Ġcomp iled
ĠR o
per ature
Ġwe igh
Ġwe ight
Ġwe alth
Ġv ulner
ĠD H
ĠD kk
ĠD SD
ĠD eterm
ĠD uke
ĠD omain
ath an
Ġres ources
Ġres ili
Ġres ervoir
Ġactiv at
di a
ĠG ri
ĠG AK
ĠG alpha
ĠG MPs
ĠH or
ĠH DAC
ch o
ch ro
ch olesterol
for th
Ġtrans i
Ġtrans cribed
10 11
iz er
Ġit would
ph y
Ġinter tw
Ġinter feron
ĠTh P
ĠTh ree
ach ieve
ach usetts
put s
Ġle gend
Ġwas used
Ġwas performed
pl i
pl atform
ine z
Ġde ï¬ģ
Ġde activated
Ġap art
ub ic
ub ation
ub ious
Ġr a
Ġr g
Ġr ib
Ġr ich
Ġr isk
Ġsh or
Ġsh ock
Ġsh ift
Ġper tur
Ġper ox
Ġper oxid
Ġper haps
hib ition
ex in
Ġspec ify
gen ome
ĠL Y
ĠL ong
ĠL ist
ĠL ower
ĠL uis
con i
str ates
ud e
ud ent
gr p
Ġne uregulin
Ġch ance
ast uck
Ġdynam ically
tos cap
Ġrepres sor
., [
Ġ5 8
Ġinhib i
12 6
av as
ack et
Ġco vers
Ġco ordin
vid es
pos ition
11 7
NA L
NA DP
Ġad op
Ġad vanced
rec ent
rec ru
respon d
Ġi i
Ġi j
Ġi tis
Ġup regulation
OS T
Ġpos sess
cell lines
ser ies
Ġlo se
ĠJ UN
ĠJ aco
In ternational
Ġro ot
Ġro ugh
Ġro utes
ĠU K
ĠU nivers
Ġdet rimental
ï¬ģ rst
ĠV LA
Ġ6 4
Ġ6 9
comp artment
comp ris
co res
Ġun iform
ens ed
Ġsub strate
cle ar
aus es
sid ered
cer ning
Ġgro und
ĠK ey
Ġar rays
Ġar ises
Ġar ticles
Ġout er
Ġout ward
regul ator
Ġinf easible
hed ge
Ġhe ad
ag er
ag ed
ag reement
100 46
Ġqu al
Ġinv ari
trib ute
one ofthe
Ġpre vents
de grees
nec ted
Ġ7 9
Ġmod ification
Ġmod ulate
Ġmod erately
Ġmod ulators
Ġcontrol lers
20 2
sc al
Ġ8 1
0000 4
Ġ10 9
Ġform ulae
IR AP
Ġed itor
ist ance
Ġstimul ating
ik ingly
17 57
Ġsup er
art am
ĠComp etition
ĠComp onents
val idate
nod rug
not e
not ation
Ġimmun ology
amm ary
lif e
Ġmut ual
Ġdec ide
Ġdec ades
200 0
200 3
be gf
ten cy
14 11
Ġpl ausible
Ġsign ifi
set ting
Ġsyn apse
stre ptom
iter ature
ĠAl tered
IP T
sim ulating
Ġx is
Ġcycl ing
Ġsp ores
53 63
udi es
ĠSTAT ES
stream s
ĠPro gram
Ġmat ch
Ġmat rices
Ġphosph ate
Ġprob es
Ġdef ines
Ġav ail
ext ended
Ġ! (
Ġconnec t
Ġdown regulated
ĠEx pl
ass achusetts
Ġcl ause
ollec tion
spec ified
Ġag ent
Ġsome what
Ġofthe se
Ġconver t
70 2
OR Y
Ġmedi an
Ġmedi ating
tal ks
âĪĴ /
ci ally
hemat opoietic
Ġgroup ing
og y
og ers
Ġmin im
Ġnon trivial
Ġcle ared
medi um
Ġ& Â¬
UC TION
Ġem bedded
CS S
Ġdep olarization
Ġdep hosph
ĠY east
ĠY ang
LP S
Ġfr ag
Ġfr ame
ethod ology
rel ative
ĠTGF beta
Ġcharacter ization
Ġcharacter ised
from the
enc odes
Ġsequ ester
Ġsequ encing
Ġdise ased
ob lot
ĠTNF A
rup ted
ull en
Ġthem selves
dis ruption
Ġwork flow
zer os
ĠZ eb
ĠZ isch
Ġsu ff
Ġhyp ered
arc her
ov ic
ĠÂ µ
Ġreconstruc t
differen ce
ĠCl ust
man ip
Ġcal cium
IFN Î³
no ise
Ġrele ased
aris es
ĠâĢĿ )
hel per
ĠDC I
IA H
tem poral
Ġcol ors
Ġins ensitivity
Ġins ufficient
arm aceu
Ġ0000 100
Ġser ves
ĠBio chemistry
det ails
Ġsimpl er
iom Ã©d
Ġhypothe size
ĠCY CLIND
ĠOn cogene
Ġext reme
Ġext remely
Ġexpl oring
ij TAG
phosph o
ĠFox c
ev ents
Ġinst ability
Ġinst ances
ĠCh a
SP HK
Ġclass iï¬ģed
ST EM
ĠProtein s
predic tion
Al bert
ah in
Ġep igenetic
ĠRas GAP
ĠRas GRF
Ġbehaviour s
rin cipal
Ġnam ed
complex es
Ġsol ve
Ġsol uble
ĠCO X
Ġconsider ations
Ġconsistent ly
JNK i
SC s
Ġblock age
aut ocrine
ĠAP P
ĠAP OPTOSIS
Ġperm ute
An ion
Ġimp ed
Ġimp lying
Ġconverg ing
invari ance
ï£¬ ï£¶
tc rb
Ġprec ision
Ġloc alization
drug treatments
Ġconstant ly
Ġdiï¬Ģeren ces
den oting
Ġperform ance
Ġarrow head
ĠPLC g
Ab normalTelomer
hom olog
ĠÎ± induction
ĠCTL A
LL IP
nos tic
tom etry
Ġwor ld
ict ly
Ġstand ardi
dep ending
lar ger
ĠTr astuzumab
ĠTr Foxp
Ġlimit ing
Ġread s
Ġsearch ing
Ġestim ates
Ġir respective
Ġdri ves
sto red
loc ations
ĠDis covery
independent ly
br acket
mod ules
mod elled
Ġq i
ĠEn richment
Ġreason s
Ġreason ing
ĠDynam in
Ġinternal ization
integr ation
ĠAT L
process ing
1000 702
FA F
ĠSci entific
indic ating
Ġcalc ulating
determ ine
Ġtumour igen
Ġperiodic ity
ĠMA NU
Ġconfirm s
ĠĠĠĠĠĠĠĠ ĠĠĠĠ
def icient
gu arante
Ġstatus es
Ġhom odimers
Ġpropag ating
EL K
ĠLUT s
witch ing
la w
ick ed
Ġrest ore
ĠIFNg I
po lym
Re g
ired oxins
Ġnumer ous
Ġlab el
Ġregulator ynetwork
Ġestablish ing
ew orth
ks yn
pare nt
Ġfacilit ating
Ġevolution ary
BN E
NGF stimulation
atec yclase
Ġgover n
Ġprote ase
character istic
character istics
ĠÎĶ grr
LM NA
aff inity
eratin ocyte
Ġenh ances
behav iour
gre y
Ġaim s
ĠmRNA s
ĠTA O
ĠCas pase
ĠCRE M
Ġpersis tent
Ġneighb oring
Ġrow s
MO MP
bre ast
Ġly sed
Ġillustr ates
orph isms
amag a
Ġprogram s
Ġidenti ï¬ģcation
ĠQ ual
oscill atory
ĠMO DEL
GE O
ann is
Ġformat s
Ġproblem s
assum e
Copy edited
hyper arc
liter al
Ġannot ation
Ġannot ated
Ġexogen ous
Ġknow ing
Ġaper tures
Ġbiom ass
Ġdur ations
Ġcompos ition
Ġkeratin ocytes
Ġsuppress ive
Ġavoid ed
jec ts
zy gous
Ġvers a
Ġultim ate
ĠIG Os
consid er
Ġinvolve ment
Ġoppos ing
ĠImmun ology
bu ild
ears on
repro duce
oper ator
Ġelimin ation
Ġdepic tion
SCR IPT
ĠER a
Ġprinci ples
Ġclos eness
Ġstop ped
ĠSw i
ĠDi rect
ĠAnti gen
hypothe ses
affec ting
yd rogen
Ġpred ecess
acch aride
ĠCH UK
ĠSte ady
ĠUp regula
Ġsubconstrain ts
Ġsigniï¬ģcant ly
Ġbreak down
ADP R
sugges ted
Ġexer ted
open ing
ĠDO CK
Ġbiolog ists
Bi ot
bas in
max imum
reconstruc ted
ceed ed
Ins ig
Inter action
Ġassoci ate
Ġhighligh ting
relationship s
Ġstrength s
GA NLk
Ġbran ches
ĠBacter ial
ques tions
prote omic
Ġfragment ation
ÆĴ k
Ġubiquit in
ĠSub sequently
Ġconven ient
ĠIni tial
ĠIni tially
Ġmater ials
Ġcontradic tory
tag on
Ġfit ted
ĠCur ie
emat opoietic
Ġmanip ulation
Ġ** *
Ġpure ly
Ġandrogen s
acetyl transfer
olip id
olip ase
ĠPredic ted
ĠEd itor
tract able
strong ly
Ġtimep oints
Ġobjec tives
Ġaddi tive
lasmin ogen
Bo SS
EG ORY
itud e
itud inal
Ġmuc us
Ġnic hes
otin ylated
ĠPhenot ypes
âĢ¡ ,
Ġautom ated
Ġhypos ensitivity
Ġhypos ensitive
metabol ites
ĠPharmac ology
DA XX
symmet ric
Ġretr ieved
strip es
Ġhap pen
Ġcont act
Ġcanal ized
Institut o
RPPA data
invol ving
Ġcontribut ors
Ġbuff er
brac eleft
CEBP be
reveal ed
Ġdim inis
ĠCP R
ĠCan alizing
ĠCAT EGORY
Ġprov ok
otrop ic
Ġexpec t
Ġexempl ify
eedS et
phosphat ase
assump tions
Out put
clo sed
remain ing
Ġslight ly
ĠCam bridge
ĠCLP s
ĠFunc tion
ĠThef igures
chall en
formal ism
TheCell Collective
possib ly
Ġopportun ity
otherap y
Ġhyph ae
Ġpolym er
BO OL
includ es
Ġov aries
Ġcum ulative
Ġfam ilies
Ġfem ale
Ġdrastic ally
ĠIll umina
Ġli ver
Ġlik elihood
ĠRG S
produc ts
propag ation
Ġleuk ocytes
Ġneut ral
calc ulated
Ġcatal ases
Under standing
him a
zal utamide
Ġolig on
Ġansw er
Ġmelan ogaster
ĠCB X
ĠSa adatpour
ĠEurope an
Ġbystand er
ĠInfl uence
expos ure
Ġunderpin ning
Ġsched ule
Ġqualit a
Ġimmunos up
Ġequilibri um
highligh ted
Respon se
Ġpredom inant
624 4
Bra un
FTa GANLk
Hides hima
Parv in
auff man
hic le
iregul in
uyl la
Ġtgf a
ĠSTR ING
Ġhund red
ilumin esc
ĠMinis try
ĠEss ential
nalog ously
apatin ib
Ġornith ine
Ġresili ence
toscap e
NADP H
10046 96
streptom ycin
ĠZisch ka
iomÃ©d icas
Ġtumourigen esis
ĠMANU SCRIPT
eworth y
ĠIGOs Z
Ġpredecess or
acetyltransfer ase
' t
) [
, :
- )
. -
4 73
8 17
= [
A v
A ran
A UC
A BI
A mer
A dditionally
A mong
A ffymetrix
B M
B n
B t
B oth
B MP
B lood
B udding
B lautia
B ernoulli
C G
C i
C er
C al
C ancer
C ccA
D KK
D atabase
D avid
D ecreased
E is
E ts
E qu
E mail
E cole
E valuation
F P
F unc
F ile
F ors
F YN
F OX
F gf
F reiburg
G ab
G rb
G alpha
G PCR
G amma
G erman
H P
H a
H eu
H SP
H IST
H amming
I d
I GF
I CA
I Hed
I ÎºB
I CAM
I TT
J an
J une
K inase
K LF
K OUT
K lf
L o
L AT
L ys
L AR
L uis
L icense
M g
M at
M cl
M ating
M ef
M Ft
N C
N E
N ot
N CD
N ormal
N IA
N odes
O a
O xidative
O ptim
P RF
P GE
P ROTOSOM
Q GAP
R ab
R ad
R ail
R MA
R obustness
S M
S os
S te
S NF
S RF
S ection
S HF
S aez
S wnreclbtluu
S igma
T op
T arget
T ables
T ah
T CH
T BET
T IRAP
U ni
V el
W ild
X p
Y Y
Z h
[ (
] (
a ur
b ad
b cl
c os
c ause
c Jun
c AMP
d B
d ent
d ex
d ose
d ict
d uodenum
d raw
d ensed
e j
e ar
e fficient
e oni
f e
f n
f p
f x
f in
f um
f av
f irm
f easible
g k
g m
g el
g ate
g reat
g atus
g ov
h ing
h own
h ost
h og
h arti
i otropic
k g
k en
k inases
l atory
l ined
l ckr
m M
m el
m ul
m ol
m one
m ass
m ekk
m ammal
m orph
m KTS
n n
n ov
n umer
n orm
o ï¬Ģ
o upling
o forms
o zygous
p an
q i
r s
r ur
r ab
r ithm
s os
s uc
s ix
s till
s igned
s ecre
s elf
s ources
s ynthesis
s witched
t ant
t age
t les
t ner
t aken
u ang
u ÃĪ
v inc
v arious
w a
z le
z ation
z un
z ng
{ (
{ }
¸ i
º B
Ã »
Ã Ĥ
Ã Ĭ
Î ¾
Ï Ĩ
â Ĺ
Ġ ]
Ġ ur
Ġ zeros
Ġt b
Ġt ab
Ġt ail
Ġt ens
Ġt works
Ġt ells
in an
in fec
in ition
in tro
in duce
in tracellular
Ġa ver
Ġa ï¬ĥ
he at
he res
re pression
re fer
re aches
re duces
re ason
re versible
re pressor
re ceived
on za
on cogene
at ten
at ric
Ġ( .
Ġ( =
Ġthe r
Ġthe cell
Ġthe input
Ġthe system
Ġthe anti
Ġthe results
Ġthe immune
Ġthe same
Ġthe effect
Ġthe Creative
Ġthe resulting
Ġthe identification
Ġs n
Ġs s
Ġs w
Ġs al
Ġs os
Ġs tim
Ġs ized
Ġs witched
Ġs enescent
er ol
er ated
er ally
er ved
er anyl
ti an
ti ate
ti se
ti ous
ti ss
ti ï¬ģc
en k
en op
en ables
en ci
en tire
or dinary
or dered
al ternative
Ġc f
Ġc ock
Ġc ult
Ġc ritic
Ġc rop
Ġc MYC
Ġc odon
ed icine
es ting
es pecially
Ġin an
Ġin ac
Ġin IL
Ġin cor
Ġin trac
Ġin ner
Ġin each
Ġin consistent
Ġin activates
Ġof pro
Ġof Boolean
Ġof signaling
Ġof each
Ġof Ulm
an is
is hed
is ual
is phosphate
Ġp p
Ġp en
Ġp ri
Ġp STAT
Ġp kb
Ġp CAG
Ġp loid
Ġp seud
el ec
el yn
el imin
Ġan tim
Ġan tagon
ro lim
le um
le ted
le ase
Ġw ave
Ġw estern
it z
ic ity
ic les
Ġf us
Ġf ly
Ġf un
Ġf ol
Ġf used
Ġf ission
Ġf igures
Ġf arnesyl
Ġm er
Ġm es
Ġm id
Ġm tor
Ġm ix
Ġm ag
Ġb its
Ġb atch
Ġb owel
Ġd raf
Ġd imension
Ġd anger
Ġd ramatically
Ġd ubious
ĠA FF
Ġand p
Ġand Barnesiella
Ġand Enterococcus
Ġn d
Ġn i
Ġn r
Ġn as
ar in
ar am
ar ia
ar ra
as c
as i
as the
as se
as hi
as ks
as ama
Ġre in
Ġre tained
Ġre combin
Ġre cycl
Ġre interpreted
ac s
ac he
ac yl
ac cum
ul at
ul io
ul ator
ul ence
tion Dyn
od erm
od ium
Ġto x
Ġto inhibit
Ġto simulate
ent y
ent ries
Ġe ase
ig a
ig ital
ĠT e
ĠT w
ĠT est
ĠT CF
ĠT umor
ĠT echnical
ĠT rkA
om b
om ate
ec e
ec omp
st age
st omata
st ages
st ances
st ein
Ġth orough
im plic
ut uc
ĠC F
ĠC K
ĠC or
ĠC los
ĠC IN
ĠC ON
ĠC orrespondence
ĠC ruz
ĠN e
ĠN umber
ĠN ik
ĠN ET
us ers
res earch
Ġst ained
ur ation
ly sis
un iv
un til
un changed
ve x
ĠO da
ĠI II
ĠI ON
ĠI kzf
Ġis in
Ġis shown
Ġis olation
ĠS D
ĠS M
ĠS ystem
ĠS IL
ĠS IP
ĠS we
ĠS BF
ĠS alt
ĠS lt
ĠS ee
ĠS kp
ĠS IAH
ĠS amaga
am o
am ber
am ined
the oretical
the cellcollective
Ġh all
Ġh ope
Ġh MEC
Ġh ybrid
Ġh begf
Ġg ab
Ġg rb
Ġg luc
os s
uc a
Ġcon versely
Ġcon vex
ĠB is
ĠB est
ĠB inding
ĠB urk
il ation
il chis
il lot
ĠNO DE
id ated
id ity
id ating
Ġpro of
ab etes
ot a
ot rim
Ġal ign
Ġal tern
Ġal beit
Ġex cre
Ġex tract
Ġex tending
Ġ1 0000
Ġ1 18
ol es
ol ve
ĠP et
ĠP ur
ĠP MC
ĠP KB
ĠP DPK
ĠP yth
00 9
ĠM olec
ĠM PI
ĠM MI
ĠM AC
ĠM mp
ĠM BF
ĠM athematical
ĠM GAT
Ġas k
Ġas an
Ġas ub
Ġas described
Ġas ignificant
ĠE C
ĠE q
ĠE uc
ĠE arly
ĠE nd
ĠE dinburgh
ĠE ZH
ow s
ow ski
tiv ation
se em
se ille
Ġl l
Ġl um
Ġl ibrary
Ġac quired
em an
em brane
em ploy
ĠF i
ĠF ib
ĠF lux
ĠF lt
ĠF BS
ĠF ollowing
ĠF ixing
nal ling
Ġby any
Ġare not
Ġare known
te e
log ÃŃa
ad ed
ad dress
tic oster
tr i
tr ary
tr igg
ap it
Ġor s
Ġor ient
up s
qu ickly
and p
and x
and ard
and related
Ġcomp rehen
Ġcomp atible
gul atory
ĠR oc
ĠR SK
ĠR ob
ĠR FC
ĠR PD
ĠR IC
ĠR lm
ĠR educed
per sis
per cent
per mutation
rom one
Ġv an
ĠD MT
ĠD YCA
ĠD SLT
ĠD edication
Ġres olved
to ster
duc ation
ignal ling
Ġat the
und amental
ĠG e
ĠG r
ĠG raph
ĠG PCR
ĠG RR
ĠG rr
ĠG othen
red it
red escribe
Ġk ras
Ġgen omic
ep en
ep oints
ĠH OS
ĠH TG
ĠH RR
ĠH SPC
ĠH arv
ĠH xk
Ġ0 1111
ch rom
ĠIn t
cl am
Ġtrans itory
Ġtrans forming
Ġtrans late
ph asis
Ġinter dependencies
pro por
pro gen
pro cedure
pro ject
ĠTh ough
ĠTh ird
ĠTh akar
Ġsignal transduction
Ġpath ological
eren ces
Ġnot eworthy
Ġle th
Ġle ave
of prostatecancer
pl ate
pl ified
our ses
Ġde activate
Ġap par
ub Med
Ġr y
Ġr in
iv ision
Ġsh apes
unc over
Ġper me
Ġper taining
Ġdis s
Ġdis junction
Ġdis plays
01 1
01 6
ĠW IT
ĠW EE
ex trinsic
ex ception
ex pressing
ex amined
Ġcy tometry
Ġim plied
Ġim ages
Ġim paired
ĠL F
ĠL arge
con cerning
ĠBoolean network
ĠBoolean Net
ud asama
The y
The different
The measurements
tim ately
tim epoints
Ġanaly se
Ġanaly tically
Ġch amber
tain s
Ġ4 3
tos om
under lying
ffec ts
cre ate
cre ase
cre ating
Ġ5 5
Ġpar a
av y
av arra
tro phot
Ġco unt
Ġco herent
pos ing
Ġset of
Ġset tle
Ġset tles
11 9
Ġrespon ds
rec o
rec ently
Ġcom bi
Ġcom mun
respon ding
respon sible
Ġi ii
Ġi leum
cy clic
Ġpos i
Ġrepresent a
ak down
ser ve
bin ations
ĠJ un
In this
In hibition
are marked
Ġeffec tively
ï¬ģ n
ĠV er
ĠV ilchis
ron t
comp aring
comp etent
rap id
co ated
co vered
Ġun ion
Ġun ra
Ġun fold
est ate
Ġsub type
Ġsub jected
ss en
ss el
ss plines
ip ses
ĠK inase
las s
Ġind is
ox ifying
Ġme val
Ġse ek
Ġse arched
epend ency
Ġwhere by
AS E
RK L
struc tural
100 00
Ġqu ality
CC L
Ġy i
Ġthere of
Ġdi ameter
21 4
ĠÎ ºB
com munication
de z
Ġincl inical
nec ess
BA G
ind quist
Ġmod ulated
Ġmod ify
sc affold
ress ive
Ġappro pri
org anism
Ġ10 4
Ġ10 10
do Ã±
tit atively
tit ude
Fig s
Ġdevelop ing
Ġsup pressed
Ġsup presses
lec ting
CR PC
Ġel e
Ġel sewhere
Ġel evated
arch itecture
Ġmicro RNAs
âĨ ĳ
âĨ ĵ
EGF and
19 99
Ac cess
Ac tionDyn
be fore
by different
ins ights
ĠAp op
Ġanti apoptotic
Ġconf lic
ten timepoints
Ġpl ur
Ġpl aced
Ġsign iï¬ģcance
Ġsyn thase
Ġpresent ing
Ġbec om
ĠAl ternatively
Ġequ a
cur ie
sim ultaneously
Ġcycl ase
Ġsp ot
can alizing
Ġincre asingly
ĠPro t
ĠPro MoT
ark up
Ġphosph olipase
ĠPK N
Ġdef ense
Ġdiscre tized
ne ur
ffic ients
TGF BR
ĠX i
ĠX is
ĠX OR
PA C
sh are
ĠEx ample
Ġcl auses
Ġag ing
min utes
Ġofthe nodes
over all
over come
sequ encing
Ġref ine
Ġmulti stationar
par ticip
ci ency
FF A
LR O
16 106
Ġelem en
Ġem pty
Ġem phasis
ĠCon sistent
EM SA
22 114
ĠY OX
TE S
ĠGen omic
Ġï¬ģ ve
present ing
Ġcontinuous ly
Ġcharacter izing
ĠBN s
Ġintegr ative
Ġintegr ins
Ġreg imens
Ġconsis tency
MA CR
Ġparamet ri
Ġorig inally
MT Ak
ob vious
ob lastic
Ġhel ps
rup t
Ġrobust ly
Ġthem ain
Ġthem ost
aph ase
Ġterm inally
Ġver tebr
Ġsu ited
Ġsu ffic
PM V
biomed cent
ov ine
ĠÂ ½
differen tial
arn augh
ĠCy c
Ġphosphoryl ate
St em
St ates
Ġtop ublish
man ner
man uscript
Ġrepro ducing
Ġprom ise
Ġprom oted
ĠRe v
ĠRe al
regulation of
CP R
Ġsel ective
Ġder iv
II I
bod ies
hor ts
iqu id
hel p
met ric
Ġinthe model
ĠBcl xl
ĠDC s
Ġgeneral ized
IA BL
olumn s
Ġ0000 0000
Ġ0000 000
Ġser ine
ars ofthe
Con struction
det ected
Ġfocus es
CDK N
ĠGATA s
reg arding
Ġtum ors
Ġcontrib utes
Ġent ering
ĠCY TC
ĠCh almers
ĠCh udasama
cc blp
press ive
press ors
Ġdisrup ting
SP N
Ġvar ies
Ġclass ify
Ġclass room
Cell Net
air ly
Cy t
Ġtest able
equ ivalence
Pro t
ris tian
Ġessential ly
Ġoper ation
ĠWh ite
ĠWh ilst
Ġmicroenvironment s
Ġsol id
Ġsol ving
Ġsumm arises
eng ers
eng ineering
Ġreal ized
ĠCO LL
.. .
Ġrese archer
most erol
stimul i
stimul ated
Ġpair wise
opo lys
TR OD
Ġstar vation
Ġarrest ed
stitu tive
Rec Lig
Rec onstruction
Ġ00 1100
Ġmal function
ect able
** *
IG Os
ĠpNF KB
ai lored
ĠCi enci
connec tions
Ġdetermin ant
57 7
Ca IM
Dep artam
Ch IP
Ch olesterol
drug vector
drug intervention
ok ines
gener a
Ġheter otrim
Comp lex
have been
olog ous
anti body
Ġgran ts
Ġapplic a
Dynam ics
Ġcollec ting
Ġcomput ations
Ġpost ulated
Ġvis ible
Ġvis ited
Ġevol ve
transcription ally
ĠInter actions
Ġwor th
Ġtimes eries
knock ed
Ġmo ves
biological ly
Ġdemonstr ates
Ġclo ser
Ġread out
addition ally
Ġrequire ment
Ġtem perature
Ġdifferenti a
col n
sub types
Ġ199 6
show ed
CK S
mod ule
main tain
ĠBi osciences
Ġact ually
mat ch
Bio Models
lim inary
Â¼ 0
Ġtransfer red
prob lem
but yrate
Ġcons ecutive
Ġcalc ulate
ÃŃ os
Ġsust aining
Ġsimultane ous
Ġconfirm ing
Ġexp and
ĠĠĠĠĠĠĠĠ ĠĠĠ
def ine
Ġphosphat idic
Ġ29 4002
valu ed
GAP DH
hh t
Ġcolon y
Ġorgan ized
Î² R
ĠAfter wards
ĠCo A
Ġexhib its
Ġexhib iting
hence forth
ĠÂ¼ 1
Ġvisual ization
Im portantly
It k
ren ces
Ġconcer n
Ġconcer ted
Ġadap t
ĠâĢĻâĢĻ (
initial ly
mo tif
allow ing
Ġcentral ity
Ġcoun ts
Ġcoun ting
Ġapproxim ate
Ġsynerg y
BN s
En put
En ciso
TT SS
sign iï¬ģcant
Ġsur rounding
Ġprote oly
ĠMet a
ĠWith out
use ful
ĠSch mel
therap ies
Ġenh ancer
concentr ations
Ġemploy ing
Ġrecover ing
Ġmammal s
Ġcontin u
Ġiniti ates
Ġheat map
Fr agment
IC O
cas tration
repres ses
Ġback bone
ĠSer um
ĠPer turbations
ĠMET HO
Ġrecogn ize
Ġpolar ization
Ġdys regulation
Ġdys regulated
Ġutil ity
Ġutil ization
DD R
Ġax es
ĠCol mone
Ġknockdown s
macro phage
ĠSup eroxide
endo reduplication
TG S
mem ber
Ġsink s
Ġfi res
ĠAb cam
acion es
Ġsuppress ors
Fos l
link s
rem ains
Ġslow er
Ġretur ned
Ġprevent ing
Ġintu ition
mean ing
Ġexplan ations
land o
nam ic
ĠIN PP
Ġrac cdc
consid ering
Ġtract able
Ġnecess ity
/Ā ,
bec ome
caus ing
Ġdra w
ĠSecond ary
oper ators
upd ated
Ġcommit ted
Ġhepat ocyte
Ġelec tr
Ġdepic ting
Ġhelp ful
Ġwr ong
eth at
ĠDe ath
Ġirre versible
Ad elyn
human ized
Ġfung i
ĠSw iss
Col lege
focus es
how ssplines
sol ely
Ġsens ing
Ġfer ric
ombin ation
ĠCH ST
ĠPBCN s
ĠREL A
Ġlet ters
ĠUp regulate
ĠÎ¼ M
Ġheterogene ous
Ġbreak s
bel ong
second ary
Î¼ M
alter ations
Ġinser tion
Ġinser ted
Ġanimal s
Ġcytotoxic ity
Ġcoe fficients
oster ol
Ġbiolog i
Ġsynchron y
Ġresemb led
Creative Commons
Ph arma
method ology
pris ingly
reconstruc t
Ġcategor y
Ġdon ot
ĠBl ue
ĠFAS LG
prog ress
prostatec ancers
Ġassoci ation
standard err
Ġrestric tions
Ġspl ine
Ġbran ching
Ġdamag ing
arb or
ĠIKB KG
ĠST RESS
ĠMat hematics
ĠEN V
Ġatten uated
ĠQu antitative
CE LL
Ras GAP
Trans criptome
pens able
scription al
Ġsl p
orb arsofthe
ĠChem Chains
Ġgre w
Ġprot ect
Ġattrac ting
constitu tively
REL Ap
event h
event ually
Or doÃ±
eg ative
ĠMa BoSS
ĠFr amework
Ġorchestr ated
ĠRef erence
exist ence
Ġgrow ing
Â§Â§ Â§
Ġcataly zed
Cas pase
KE GG
Se e
ĠsiRNA s
uccess ful
ĠPE PC
ĠPE RFOR
ĠMem ber
ĠLM NA
again st
ultane ous
Regul atory
significant ly
therapeutic s
MK P
PTC t
eto acetyl
ĠBut tner
ĠPhenot ype
ĠDet ailed
Ġauto immune
valid ated
Ġoxid ase
DO CK
DO CX
Red ActionDyn
TO LLIP
si rolim
symmet ry
Ġcent ers
implement ed
ĠIF NAR
Ġhap pens
Ġ101 1
ĠEps in
Ġresid ual
ĠHyp oxia
expl ained
contrib ute
Ġcoinc ides
Ġsci ences
biguous ly
brac eright
decision s
TxfHed Heu
Str uctural
iy a
Ġtre nd
Ġbr id
Ġduplic ates
ĠCL OCCS
urs with
ĠEp ithelial
ĠGAP DH
Ġinterp olated
Ġdevi ation
Supple men
ĠBiot echnology
confirm ed
ydro cholesterol
Ġprotocol s
Ġphagocy tic
Ġphagocy tosis
Ġsphing osine
Ġcarcin oma
Ġbenef it
ĠOb viously
perman ently
ĠDen is
Ġencomp assing
Ġinfil tration
Ġplcg a
discre p
ĠLeukem ia
Ġortholog s
Rel A
jX jÃ°
Ġcare ful
Ġrepl aced
ĠNC OR
ĠBudding CP
separ ate
Ġlig ase
emerg ence
ĠDia gram
Ġdisjunc tive
Ġeduc ation
Ġagg reg
Ġdeline ate
Ġmanif est
indirect ly
Ġfluores cent
ĠSwed en
demonstr ated
Cub a
Om aha
bro ck
hard t
phen omen
Ġcs rc
ĠAN XA
Ġnitro gen
aspec ts
Ġstron gest
ĠSc hematic
ĠMur phy
ĠEXP RESS
segment ation
recombin ase
colo urswith
deh ydrocholesterol
scienti sts
Ġambig uity
Ġclin ically
Ġï¬ģg urations
Ġdistinc tion
Ġmonot onic
promo ter
DesCyclinC CDK
Ġmultic ellular
Ġhorizon tal
Ġpolynom ial
facilit ate
Aktp athway
Ġelectroph iles
LSS s
SER M
damag ed
tech nique
vacu olar
Ġtc rb
hepat ocytes
Ġses sion
Ġmere ly
ĠTRA DD
ĠCEBP beta
ĠCSD A
Ġstables teady
ĠBI OLOGY
ĠBetween ness
ĠBordet ella
illo sis
ereceptor s
Ġacy clic
ĠFIBROBL AST
trig ger
Ġweigh ted
ĠDSD s
Ġintertw ined
Ġshor ter
avas ation
nodrug treatment
1411 17
ullen brock
armaceu tical
drugtreatments aremarked
denoting nodrugtreatment
Ġstandardi zed
guarante e
ĠEditor ial
ĠThefigures howssplines
Ġunderpinning s
Aran a
Cer da
ICA L
Lys osome
MFt MTAk
Oa MFtMTAk
fum igatus
rur zun
vinc ing
ÃĬ C
enop us
Ġcock tail
Ġcritic ally
Ġploid y
Ġnas al
utuc ache
ĠClos eness
ĠSIL ICO
ĠPyth on
andrelated standarderr
ĠGothen burg
ĠHarv ard
progen itor
Ġappar atus
ĠWIT H
Thedifferent drugtreatmentsaremarked
Themeasurements included
trophot om
Ġunra vel
bydifferent colourswith
16106 22114
IABL O
Ġresearcher s
opolys accharide
TROD UCTION
ĠCienci as
Ġheterotrim eric
ĠSchmel zle
ĠMETHO DS
Adelyn atecyclase
OrdoÃ± ez
sirolim us
ĠThefigureshowssplines andrelatedstandarderr
Thedifferentdrugtreatmentsaremarked bydifferentcolourswith
ĠThefigureshowssplinesandrelatedstandarderr orbarsofthe
% ).
* .
+ /
- (
- /
- =
. );
3 00
4 16
6 00
6 19
6 1757
7 105
9 49
A AT
A CD
A Boolean
A NB
A ICD
A lexopoulos
A bbreviations
A denylateCyclase
B re
B ar
B as
B gene
B EC
B uylla
B iomÃ©dicas
B harti
C or
C ar
C ity
C and
C NA
C hip
C ruz
D B
D F
D ual
D uring
D OR
D ROS
D Apoptosis
D isease
D USP
E m
E GR
E IF
E GG
E SEARCH
E qual
E dinburgh
F in
F GFR
F actor
F requ
F IK
F lt
G M
G o
G ro
G SE
G SD
H er
H ill
H IF
H BEGF
I U
I CL
I EC
I parameter
I NAL
J U
K s
K out
K EV
L j
L ud
L ong
L ight
L ike
L UT
M it
M od
M AT
M ulti
M af
M Ã©
M etal
M inimal
M DS
N Y
N f
N HK
N acional
N kx
O f
O t
O ctober
O QU
O BEC
P l
P re
P en
P elay
P RSL
R ap
R oc
R ef
R ev
R uiz
S NK
S KB
S IP
S urvival
S ymbol
S equ
S YN
S ummary
S MAC
S MBF
T Y
T w
T up
T ech
T CC
T IN
T OYNET
T issue
U nivers
U SS
U LT
U niversidad
V ari
W H
W ASP
X k
X u
X iz
X OR
X IAP
b s
b or
b ation
b ac
b ur
b etw
b ations
b ep
b ase
c ile
c ult
c Acid
c ategor
c JUN
c na
c topic
d m
d on
d am
d ate
d ase
d ag
d ays
d imen
d ocumented
d ataset
d otted
d ele
d escribing
e osinoph
f an
f il
f yn
f ail
f ind
f uture
f itting
f inding
f alse
f reec
f loxed
g i
g is
g ly
g io
g ain
g and
g rb
g ression
g ement
g mail
g ives
h r
h ad
h ap
h omeost
j i
j nk
k i
k man
k yo
l p
l ide
l ationship
l ands
l ength
l iving
m L
m es
m ated
m ary
m ally
m ek
m aster
m issing
n or
n ic
n ol
n ow
n oth
n hh
n isms
n itude
o logic
o upled
o ured
o annis
p k
p th
p ine
p rec
p dk
p Stat
p atient
p otent
p CAG
p jS
q RT
r d
r atio
s ens
s ite
s pre
s ink
s ampl
s upplementary
s iella
s atis
s ecretion
s lp
t L
t ually
t tl
u it
u itive
v ates
v ulner
w in
w ig
w eb
w ater
y sis
y St
y eng
y ield
y tC
z es
| /
~ :
Â ®
Ã İ
Å Ĵ
Ë ĩ
Ï ĥ
â Ĭ
Ġ iv
Ġ ://
Ġ âĪĴ
Ġt z
Ġt ub
Ġt ive
Ġt alk
Ġt ern
Ġt echnical
in ate
in this
in ï¬Ĥux
in clude
in stead
Ġa ted
Ġa model
Ġa gene
Ġa cetic
Ġa Cre
Ġa kap
Ġa forementioned
he ads
re duction
re port
re plic
re ading
re feren
re ttl
on a
on ent
on om
on yl
at r
at tem
at traction
at ta
at fault
at elet
at least
Ġ( [
Ġthe DNA
Ġthe ra
Ġthe output
Ġthe two
Ġthe steady
Ġthe inhibition
Ġthe inhibitor
Ġthe initial
Ġthe development
Ġthe DCM
Ġo d
Ġo st
Ġs in
Ġs urv
Ġs ake
Ġs mo
Ġs Fas
er ties
er ived
er ob
ti ating
ti des
ti ï¬ģcation
en ed
en ing
en richment
or ange
al o
al og
Ġc a
Ġc el
Ġc tion
Ġc os
Ġc ome
Ġc expression
Ġc FLIP
Ġc ubic
Ġ) [
ed e
ed ing
es im
Ġin a
Ġin our
Ġin con
Ġin NEMO
Ġin versely
Ġin presence
Ġin untreated
Ġin thism
Ġof an
Ġof our
Ġof activation
Ġof genes
Ġof biological
Ġof qualitative
Ġof cellcycle
Ġof IÎºB
an es
an ion
an ol
an ges
an ned
an coni
an osterol
is y
is an
is the
Ġp t
Ġp as
Ġp ot
Ġp ack
Ġp icked
Ġp lasminogen
el minth
Ġan gio
ro us
ro te
ro ps
ro hn
le t
le z
le te
le ad
Ġw t
Ġw ed
Ġw id
Ġw ound
Ġw ind
Ġw ish
Ġw aiver
Ġw rote
ing s
ic ate
ic ated
ic tions
ic ular
Ġf n
Ġf ed
Ġf ur
Ġf if
Ġf yn
Ġf ill
Ġf its
Ġf etal
Ġf unding
Ġf itting
Ġf oster
Ġf airly
Ġm i
Ġm is
Ġm arg
Ġm edicine
Ġb ur
Ġb ench
Ġb esides
Ġb ovine
Ġd u
Ġd in
Ġd am
Ġd ifficile
Ġd ash
Ġd rought
ĠA z
ĠA ce
ĠA PL
ĠA PA
ĠA dozelesin
et c
et e
et r
et rans
et hem
et ers
et hes
et othe
Ġand P
Ġand the
Ġand Migration
Ġn al
Ġn um
Ġn aturally
Ġn erve
Ġn itric
Ġn itrate
ar ithm
ar izes
as ting
as semb
as omal
Ġre w
Ġre per
Ġre cep
Ġre ag
Ġre ï¬Ĥ
Ġre modeling
Ġre pository
Ġre arran
Ġre agents
ac l
ac on
ac comp
ac quisition
ac count
Ġto a
Ġto wildtype
ent ro
Ġe is
ig u
ĠT E
ĠT X
ĠT at
ĠT or
ĠT om
ĠT im
ĠT op
ĠT ak
ĠT BID
ĠT otal
ĠT aken
ĠT ICAM
om ent
om aha
ec o
ec an
ec topic
st op
st ore
st atus
Ġth od
im od
im pro
im ental
ut ualism
lo se
ĠC re
ĠC ub
ĠC aus
ĠC BP
ĠC ho
ĠC ST
ĠC SF
ĠC ombin
ĠC bp
ĠC amp
ĠC NR
ĠC entre
ĠC haves
ĠC utucache
ĠC SNK
ĠN one
ĠN IA
ĠN AD
ĠN uclear
ĠN AB
ĠN atural
ĠN aturally
us ive
us Fe
us key
res ources
res piratory
Ġst och
Ġst resses
Ġst omate
ell u
un ted
un less
un omaha
ve ment
ĠO e
ĠO th
ĠI K
ĠI d
ĠI EE
ĠI QGAP
Ġis an
Ġis active
Ġis inhibited
Ġis oforms
ĠS N
ĠS el
ĠS to
ĠS mall
ĠS ink
ĠS ek
ĠS ynchronous
ĠS ilico
ĠS amples
ĠS VF
ĠS etting
ĠS tochastic
ĠS timulation
ĠS eedSet
the output
the most
Ġh ull
Ġh orm
Ġh ydrogen
Ġg ained
Ġg erminal
os l
os yn
os accharomyces
os omal
uc us
uc ity
uc tu
Ġcon vincing
ĠB D
ĠB n
ĠB and
ĠB AK
ĠB are
ĠB ass
ĠB lot
ĠB catenin
ĠB integrin
ork sh
il ent
id a
id ad
id ylin
Ġpro ced
Ġpro grammed
ab e
ab in
ab ling
ab bre
ĠNOT CH
ot o
Ġal go
Ġex tr
Ġex cess
Ġex cluding
Ġ1 10
Ġ1 26
Ġ1 74
Ġfor ced
ĠP ost
ĠP CA
ĠP attern
ĠP TE
ĠP RF
ĠP RAS
ĠP BS
ĠP earson
ĠM G
ĠM on
ĠM art
ĠM af
ĠM ajor
ĠM AR
ĠM FA
ĠM ean
ĠM DV
ĠM HC
ĠM assachusetts
ĠM arkup
ĠM ucus
ere pression
Ġas so
Ġas ingle
Ġas fragment
ĠE m
ĠE co
ĠE very
ĠE IF
ĠE BF
ĠE rgodic
ĠE lement
ĠE ducation
Ġthat the
Ġbe g
Ġbe activated
Ġbe hind
Ġon and
tiv eness
Ġl g
Ġl ac
Ġl ckr
Ġl iquid
GF ANB
ver ted
ver sed
Ġac om
em y
em ed
em ic
em odel
em sirolimus
ĠF er
ĠF ur
ĠF eedback
ĠF ixed
ĠF IS
ĠF arm
ĠF PP
um ed
um our
Ġare included
pres ents
ay an
te en
te ps
op erative
op eptides
ir able
ad ict
tic ut
tic ity
tr A
tr ue
tr ito
ap l
ap in
ap tin
Ġor ders
up Z
up take
qu e
qu ently
and T
and om
Ġcomp ens
Ġcomp li
gul ated
ĠR N
ĠR O
ĠR a
ĠR od
ĠR ead
ĠR ight
ĠR ules
ĠR CN
ĠR ogers
ĠR ESEARCH
per ative
per sistent
rom ising
ri a
ri k
ri as
ri ve
ment ed
Ġwe present
Ġv j
Ġv es
Ġv ent
Ġv olume
ĠD pos
ĠD ark
ĠD ev
ĠD Apoptosis
ĠD HOG
ĠD atabase
ĠD DR
Ġres et
Ġres pir
Ġres olve
to an
to be
to ire
di um
di vid
ĠG ran
ĠG ER
ĠG ram
ĠG RANZB
ĠG ZMB
ep tide
th s
th ata
th time
ĠH PK
ĠH Ã¾ATPase
Ġ0 10
Ġ0 100
Ġ0 45
Ġ0 101
ch ung
pon ents
ĠIn our
ĠIn hi
ĠIn troduction
ĠIn vasion
ĠIn contrast
ĠIn ternational
ĠIn Degree
ĠIn dex
for d
cl ed
Ġtrans genic
Ġtrans porter
Ġtrans ducer
Ġtrans porters
iz ic
iz umab
iz ethe
iz osaccharomyces
Ġit o
ph orylation
ph iregulin
Ġinter mit
Ġinter cellular
Ġinter face
actor y
pro state
pro duces
ach ieved
Ġnot ations
Ġnot only
Ġle aving
of an
of this
Ġwas hed
Ġthis model
pl ace
pl ants
pl astic
), ...,
Ġde viations
Ġde emed
Ġap opto
ĠIL IB
Ġr igor
Ġsh ip
unc ated
ynam ic
ynam ical
low ly
Ġper oxide
Ġper fect
Ġdis cer
Ġdis appear
Ġdis cover
01 34
01 0010
ĠĠĠĠ čĊ
ĠW i
ĠW issing
ĠW alter
ĠW adding
AT R
Ġen erg
Ġen orm
Ġen force
ex as
ex plo
ex empl
Ġspec ifies
Ġet h
age able
Ġim ple
ĠL C
ĠL ike
ĠL ars
ĠL ev
ĠL aboratory
ĠL GAL
ĠL astly
ĠL indquist
con served
str ained
ĠBoolean model
ud ad
gr u
gr ated
gr ailed
13 2
Ġne op
Ġne arly
perim ent
Ġch ild
Ġch oles
ast uz
out come
out side
out going
cre ated
cre ens
Ġ5 1
Ġpar ti
av en
av oid
Ġco ver
Ġco horts
Ġone of
pos ite
Ġset up
11 8
Ġob ject
Ġunder l
Ġunder going
erm ans
Ġad min
Ġad vance
rec ip
rec og
AP AF
Ġcom m
Ġmet h
Ġph os
Ġi ve
Ġi with
Ġi SCC
ill ion
NF ÎºB
cy cles
Ġother nodes
Ġpos si
ĠPI K
ak i
cell ul
ser um
bin ation
bin ds
ari ety
her che
ĠJ A
ĠJ im
ĠJ ens
ĠJ oh
In duced
In active
In fl
In tracellular
In addition
In order
In corporating
In ference
are a
are the
Ġro om
ĠU NI
Ġsc ientific
Ġsc arce
Ġdet ecting
ï¬ģ le
ï¬ģ ciency
ĠV RE
ĠV isual
Ġ6 1
comp ut
comp uting
Ġun likely
est B
turb ed
ens en
cle aved
sid A
ss uch
iden tical
iden tiï¬ģed
timul atory
ĠK ing
ĠK out
ĠK inases
ĠK lf
ĠK auffman
ĠK arnaugh
ĠK EGG
Ġar ran
Ġar th
regul arly
Ġbut also
icro bial
Ġinf erences
cor ticoster
Ġhe t
Ġhe aling
Ġhe avy
ag ons
yl ase
Ġqu ies
Ġqu asi
PL A
Ġrel ations
velop ed
Ġy ou
Ġthere after
Ġthere lationship
Ġdi abetes
Ġstr ictly
ĠFig s
Ġtr y
Ġtr ac
Ġtr uly
Ġtr acking
Ġtr astuz
Ġpre val
Ġpre ne
Ġpre malignant
de activated
BA Y
Ġ7 4
Ġmod ular
Ġmod ulation
Ġmod ulates
sc an
sc rib
Ġcombin es
Ġ8 2
Ġ8 7
Ġ8 8
los ing
back s
Ġ10 7
Ġaut ore
Ġaut oc
ist em
Ġgener alization
vers a
vers ity
Ġsup erior
Ġover view
ĠComp artment
ĠComp rehensive
ĠComp uting
CR T
Ġel usive
ival ently
iven ess
lis ts
val s
Ġam enable
Ġam phiregulin
Ġ9 9
not ypes
CA C
CA AT
Ġimmun oblot
Ġmut ated
Ġindic ative
Ġvari ed
Ġvari ance
be yond
by the
ĠAp art
ĠAp plication
ĠSt em
ĠSt atistical
ĠSt udents
ĠSt arting
ĠSt udent
ĠSt udies
ĠCa R
ĠCa ATPase
ey ond
ten tion
ten ess
Ġthen umber
Ġthen ormal
Ġpl ug
ni h
Ġsign ify
Ġsign atures
centr ations
Ġsyn d
Ġsyn onym
Ġneg lected
Ġop tions
Ġop posed
all i
iter atively
ĠAl ix
âĢĻâĢĻ ;
âĢĻâĢĻ [
cur acy
sim ple
sim ply
sim plicity
trans lated
trans location
Ġx t
other wise
ough t
Ġsp atio
Ġsp read
Ġsp reading
can bes
Ã¾ infl
Ã¾ release
Ã¾ inï¬Ĥux
ĠPro c
Boolean model
Boolean network
LGL leukemia
ark er
ven tions
26 3
Ġprob ing
ĠCA RMA
level canalization
RP MI
protein ases
TGF B
TGF b
TGF beta
Ġconnec ts
Ġschem es
ĠX in
ĠX wt
ĠX enopus
til ity
Ġdown regulation
ĠEx am
ĠEx tension
pre tation
ass igned
Ġcl b
spec ification
spec ifying
spec iï¬ģcally
Ġofthe NF
Ġofthe model
Ġconver ts
ax es
inter medi
inter connected
amet ers
Ġref eren
OR IG
Ġnegative feedback
Ġcir cum
Ġran ged
par p
oci ation
99 99
Ġliter a
hemat ically
CY CS
Ġlow est
Ġnon linear
ĠAc cord
ĠCon cept
ĠCon rad
ĠCon trary
22 4
Ġdep osited
ĠY ellow
ĠY HP
Ġfr uit
rel ation
rel iability
Ġï¬ģ le
Ġdel eting
Ġdel eted
environment al
Ġcap tion
ĠThere after
Ġ12 96
Ġintegr ity
Ġreg ression
enc our
enc ia
MA LR
othe tical
we ight
comple tely
52 9
ort mann
Ġcur ative
Ġthem embrane
ertain ly
dis tinguis
dis tributions
dis covery
ef ined
Ġj th
Ġj oin
Ġj nk
ang le
expression s
input vector
Ġsu fï¬ģcient
Ġhyp o
pe u
arc ÃŃa
top ology
ĠSP I
ĠSP ID
Ġvalid ity
Ġvalid ating
bio chem
me as
Ġquan titatively
biomed icas
ov ative
ov ski
ĠÂ ª
Ġblo ts
bl b
arn ing
ĠCy toskeleton
St ability
St omatal
St atistical
Ġ20 2
ATP ases
man ufacturer
Ġhttp s
Ġrepro ducible
ĠCT SB
veal s
ĠRe active
IFN B
Ġes ti
Ġes pe
Ġsel ectively
Ġrele asing
met a
met astasis
Ġoscill ates
88 1
88 817
ater ial
Ġoff ering
Ġobserv a
Ġobserv ing
cin crease
ĠPD E
ĠPD GFR
ĠPD CD
ĠDC ytC
IA LS
tem s
Ġcol lap
Ġins ensitive
TI V
Ġser a
Ġ16 40
Co unt
Con trol
det rimental
det oxifying
abor ator
Ġsimpl ifies
down regulation
Â· (
estab lish
iï¬ģc ations
reg ardless
represent ative
Ġconcentr a
Ġ18 0
Ġent ails
Ġexpl oration
ĠRec ent
ĠRec ep
Ġstructure d
infl u
infl amm
Ġbel ieve
Ġinfer ring
ev olution
Ġinst ant
ĠUn like
Ã© r
Ġpart ner
SP O
Ġasynchronous ly
Ġunc overed
Cell CycleArrest
ST G
ĠSim eoni
predic ting
Ġfum i
Ġfum iga
Ġtool box
Cy c
Al so
vi ability
ĠIf ng
Ġsynchronous ly
Pro tosom
ris k
Ġ: ::
ĠÎ² pathway
MI G
ane ous
Ġcheck ing
Ġnam ing
Ġsol ved
Ġprop ensities
44 7105
CT NNB
Ġdirec tions
iew ed
stimul ating
Bacter ial
Ġstabil ization
Ġstabil izing
ĠSH C
Ġblock ade
aut o
immun ity
TA B
Ġ00 11
** **
An a
An ti
wit ches
connec ting
tc rp
Ġcytos osl
Ġloc a
symbol s
requ is
Ġplay ing
Comp utation
Comp artment
ĠNo vel
cap abilities
cap acity
effec tive
sup ported
Ġcollec tively
there by
Ġgo ing
Ġless er
Ġacco unting
Ġsection ed
05 8
Ġevol ved
Ġsecre ting
GT G
1111 1
rele ased
ĠInter feron
Ġapp rec
76 6
Ġmicrobi ota
knock down
Ġmo ti
Ġmo tility
ĠFA NCD
Ġdemonstr ating
Cl inical
Cl uskey
Ġread er
ĠML CK
appro pri
appro priate
Ġrequire ments
Ġhand s
Ġobtain ing
ER IALS
ml k
micro biom
micro array
target ing
loc ate
col on
col labor
sub unit
sub sequently
sub stan
sub sequent
ĠSep tation
Ġ199 5
peri odic
ĠDis ruption
ĠDis ruptions
Ġassess ing
Ġassess ment
ĠNFKB IA
Ġinvestig ating
fr action
mod ulate
main taining
eregul ation
ĠEn terococcus
ĠEn terobacteriaceae
Ġphys ically
Ġlocal ized
Ġevent ual
kk ermans
Bio conductor
Ġmon o
Ġmon ocytes
Ġexam ining
Ġtransfer functions
prob ably
prob abilistic
Ġdesign ing
FA CS
but also
ĠSci en
Ġcalc ulations
determ ination
SLP t
bf ix
prim e
Ġfail s
ĠSpec iï¬ģcally
Ġconstitu ent
Ġimplement ing
control s
Ġexp ense
Ġextension s
No tice
No NoG
oh mann
oh isto
sel ection
ĠTrans ition
Ġseem ed
ĠCaM KK
Ġpropag ate
Ġpropag ated
PD K
PD GF
PD CD
ĠâĪŀ )
Ġpropor tions
Ġemerg ed
Ġpeak ed
06 447105
Per turbations
SB F
systems biology
Î² Î²
ick ing
Ġbound ary
vari ability
Ġtech nologies
Ġconcer ned
Ġconcer ns
Ġadap tation
individual s
CF LAR
des igned
des criptions
allow ed
Ġcentral ities
Ġlab els
Ġlab elled
consis ts
gramm e
illustr ated
Ġperiod ically
long ed
quan tify
quan tification
Ġpathogen esis
Ġdist ances
sign ificance
Ġsur fac
character ize
ĠÎĶ snf
rogen s
ĠSK P
ticular ly
ĠRNA i
Ġdifficult y
Med ical
Ġcre ation
Ġpersis t
Ġiniti ating
PLC G
PLC g
ject ures
ĠPer tuzumab
ĠPath ways
ĠMT K
ES CRT
Ġdys functional
ĠStr ikingly
Ġpharmac ology
Ġpharmac odynamics
Ġsupplement al
Ġoverlap s
Ġsynergistic ally
ĠNormal e
diï¬Ģeren t
208 4
TPk jPGN
TPk jSLP
GD S
pt omatic
rad uate
Ġrece ive
Ġrece iving
sth rough
ĠNot ation
ĠNot ably
ĠDifferen tial
Ġeng ine
Ġeng agement
Ġknow l
1100 5
1100 56
Ġphot otrop
ĠKÃ¾ efflux
pair ment
ĠAb undance
Ġvir ulence
Ġsuppress or
ĠActiv ator
rem oving
Ġdig it
schem e
Ġintu itively
Ġpublic ation
ĠNK X
Ġaccum ulated
Ġcorrel ates
experiment ation
Ġrecapit ulating
ĠFas L
Ġelimin ate
nolog ÃŃa
Des pite
FAS LG
Rod rÃŃguez
evalu ate
Ġide as
ĠÃ° Ãŀ
Ġtod escribe
Ġwr ite
ĠAss ay
ĠAss mann
ĠAss uming
eth yl
Ġreview s
Ġreview ed
ĠSp ain
Ġround s
Ġsequential ly
Ġirre versibility
AF X
Sci ences
Ġtw op
Ġtw ice
Ġstop s
Ġsegment ation
ucleo tides
simpl ified
simpl ify
ĠAnti body
Col lombet
Tr Foxp
affec t
focus ed
potential ly
spon d
ern at
Ġfore ach
Ġfore xample
ĠCH IP
ĠSte ffen
Ġintermedi ates
occur red
occur rence
Ġtra ffic
Ġdecl are
Ġï¬ģn ding
Log ic
ou iya
sugges t
sugges ting
small er
Î¼ i
int uitive
alter ation
Ġinser ting
direc tion
clust ered
âĪĹ ,
ĠVir us
Ġsynchron ized
Ph osph
Ph ys
reconstruc tions
Ġseed s
estim ated
Ġmorph ology
Ġmorph ological
Ġmorph ogenesis
Ġdon or
ĠBl ack
abs ent
Ġonco genesis
ĠFAS L
Ġcytoplasm ic
Ġbelong s
Ġbelong ing
Ġlys ate
Ġrestric tion
Ġrestric ting
IKB KB
IKB KG
bacter ia
interest ed
interest ing
Ġspl it
ĠIKB KB
Ġhomeost atic
ĠPl an
ĠMat rix
ques tion
prote asome
proper ly
2086 210
Ġsynthes ize
arcin oma
Ġextend s
ĠQu anti
Sp indleCP
Ġubiquit ination
Ġsl ides
Ġinte ger
Ġinform ative
ĠChem ical
Ġconven tional
random ly
Ġsubstan tially
ï£Ń ï£¬ï£¬ï£¶
BIR C
Or lando
Sh c
diff i
Ġcard io
ĠCur rent
ĠOut put
ĠOut Degree
ĠBar ne
ĠBar illot
ĠMar seille
Ġassemb led
ĠFr agment
ĠRef s
ĠDM EM
ĠDM SO
phys iological
Ġabbre viations
Ġgrow s
ï£¸ ï£·ï£·
Ġcataly zes
Bl ue
Se q
cand idate
rr ors
elan ie
ecu tively
ĠNf kb
Ġvacu olar
Ġkeep s
epti dase
plas m
Ġcirc ulations
ĠâĢĿ, âĢĿ
Regul ation
Ġcounter parts
Ġelectro porated
Ag ain
CIR t
summ ation
summ arized
read able
Ġsug ar
Ġinoc ulated
Ġmuc osa
Ġdimer iza
ĠAtrboh D
Ġnic he
ĠSE LP
Ġconï¬ģrm ing
ĠBo ard
perg illus
ĠDet ection
Ġjus tified
metabol ism
ï£·ï£·ï£·ï£· ï£·ï£·ï£·ï£·
#### ####
Differen tiation
Le vel
Ma ï¬Ģ
block ing
collec ted
hl ich
Ġlog arithm
Ġcc blp
Ġinn ovative
ĠAG B
strip e
stabil ize
ĠNat l
ĠIF GR
Ġgrad ual
Ġgrad uate
Ġresid ent
Ġsci ence
Ġremark able
invol ves
ï£¯ï£¯ ï£¯ï£¯
Ġneurode generation
EA EA
Kn ock
Kn owledge
car bon
jS eedS
Ġtre ating
Ġcave ats
ĠEP N
ĠEp idermal
ĠFos l
Ġattack s
Ġinterp olation
Ġrational ity
Ġrepress ors
Ġaden ine
Integr ins
ĠAcad emy
complement ary
Ġapparent ly
Similar ly
assump tion
)- (
SY STEM
check points
need ed
typ ical
heter ogeneous
Ġsphing olipid
Ġrevers als
ĠPar ticularly
ĠRel ative
ĠRem o
perman ent
Ġkill ing
ĠInstitut o
ĠInvestig aciÃ³n
ĠInvestig aciones
Ġdev oid
Ġral bert
Ġencomp asses
cons ecutive
Ġchar ac
Ġclar ify
Ġheterodimer ization
ĠLeukem ic
ODE s
Sc ale
aud ry
Ġaff inity
Ġsatur ation
annot ated
Ġple iotropic
Ġmy e
Ġdil ution
acomp lex
Ġeff i
Ġeff lux
ĠTi am
ĠTTSS I
ĠCom mit
thel ial
Ġgonad al
Ġconser vation
Ġconcaten ation
ĠPa ul
0034 416
ĠMal ate
optim al
ĠDE F
product text
plcg a
ĠUl timately
Ġarg uments
Ġhex agons
Ġ&! (
Ġï¬ģt ting
8888 881
ĠChrist ensen
Ġtriplic ate
Ġtriplic ates
Ġstream s
RELB cytoplasm
counter act
08 06447105
PRK RA
bar th
figur ations
glut amine
rink age
Ġve hicle
remo ved
Ġsor ting
Ġsil enced
Ġsaf ely
Ġsensi tivities
Ġpolic y
element ary
ĠSur prisingly
Ġhard ly
ĠBlock ing
Ġproï¬ģ ling
Ġasperg illosis
Ġlaw s
ĠFis her
advant age
trajector y
rie ure
Ġweek s
strateg y
timesc ales
cytos olic
Ġarri ving
Ġartif act
Ġautomat ically
Ġelic it
Ġimmunocomp etent
According ly
neutroph ils
ĠMYL K
Ã°t Ãŀ
Ġtempor ally
Ġsuscepti bility
Ġsteadyst ate
Lip opeptides
PAP ER
SagAM Z
deregul ations
delay ed
jF jÃ°
util ized
Ġess ence
Ġâī ł
repe ated
erv izic
ĠofCre ORF
itt mann
Ġflex ible
Ġeti ology
ĠOptim al
ĠSequ ences
ĠPan els
tionship s
dia gram
Ġrib ose
Ġperox iredoxins
recru itment
ĠJaco bian
compris es
Ġoutward ly
hedge hog
Ġinvari ant
ĠExpl ains
Ġdephosph orylation
Ġhypered ges
ĠCha ouiya
breast cancer
ĠQual itative
Biot echnology
RPPAdata for
Ġprovok e
challen ge
Ġimmunosup pression
Ġpredominant ly
Ġhundred s
iluminesc ence
Bt g
Equ ations
Fors chung
Jan ssen
Optim izer
PRF Ot
Vel iz
great er
rab bit
suc rose
ÏĨ ij
âĹ ¦
Ġaï¬ĥ nity
Ġsal ine
tiss ues
Ġcult ures
elec tro
Ġantim icrobial
Ġfus ions
Ġmer istem
Ġmag nitude
Ġdraf t
Ġrein force
omb ineering
Ġhall mark
ĠEuc lide
Ġorient ation
persis tence
toster one
Ġcommun ities
Ġappropri ately
Ġplur ip
Ġbecom ing
Ġmultistationar ity
Ġvertebr ates
ĠÂ½ 0
ĠCOLL OQU
Ġmalfunction ing
Departam ento
Ġaggreg ated
OaMFtMTAk I
Themeasurementsincluded tentimepoints
trophotom eter
ĠThefigureshowssplinesandrelatedstandarderrorbarsofthe measured
Fin ite
IU M
MÃ© xico
Rev iewed
USS ION
ULT S
Vari able
dimen tional
eosinoph ils
pth w
pjS wnreclbtluu
ySt aR
yeng ar
Ïĥ i
erob ic
Ġangio genesis
Ġwid th
ĠAPL P
ĠAPA F
Ġreag ent
Ġstoch as
ĠOth mer
ĠIEE E
Ġhorm one
orksh op
idylin ositol
Ġproced ures
ĠMAR CKS
GFANB M
ĠFarm ington
Ġintermit tent
Ġdiscer n
ĠWadding ton
Ġenorm ous
ĠLGAL S
creens h
recog n
ĠUNI TED
ĠVisual ization
Ġtherelationship s
Ġtrastuz u
Ġprene oplastic
Ã¾infl ux
ORIG INAL
ortmann in
ĠSPID DOR
88817 46
kkermans ia
Ġphototrop in
Ġlogarithm ic
jSeedS eti
SYSTEM S
PRFOt F
ĠEuclide an
ĠCOLLOQU IUM
" )
" :
" ).
( ,
( .
( [
) ]
* âĢł
/ (
/ ).
0 21
0 56
2 11
3 15
3 Â¼
4 48
4 40
5 11
7 20
8 46
9 00
= /
A ge
A ck
A wt
A ZD
A nalogously
A kkermansia
B e
B r
B is
B ur
B ir
B CR
B igg
B MBF
C om
C yp
C ore
C hen
C AT
C av
C NO
C rk
C ES
C dh
C orresponding
C entre
D i
D kk
D SD
D rop
D eterm
D ataset
D usp
D ivision
D IABLO
E F
E p
E ven
E rk
E AR
E ps
E qs
E NDOG
E rrors
F it
F ate
F ak
F ound
F PP
F rance
G O
G AS
G MA
G reen
G RN
G lucose
G EN
G ADD
G exp
G rant
G RANZB
H z
H yp
H ence
H ost
H ATPase
H EB
H DAC
H ematopoietic
I O
I V
I X
I c
I ts
I DE
I rurzun
K C
K O
K ow
K after
K na
K lamt
K arin
L ay
L PL
L aboratory
L OX
L aure
L anguage
L astly
L iterature
M E
M M
M on
M ad
M any
M ax
M acro
M ek
M DP
M SC
M kk
M ouse
M urine
M ED
M esp
M adeo
M HC
M esenchymal
M ager
M ethodology
M ullenbrock
N a
N b
N umber
N ose
N ik
N ck
N SP
N RG
N py
N avarra
O RK
O sc
P U
P it
P ar
P os
P ix
P KB
P ark
P BMC
P ier
P lasmin
P TGS
R U
R c
R he
R os
R ep
R AT
R OR
R SS
R OP
R IC
R ounds
R ÃŃos
S i
S w
S un
S chem
S anc
S earch
S ideroph
S ynthesis
S MO
S QUAD
S tochastic
S creensh
T i
T om
T hen
T MP
T Fs
T rac
T SRN
T cf
T erminal
T exas
U w
U pregu
U OU
V ol
V av
V erm
V ision
V LA
V DR
W I
W here
W ang
W NT
W alter
W ittmann
W ORK
X ik
X min
Y K
Y V
Y p
Y east
Y imod
Z ip
] -
] âĢĶ
_ (
a u
a im
a ase
b A
b ech
b est
b asis
b ars
b road
b udding
b ook
b isphosphate
c n
c cl
c ore
c ine
c ific
c her
c are
c ules
c ise
c Ãŀ
c ode
c oding
c IAP
c MYC
c FOS
c oscillation
c GMP
d A
d ig
d il
d ot
d ated
d ay
d ents
d ating
d bi
d ark
d gene
d ys
d ently
d icted
d imer
d rop
d uke
d atabase
d istance
e or
e ul
e bi
f j
f ti
f the
f inal
f inally
f used
f ield
f phys
g s
g am
g ated
g ers
g luc
g ica
g lobal
g ads
g zn
h it
h ol
h art
h after
h az
h Ebf
h ierarchical
h followed
i ar
i os
i ance
i ï¬Ģeren
i rected
j a
j j
j o
j un
j ad
j ug
j ust
j idad
k in
k el
k it
k ov
k eeping
k eratinocyte
l c
l on
l or
l led
l ive
l ater
l ights
l ides
l actose
l ena
l acking
l ibrary
m g
m z
m uc
m ess
m ach
m uch
m ature
m ined
m igr
m ake
m ense
m ester
m odes
m mp
m ouse
m mi
m olarity
m rs
n r
n iz
n ative
n ose
n one
n ey
n istic
n owled
n Dyn
n ormally
n exin
n dez
o i
o od
o yo
p T
p to
p ub
p ting
p ast
p AKT
p rin
p ulse
p oster
p olarity
q f
r n
r ain
r ise
r atch
r ham
r aven
s in
s ation
s ul
s ec
s ity
s ents
s ian
s Ãŀ
s Fas
s iRNA
s nai
s Ëĩ
s iveness
t x
t un
t am
t ative
t ub
t ave
t ance
t oth
t aking
t echnologies
t my
t ailored
u a
u or
u ell
u ating
v ec
v and
v ator
v ij
w ing
w et
w ass
w estern
w ena
w iki
w aiver
x y
x ide
y ec
y ev
y ears
z he
z en
| (
¯ ve
Â ³
Â µ
Ã µ
Ã Ł
Ã ¯ve
Å ¡
Ġ `
Ġ }
Ġ ib
Ġ iz
Ġ ype
Ġ hem
Ġ ust
Ġ journal
Ġ Ãŀ
Ġ 001
Ġ ells
Ġ âĪĴ+
Ġ ï£§
Ġ hedgehog
Ġt or
Ġt ell
Ġt ack
Ġt ions
Ġt ode
Ġt cr
Ġt asks
in S
in ion
in ated
in te
in duc
in for
in Fig
in PC
in ov
in ner
in trinsic
in acy
in complete
in ducible
in coming
in ducer
in ements
in itely
Ġa te
Ġa way
Ġa high
Ġa tory
Ġa SCF
Ġa CYCB
Ġa erobic
he x
he z
he im
re a
re y
re on
re es
re et
re am
re duce
re activity
re pair
re ferred
re porter
on o
on z
on ate
on ep
on co
on ist
on ucle
on line
on tag
on athan
at if
at tained
at tle
at ibility
Ġ( -
Ġthe em
Ġthe pro
Ġthe ex
Ġthe protein
Ġthe signaling
Ġthe go
Ġthe interactions
Ġthe possible
Ġthe biological
Ġthe complete
Ġthe current
Ġthe long
Ġthe following
Ġthe simulations
Ġthe discrete
Ġthe three
Ġthe case
Ġthe literature
Ġthe additional
Ġthe importance
Ġthe early
Ġthe presence
Ġthe impact
Ġthe possib
Ġthe paper
Ġthe onset
Ġthe SPN
Ġo t
Ġo ran
Ġs r
Ġs lo
Ġs ch
Ġs pon
Ġs our
Ġs hed
Ġs aw
Ġs nai
Ġs mol
Ġs ought
Ġs witches
er t
er ating
er ied
er lin
er isk
ti um
en v
en ic
en ot
en ormal
en ario
en zyme
or I
or i
al d
al i
al ternatively
al beit
al ene
Ġc er
Ġc was
Ġc RAF
Ġc IAP
Ġc FOS
Ġc ADPR
Ġc redit
ed om
ed ag
ed icated
Ġin cell
Ġin co
Ġin set
Ġin response
Ġin correct
Ġin tissue
Ġin etoposide
Ġin turn
Ġin ositol
Ġin tractable
Ġof E
Ġof T
Ġof cell
Ġof one
Ġof network
Ġof nodes
Ġof this
Ġof regulatory
Ġof total
Ġof interaction
Ġof inputs
Ġof single
Ġof human
Ġof bortezomib
Ġof many
Ġof multiple
Ġof chronic
Ġof RelA
an etwork
an ine
an ied
an terior
is activated
Ġp ub
Ġp iv
Ġp age
Ġp ast
Ġp ron
Ġp SREBP
Ġp FAK
el o
el in
el ic
el im
el omic
el sewhere
el ona
Ġan t
Ġan etwork
Ġan asynchronous
ion al
ro t
ro id
ro les
ro kinase
ro ld
ro ken
ro zen
le an
le tion
le ments
le vi
le jidad
Ġw ec
Ġw em
Ġw ider
Ġw econ
Ġw ingless
it k
it eration
it Ã©
it ored
ing to
ic ol
ic acy
Ġf at
Ġf ine
Ġf las
Ġf als
Ġm ating
Ġm irB
Ġm oving
Ġm ask
Ġm arb
Ġm Ruby
Ġm ammary
Ġm illion
Ġb etw
Ġb ot
Ġb ad
Ġb oolean
Ġb ands
Ġb rief
Ġb riefly
Ġb Zip
Ġb roken
Ġd b
Ġd c
Ġd as
Ġd ies
Ġd ag
Ġd uplication
Ġd edicated
ĠA E
ĠA Z
ĠA i
ĠA if
ĠA ber
ĠA ddition
ĠA mit
ĠA lex
ĠA DD
ĠA CE
ĠA BT
ĠA ffymetrix
ĠA lexopoulos
ĠA bbreviations
ĠA denylateCyclase
ĠA nalogously
ĠA LOX
et op
et here
et hed
et ric
et ectable
Ġand its
Ġand Bcl
Ġand thus
Ġand SHF
Ġn f
Ġn os
Ġn ce
Ġn ative
Ġn ucle
Ġn nodes
Ġn HH
Ġn ested
ar r
ar tic
ar com
ar rold
as ep
as well
as api
Ġre v
Ġre activation
Ġre ady
Ġre combined
Ġre new
Ġre porter
Ġre tention
ac le
ac io
ac ted
ac hed
ac entral
ac rine
ac curacy
ul ent
ul us
od a
od ec
Ġto g
Ġto y
Ġto under
Ġto are
Ġto its
Ġto use
Ġto capture
Ġto evaluate
ent ry
Ġe e
Ġe k
Ġe u
Ġe w
Ġe in
Ġe ac
Ġe ases
Ġe osin
Ġe PD
ig DB
ĠT ri
ĠT ech
ĠT reatment
ĠT cells
ĠT aking
ĠT BK
ĠT erminal
ĠT oll
ĠT odd
ĠT umour
om m
om y
om ial
om ade
om ycin
om etric
ec y
ec ourses
st e
st os
st em
st rom
st rans
st hem
st arget
st othe
st ob
st ationary
st udents
Ġth ym
im ab
im ited
im porter
ut um
ut able
lo b
lo proteinases
ĠC E
ĠC N
ĠC R
ĠC ir
ĠC RP
ĠC ollec
ĠC ircuit
ĠC CAAT
ĠC ertainly
ĠN uc
ĠN ature
ĠN IS
ĠN py
ĠN egative
us s
us ually
us cul
us ko
res ervoir
Ġst ably
Ġst oring
ur a
ur ring
ly zer
ell in
un iqu
un published
un likely
ĠO x
ĠO ffic
ĠO GT
ĠO rg
ĠO rig
ĠO range
ĠO tto
ĠI A
ĠI l
ĠI r
ĠI den
ĠI oannis
Ġis a
Ġis to
Ġis essential
Ġis available
Ġis robust
ĠS i
ĠS r
ĠS an
ĠS os
ĠS il
ĠS ol
ĠS AT
ĠS eed
ĠS cal
ĠS ource
ĠS ensitivity
ĠS TA
ĠS FA
ĠS IC
ĠS RO
ĠS DD
ĠS CI
ĠS MBF
ĠS ara
ĠS agAM
ĠS igma
ĠS terol
ĠS cores
ĠS ahin
ĠS witching
ĠS eventh
ĠS yStaR
ĠS ontag
ter ations
am y
am bivalent
am ina
the model
the ory
the dynamical
the terms
the numberof
Ġh it
Ġh am
Ġh id
Ġh ide
Ġh ist
Ġg el
Ġg ap
Ġg erm
Ġg sk
Ġg els
Ġg amma
Ġg eranyl
os p
os al
os ed
os ensitivity
uc tion
uc erk
Ġcon ï¬Ĥ
Ġcon ception
Ġcon densed
Ġcon gru
Ġcon jectures
ĠB re
ĠB en
ĠB ead
ĠB CR
ĠB arc
ĠB randon
ĠB ern
ĠB ernoulli
ĠB eyond
ĠB uss
il a
il t
il ient
ĠNO X
id ent
id ine
Ġpro c
Ġpro inflammatory
Ġpro ceed
Ġpro longed
ab i
ab el
ab und
ab str
Ġ= /
ot s
Ġal igned
Ġal levi
Ġex ceed
Ġex terior
Ġ1 21
Ġ1 23
ate ver
ol ating
ol tage
ol gi
Ġfor ces
Ġfor DNA
Ġfor SASP
ĠP M
ĠP am
ĠP rec
ĠP edi
ĠP lasm
ĠP ower
ĠP tc
ĠP RO
ĠP eter
ĠP lasmin
ĠP ROTOSOM
ĠP RSL
ĠP rincipal
ĠP TCH
ĠP ubMed
00 48
ĠM g
ĠM an
ĠM ating
ĠM MC
ĠM ey
ĠM IP
ĠM ax
ĠM SK
ĠM SA
ĠM SC
ĠM IF
ĠM kk
ĠM MPs
ĠM issing
ĠM aps
Ġas IL
Ġas mean
Ġas Âª
ĠE B
ĠE D
ĠE I
ĠE ug
ĠE MC
ĠE BP
ĠE mx
ĠE qs
ĠE NDOG
ĠE ctopic
ĠE lena
ce ive
Ġthat it
Ġthat are
if ug
ow l
Ġbe very
Ġbe have
Ġcell migration
tiv ations
tiv ari
tiv enormal
se x
se ed
se vere
se mi
se arched
Ġl d
Ġl s
Ġl w
Ġl in
Ġl if
Ġl end
Ġl ag
Ġl ae
Ġl TLR
Ġl ittle
Ġl amina
ver t
ver ting
ver ify
Ġac ell
Ġac omp
Ġac cor
Ġac cel
em ail
em odels
Ġ2 70
ĠF v
ĠF re
ĠF und
ĠF old
ĠF ocus
ĠF aults
ĠF ren
ĠF reiburg
ĠF TY
ĠF anconi
Ġby r
Ġby an
Ġby RT
Ġby Ruiz
um i
um eration
Ġare presented
Ġare gulatory
pres erved
Ġnetwork under
ran k
ran ovic
ĠThe ir
ĠThe rap
ĠThe model
ĠThe Cell
te asome
Ġwith different
op s
op ment
op posite
op recip
ir al
ir ud
ir relevance
tor ially
ts c
ts on
ad o
ad in
ad ult
ad ults
ad ish
ad emic
tic ancer
tic etop
tr ate
tr um
tr ies
tr ast
tr aining
ap an
ap plic
ap sh
ap amycin
ap ply
ity of
Ġor NEMO
Ġor inactive
Ġor preparation
up p
up ported
up ta
qu ir
qu ares
qu encour
and Y
and m
and em
and PI
and analysis
and progression
and RPS
Ġcomp u
Ġcomp ares
Ġcomp rise
Ġcan bed
ĠR at
ĠR it
ĠR os
ĠR ad
ĠR och
ĠR educ
ĠR obustness
per me
per spective
per forming
ri ti
ri al
ri tis
ri ke
rans lated
Ġwe observed
Ġv ac
Ġv ess
Ġv oltage
ĠD P
ĠD or
ĠD im
ĠD if
ĠD own
ĠD RE
ĠD ys
ĠD amage
ĠD neg
ĠD escription
ĠD PP
ĠD ashed
ĠD EG
ĠD avid
ĠD iseases
ĠD ependency
Ġres ides
Ġres ilient
pec ific
to a
to re
to on
to then
duc tive
ates t
Ġactiv atory
di verse
di vision
ĠG ap
ĠG ill
ĠG over
ĠG PC
ĠG ray
ĠG mb
ĠG ADD
ĠG AB
ĠG rant
ĠG erman
ĠG arcÃŃa
red escribed
red escription
Ġk N
Ġk e
Ġk lamt
Ġgen ital
Ġwh os
ati tis
th ing
th ioredoxin
th stage
ĠH ol
ĠH em
ĠH AK
ĠH ip
ĠH yper
ĠH TPase
ĠH ierarchical
ĠH uang
ĠH elminth
Ġ0 7
Ġ0 8
ch ondri
ch osen
ch almers
ase Low
ĠIn the
ĠIn fec
ĠIn ternal
ĠIn ducible
ĠIn fact
for ts
ess uch
ich io
ich ard
yp t
yp ically
cl u
vel en
Ġtrans port
Ġtrans mit
Ġtrans membrane
10 24
10 86
10 68
iz in
iz ability
ph ases
Ġinter f
Ġinter related
Ġinter play
Ġinter section
Ġinter connectivity
Ġinter ms
actor s
pro ach
pro lif
pro ducing
pro file
pro jects
Ġpath ology
oc tor
oc arcinoma
oc tave
ies t
Ġregul ato
Ġnot able
Ġnot be
Ġnot hing
of B
of p
of cell
of ErbB
of ones
Ġwas isolated
Ġwas assessed
logical ly
pl ax
pl ausible
Ġstate of
Ġstate ments
Ġcells in
our model
Ġde vel
Ġde gr
Ġde ï¬ģned
Ġap pli
Ġr T
Ġr d
Ġr k
Ġr on
Ġr apamycin
Ġsh ar
Ġsh if
Ġsh aring
Ġsh ares
unc ertain
Ġ3 49
ple y
low ed
Ġper mit
Ġper pend
ĠâĢ ¦
ĠâĢ ł
Ġdis till
Ġdis card
Ġdis mut
Ġdis covery
Ġdis covered
01 2
por adic
hen icol
ĠW es
ĠW est
ĠW ST
ĠW ash
ĠW ingless
ĠW orkshop
ĠW ortmannin
AT CC
AT TT
hib iting
Ġen ds
Ġen umeration
ex pon
ex amples
ex haus
ex clusively
Ġspec ulate
Ġspec iï¬ģed
Ġet he
Ġcy ano
âĢĻ )
âĢĻ =
Ġim age
Ġim plicit
Ġim aging
Ġim pli
Ġim perative
ĠL a
ĠL o
ĠL y
ĠL aus
ĠL igr
ĠL IG
ĠL eft
ĠL uo
ĠL apatinib
ĠL uca
ĠL imited
con t
con tained
con stant
con clude
con tinued
ber ger
ber tson
ĠBoolean function
gr af
13 3
13 9
The output
Ġanaly sing
Ġall ele
Ġ4 1
here in
out comes
Ġsimul ates
Ġsimul ta
under MEK
under theterms
Ġab ol
Ġab str
Ġab iological
ia k
ia o
cre ased
Ġ5 3
12 1
12 7
12 8
Ġpar am
Ġeach other
av a
av ailability
av ariety
Ġco arse
Ġco operative
Ġco elomic
Ġone ofthe
pos i
end er
11 48
11 73
Ġactivation of
Ġob st
Ġob ey
Ġunder s
bi j
bi as
tur ned
Ġad vances
rec or
rec tional
rec tifying
rec apit
rec ombineering
AP OBEC
Ġcom mercial
respon ders
Ġmet ab
Ġph armaceutical
ĠCD PK
Ġi p
Ġi and
Ġsignaling pathways
ign ing
tif ies
tif ique
Ġgene expression
tin c
tin in
tin ct
cell diï¬Ģerentiation
âĪ ¼
Ġbetween ness
ser adish
ust ka
Ġcor rec
Ġcor ne
Ġlo aded
ari as
ari ja
her lands
ĠJ osh
ĠJ ulio
ĠJ usko
ĠJ apan
ĠJ ava
mun e
In i
In formation
In stead
Ġro ute
ĠU s
ĠU se
ĠU MR
Ġsc ope
Ġsc aling
Ġsc ratch
Ġno isy
ech anisms
ech anistic
ĠWe b
IL K
IL IB
Ġlogical ly
Ġlogical rules
ï¬ģ les
Ġcomple teness
activ at
activ ations
activ ators
comp ar
comp ounds
comp iled
Ġass im
co oper
co ordin
co lysis
Ġun paired
Ġun affected
est ress
est ler
Ġsub tle
Ġsub strates
get s
CD PK
ss im
ip se
cer ol
ĠK M
ĠK in
ĠK le
ĠK ow
ĠK lem
ĠK Ã¼
ĠK ervizic
Ġind e
Ġind epen
ix imab
ix utum
Ġbut not
71 9
Ġdifferent ly
ox i
ox ygen
ox ylin
Ġ. (
Ġse a
Ġse gments
tern s
AS K
ff a
Ġhe ur
ag ar
ag ue
ag reed
ag ellin
hav ior
struc tions
struc tures
PL AT
Ġrel ax
velop m
CC CT
Ġy a
Ġy eas
model of
Ġthere ceptor
Ġdi ver
Ġstr at
Ġstr ing
Ġresults in
Ġtr ack
Ġtr aining
act ome
45 0
one ogenesis
Ġsingle infection
Ġpre feren
Ġpre liminary
Ġpre requis
ĠÎ ¸i
de ï¬ģned
Ġinitial ization
Ġinitial states
Ġinitial ised
Ġ7 3
Ġprocess or
20 4
sc i
sc ales
ond er
Ġcomplex ities
reat ening
Ġmore over
org er
Ġperturb ing
Ġ8 3
Ġ8 001
Ġinteraction graph
ĠCell Collective
ĠCell CycleArrest
0000 7
Ġ10 3
Ġ10 6
Ġ10 8
Ġform ulated
Ġform ulate
Ġexperimental data
rect al
Ġhigh number
Ġhigh lights
henot ypes
Ġed by
Ġaut ophosph
ist asis
ie f
ie ving
vers us
17 6
Ġsup plied
Ġsup ernat
Ġmay be
art ments
Ġover abundance
ĠComp eti
ĠComp lejidad
Ġchan nel
CR E
Ġel utri
Ġel even
Ġred escribing
Ġidentif ica
Ġidentif iable
Ġam ore
Ġam biguous
EGF or
19 7
19 90
19 94
omat ically
type attractor
nt on
nt rez
Ġimmun olog
Ġimmun ohisto
18 3
Ac ute
Ġmut a
Ġindic at
Ġindic ation
Ġdec imal
Ġdec oupled
be ginning
ins on
ize and
ĠAp parent
ĠSt andard
RB T
MC L
MC S
MC MC
MC PS
Th at
Th omas
Ġmolec u
Ġthan k
Ġthan ks
Ġconf igu
plement al
14 2
Ġpl an
Ġpl ated
ution al
Ġsign a
Ġsign ifies
ĠNF E
set of
Ġsyn chro
Ġthrough put
Ġneg lecting
Ġpresent e
Ġop inion
all adin
iter ations
Ġbec omp
Ġbec aus
ĠAl varez
âĢĻâĢĻ (
âĢĻâĢĻ :
sim m
sim ula
trans form
trans formation
trans fection
trans cript
trans differentiation
trans lation
trans forming
trans cripts
Ġx in
Ġx ini
Ġcycl ically
other s
ocy tic
ĠCC F
ĠCC ND
Ġsp ars
Ġsp arse
Ġ- |
can c
can onical
can bere
kn ow
Ã¾ ATPases
Ġincre ment
ĠPro ject
ĠPro vides
ĠPro gramme
ĠPro yec
Ġmat ches
Ġmat ching
Ġmat uration
Ġprob a
ĠCA s
ĠCA MP
ĠIFN B
ĠIFN GT
ĠAn a
ĠAn imal
RP M
ext ensively
ne ous
ne ighb
ne uro
Ġconnec tors
any of
ĠDNA dam
ĠX p
ĠX ij
til led
PA GE
Ġdown load
ĠEx tracellular
ĠEx press
ĠEx amples
pre ting
pre vious
path ogenic
path ogenesis
ÂĪ !
Ġcl us
mon oclonal
spec iï¬ģc
spec ifically
Ġag iven
Ġofthe DNA
Ġofthe IBD
Ġofthe system
Ġofthe most
over lap
och rom
sequ ential
ade off
inter act
inter active
inter play
inter leuk
Ġref inements
imal s
ĠModel s
Ġmulti plied
Ġmulti stability
Ġmulti ples
Ġmulti potent
aracter ization
Ġdes ired
Ġinvolved in
par adigm
par asites
par allel
stit utional
Ġindi vid
ĠMC MC
ĠMC PS
ink ler
ĠTo kyo
tal ia
99 999
oryl ating
âĪĴ ,
ci ated
Ġliter als
Ġcytok in
CY CL
Ġmin i
Ġmin ing
Ġoutput layer
aj ety
which are
which permits
Ġbas ically
Ġcle aves
medi ator
Ġline arly
CL Ps
ĠAc tive
ĠAc ute
urv ive
ĠâĢĺ #
ĠâĢĺ -
UC ED
construc t
ogen ous
Ġcorresponding ly
ĠCon tinued
42 5
CS R
CS IF
MP T
Ġbin omial
Ġdep th
Ġdep olar
ĠY e
ĠY hp
ĠY EP
SK I
Ġfr actions
TE L
rel ating
ĠGen omes
ĠGen erally
Ġï¬ģ cation
Ġï¬ģ eld
present ation
lic ense
IN TE
IN TRODUCTION
Ġcharacter izes
Ġintegr a
function ally
othe d
Ġhere by
Ġhere after
Ġparamet ric
biom arkers
biom odels
Ġsequ es
MT H
ÂĨ ÂĨ&
Activ ated
ob ia
ob last
ob lots
ĠTNF Î±
PC NA
ĠkB e
Ġox i
Ġcur ated
Ġdepend ence
dis orders
ef ault
Ġj X
Ġmetabol ically
29 8
29 4002
ĠZ inov
pe iti
ĠMed ia
ET S
erg ic
erg istic
Ġsecond s
graph ml
lymph oid
lymph ocyte
lymph oma
bio informatics
ov a
ov ico
Ġoc cas
43 529
bl r
Ġdoes not
Ġidentify the
ĠCy clic
ĠCy toscape
Ġphosphoryl ating
St ation
St able
St arting
59 4
Ġtop ic
ĠCl in
ĠCl ara
EC Micro
fl ora
Ġoccur rences
27 3
BD D
man uel
000 23
Ġmit o
Ġend node
Ġprom pt
ĠCDK N
eu tical
ĠRe veals
node is
Ġdefined by
no vel
analy z
analy sed
row n
row ing
Ġbl unt
inv asive
Ġosc il
ĠPA G
ĠPA X
Ġman ual
ĠAt PP
Ġcontr adict
iqu ots
Ġcondition al
ĠâĢĺâĢĺ !
met astatic
Ġprim ing
Ġoscill a
Ġoscill ated
Ġoff in
Ġoff old
Ġinthe ir
Ġinthe expression
Ġinthe literature
Ġabs orb
Ġrandom ized
signaling network
Ġlymph oblastic
Ġcol i
Ġcol la
Ġins pi
arm ingen
TI FF
tw een
Ġ0000 01
Ġ0000 001
Ġser ved
56 4
ĠBio conductor
ĠBio Lay
Co herence
Con tin
Con sequently
Con tinued
iel ding
Ġsimpl iï¬ģcation
iss barth
Ġgu id
Ġgu anyl
ĠÎ³ e
mit ogen
mit otic
mit ochondrial
ra ham
Ġprog res
PI K
reg ions
Ġcar box
where in
ĠCY CS
ĠCY CE
ĠOn the
Ġext ens
Ġexpl ains
ĠRec on
ĠRec ru
ĠRec overs
ĠRec herche
ofthe node
ij TrcybHed
ij Swnreclbtluu
infl ammation
Ġbel ieved
Ġbel ief
phosph orylating
Ã° a
ev a
ev in
ĠCh ar
ĠCh asapi
ĠUn known
Ã© tica
Ã© rieure
Ġ+ âĪĴ
Ġpart ly
ĠPKC th
Ġunc oupling
Ġtes tosterone
output s
output sequence
Cell ML
card inality
line with
system atic
system atically
Ġsufficient ly
Ap optosome
Ar p
Ar abidopsis
Cy tokines
Cy tC
Cy toskeleton
Cy toscape
Ġtest es
vi ation
vi athe
ĠmiR NA
Pro gram
Pro teins
Pro MoT
ah ashi
ct gf
Ġoper ating
ĠRes ult
PK N
Ġep istasis
Ġsto ichiomet
Ġtri al
Ġcheck s
Ġ100 5741
Ġfac ed
ĠAr p
Ġmicroenvironment al
Network s
Ġsol ver
Ġsumm atory
Ġprop en
Ġprop ria
Ġarticle Abstract
DE F
DE G
DE P
Ġ50 2
FC min
ty rosine
Ġbiochemical regulation
lastic ity
Ġdat ac
ĠPC NA
opo logical
neg ated
neg atively
ng agement
Ġrelationships between
Ġ19 69
TA O
Ġ00 10
Ġ00 01
Ġmal es
Ġmal ig
Ġshort ly
An y
An notation
An nexin
ai red
ĠCi udad
ĠCi encia
Ġ17 45
Ġformal ized
Ġdetermin ants
IF NA
IF NAR
Dep ending
Ġpop ula
Ġprec eding
Ġdiff e
Ġdiff ered
Ġdiff ering
Ġloc ate
echn ol
Ch aracterization
âĢĿ ,
Ġlike IL
Ġlike wise
Ġ25 00
Ġkinetic parameters
Ġheter ozygous
Ġheter ologous
Ġdiï¬Ģeren ti
Ġplay er
Ġplay ed
Comp ared
anti bodies
Ġgran ulocyte
through out
CM s
cap able
effec tor
effec tively
Ġreac ts
Ġacco unted
AC GG
AC TIV
Ġpost ulate
Ġpost translational
Ġprior ity
Ġexpos ed
umer ical
Ġdegrad a
ĠWhen ever
Ġevol ving
ĠPLC G
GT T
hom ogeneous
Ġef ï¬ģciency
Sup eroxide
ras grp
ĠInter mediate
acy cl
dep ict
dep osited
dep leted
Ġmo tivated
ĠTr aining
ĠFA CS
tributed undertheterms
EN t
EN CES
ÃĹ /
indi vidually
Ġread ability
appro ved
appro xim
ĠHere in
verex pression
Ġhand led
Ġhand ful
39 7
Ex tension
micro biome
Ġir relevance
Ġir regularly
inthe network
Ġfib roblast
sto ichiometric
loc ated
JAK i
col or
tane ous
Ġdiv ide
Ġexplo sion
Ġ199 2
Ġ199 4
ĠDis trito
)~ (
bal ance
mod ulation
mod ulating
mod erately
main tained
sp ent
sor tium
when ever
Ġoverex pressing
ĠEn put
ĠEn terococ
ĠEn zalutamide
off aults
Ġlocal isation
47 9
mat al
mat ched
Ġpe er
Ġbet a
ymmet ry
integr ate
integr ating
integr ins
Ġmon ths
Ġmon itored
Ġoptim ization
Ġoptim ist
Ġdesign ated
Sim plified
ÎĶ grr
Ġcons ti
Ġcons ol
Ġcons uming
Ġcons ump
Ġcalc ulation
determ ines
determ ining
89 4
Ġsust ains
lex periments
ĠSpec ific
Ġgreat ly
BC ATENIN
Ġpo or
ading s
Ġstrateg ic
Fox O
Fox c
cum in
ĠMÃ© ndez
provid ing
Ġendocy tic
At f
At tribution
Gen erating
Supplementary Table
gu ard
gu ably
mark er
Ġbi otinylated
Ġbi osyn
ĠTrans differentiation
ĠTrans lation
Ġcolo uring
Ġcolo rectal
valu able
Aut Ã³noma
tum ours
Ġacid s
Ġcolon ies
Ġcolon ization
Ġcolon isation
Ġorgan ize
Department of
06 43529
mech anistic
Ġsepar ated
Ġsepar ates
enesc en
Ġbound s
Ġbound aries
ĠCo hen
current ly
group ed
Ġvisual isation
po orly
Ġconcer t
Ġcompartment al
Ġcompartment alization
Ġendo red
Ġaddress ing
Re al
des pite
inc ethe
inc ubation
ĠRab aptin
functional ity
stimulation inthe
fault locations
long itudinal
Ġhemat opoiesis
Ġhemat oxylin
Ġchem otherapy
Ġchem iluminescence
ĠMicro biology
ĠMicro bial
quan tified
ĠDep ending
ativ estress
Ġpathogen ic
Ġfacilit ated
BN M
De g
En terobacteriaceae
En zalutamide
sign ature
sign iï¬ģcance
atec ell
Ġderegul ation
Ġprote ases
Ġprote asomal
Ġlearn ed
ĠWith in
conver ge
conver ging
constrain t
Ġexplain ing
Ġexplain able
LM E
prom ote
prom otes
prom ising
orrespon d
ĠSch rettl
ĠSch izosaccharomyces
Ġvi athe
Ġenh ancers
Here in
Ã³ gica
Ġaim ing
Ġcre ates
Ġcre ating
ĠTA X
ĠTA IR
ĠMy D
Ġpersis ts
Ġimplic ation
Ġneighb or
Ġneighb ors
ĠSOD s
University of
bre akdown
bit stream
Ġillustr ating
ĠPer turbation
ĠPath ak
ĠPath ology
Ġaspec t
Ġaspec ies
organ ized
Ġguarante ed
ES IS
IM K
cir cuits
junc tive
ĠStr asse
ĠDes igner
exp and
exp ansion
exp anded
Ġoverlap ping
lm endoza
ĠCol lombet
ĠOpen ing
Cyclin D
Analy zing
On ly
On co
az e
eas y
hyper arcs
sth is
ĠSup port
ĠSup Ã©rieure
ĠData Rail
Ġeng aging
Ġens ures
1100 54
1100 55
paren right
Ã³n omade
dh a
mem ory
ellow ship
Ġfi is
Ġmim icking
ĠAb ove
Ġhh and
Ġdistinguis hed
ĠCells were
Ġplatform s
ĠActiv ated
ĠActiv ating
behavior s
link ing
nas al
ĠâĪ ¼
rem ained
Ġretur ning
important ly
ĠSB GN
Ġconversion s
Ġ00000 10
Ġfix ation
Ġbal anced
ĠIN SERM
Ġaccum ulate
ĠRIP A
ĠRIP K
Ġassay ed
Ġpreser ved
ĠImmun oblots
bu ilt
cel ia
Ġast erisk
repro duced
ĠSecond ly
ĠMit ogen
ĠMit otic
ĠFas T
oper ate
ĠPhys iological
Ġincidence matrix
Ġide al
Ġtod etermine
ĠAss hown
eth is
Ġna ive
access ible
ĠSp indleCP
ĠParis Tech
Ġlength s
ĠFC ER
opos sible
ĠLe al
times tep
Ġlook ed
Ad ap
Ġos ph
Ġos molarity
Ġclos est
left big
Ġmul tif
Ġmul titude
among st
Ġla id
simpl est
simpl ification
hypothe tical
Ġrecru it
Col or
ERA B
Spec ial
Spec ifically
Spec iï¬ģcally
sol ution
Ġsens ors
Ġfore ign
unrestricted use
ĠRed Ac
ĠInhib itor
occur s
Ġspeciï¬ģc ally
ĠVal idation
Ġtra versed
ĠÎ¼ L
transduction network
literature knowledge
ubiquit in
Fas L
sum ing
sugges ts
Ġsqu alene
Ġofa gene
Ġofa NEMO
Ġtobe altered
ĠIns ig
ĠIns PK
assess ment
Is l
box es
lab eled
ĠÃ ģlvarez
Ġseed ed
Ġcategor ized
estim ation
ish ing
Ġpi ece
Ġmorph ogenic
ĠAg Ab
star ts
Ġextrac ts
Ġextrac ellu
APC s
Ins P
Inter pretation
Ġquanti ï¬ģed
combined EGFand
++ +
SH C
Ġsatis fy
Ġofp atients
Ġbran ch
arb itrary
Ġrepe at
ĠIKB KE
ĠBe am
ĠBe fore
ĠBe havior
ĠPl us
ĠPl ants
ĠMat lab
Ġdefec tive
overex pres
obser ve
ĠQu ine
IkB a
Sp ring
Trans lating
Un ited
major ity
Ã¼ ssel
ÆĴ n
ËĨ Î
ËĨ Î³
ĠÃ¾ CD
Ġï¬Ĥ uctu
Ġtend s
Ġtend ency
Ġsigmoid al
err or
orb idity
Ġinte gers
Ġpy ro
stochastic logic
ĠCar a
ĠOr tiz
ĠSub mission
amp ered
amp henicol
Ġgre atest
Ġconven tions
Ġprot ection
Ġprot ects
ĠIni tiation
0123 40
ĠLIH s
âĪĳ âĪĳ
Ġassign ing
Ġemer ges
Ġcontradic ts
Ġcontradic tions
ĠUnder standing
SAgF j
antigen s
Ġhomolog ue
EP N
EP R
cis es
pop ulations
part ners
Ã¶ b
Ġinfec ting
Ġpass ive
ĠAICD A
Ġexec uted
ĠMar ques
ĠFr Ã¶
appe ars
Ġorchestr ation
Ġorchestr ate
phys ical
Ġphag ocytes
ĠProcess ing
Ġmanip ulations
Ġmanip ulated
Ġcataly tic
Ġintestin ihominis
Bl ack
CHK REC
He alth
Ġund irected
ref erence
Ġtheore tic
Ġrect angle
local ized
ĠPredic tions
ĠPredic ting
ĠEL ISA
ĠEd ges
ĠKit ano
Ġeluc idated
interpre t
interpre tation
Ġcirc ular
ophil in
Regul ator
Ġcounter act
Ġcounter part
Ag ilent
Bo erries
CN R
CN RS
Ig A
IND UCED
syn thes
summ arizes
uores cence
vitro gen
read outs
Ġinoc ulum
Ġinï¬Ĥ ammation
Ġphe romone
Ġpic torially
Ġfre edom
Ġfall s
ĠSE LL
ĠSE ED
otin amide
Ġlip ids
Ġlip opolysaccharide
uregul ins
ĠDet ails
valid ation
RAN TES
Ġspur i
Ġjus tification
Ġjus tiï¬ģed
Ġchalleng ed
Guti Ã©r
Le ukem
Sch latter
cr ucial
collec tion
collec tively
iï¬ģ er
iï¬ģ es
onad al
Ġpip eline
stabil ized
Ġcanal iza
ĠHyp othetical
Ġtransform ations
expl ain
contrib uting
Ġcoinc ide
Ġscal ed
Ġscal ability
Ġampl ification
Ġremark s
Ġ&( Â¬
Ġorigin ates
Ġfeas ibility
Ġbuff ered
general ized
ï£¬ï£¬ï£¬ï£¬ ï£¬ï£¬ï£¬ï£¬
casc ade
ĠÃĤ etal
sideroph ores
TxfHed upZ
TxfHed uell
aRg wTPM
gover ning
Â¤ ,
Ġ? (
Ġcave at
Ġfav or
Ġfav our
Ġduplic ated
ĠCL N
ĠCP U
urs ors
ĠSCC s
abnormal ities
Ġexpec tation
Ġattain ment
Ġtransloc ate
Ġtransloc ated
Ġinterrup t
Ġdevi ate
computation ally
phosphat ases
ĠPhosph o
reproduction inan
Man ual
NP Y
SY S
Sub sequently
SCC s
check point
gran ts
gran ular
lat ticetop
net te
vir ginia
heter odimers
Ġbenef its
Ġren der
Ġren dering
ĠBuff ie
ĠBuff alo
ĠMacro phages
gebra ic
ĠDef ense
Ġkill er
chall eng
ĠWild card
129 18
129 76
cycl ins
Ġmicroen viron
ĠStat ins
ĠStat istically
Ġopportun istic
otherap eutic
Ġclar ity
Ġemphas izes
Ġhyph al
Ġcollabor ators
Ġdirectional ity
Ġpolym orphisms
Mexico City
223 2013
My D
aud ine
hour y
sent ed
investig ate
real time
reach ing
Ġsatur ating
Ġcare fully
Ġfa ith
Ġmess enger
Ġmess engers
Ġmove ment
ĠCom munity
ĠNP YY
resent ing
Ġbyp ass
ĠDo uble
ĠDij kman
Ġ02 138
pharmac ological
pharmac odynamic
plcg b
Ġdisjunc tivenormal
count ered
Ġarg ument
ĠExt ended
Ġagg ressive
ĠConnec tivity
ĠConnec ticut
Ġï¬ģnal ly
Ġtermin ating
Ġtermin ology
ĠReg arding
Ġcarry ing
capture d
Ġfulfill s
Ġfluores cence
ĠSwed ish
ĠÎ³Î³Î³Î³ perturbation
Graph ical
HRG stimulationinthe
HSPC s
Mar ÃŃa
Val ues
effic acy
fib re
figur ation
gap a
Ġign ored
incorpor ate
incorpor ated
remo val
Ġthea im
Ġthea forementioned
Ġsen es
Ġsen ior
Ġsaf er
Ġsensi tise
Ġcul tivations
Ġintr icacy
Ġpa ucity
Ġpr une
Ġpolic ies
itat if
Ġfil tering
ĠAM H
Ġeï¬Ģ ect
ĠSchem a
ĠSchem ata
Ġhisto gram
ĠBel g
idi rectional
ĠPos itive
Ġasperg illus
umb ered
advant ages
trajector ies
ĠRA W
Ġattr active
Ġattr actions
ĠWhere as
ĠLin coln
ĠLaure nt
ĠLaure nce
strateg ies
timesc ale
Ġunam biguously
Ġmicrosc opy
Ġimmunocomp romised
ĠAnn exin
neutroph il
pathogen s
Ġdepri ved
Ġdepri vation
Ã°t Ã¾
Ġmalign ancy
Ġmalign ancies
Ġdiag nosis
Ġflip ped
Ġsuscepti ble
Ġsteadyst ates
CIA t
Iden tification
Nod ev
Path ways
TH ESIS
ba A
benef icial
tod etermine
Ġut sthat
Ġesc ap
Ġesc ape
ĠaRg wTPM
ĠaRg SagAMZ
Ġwarran ted
Ġbenchmark ing
Ġnetw o
ĠNet herlands
ĠStein way
Ġhin ts
Ġhin ted
Ġgly colysis
ĠBal bas
Ġalgebra ic
Ġasym ptomatic
Ġasym pto
ĠFac ility
Ġvulner able
ĠDeterm ination
ĠGri eb
ĠGri eco
cho ice
Ġdeï¬ģ ne
Ġperoxid ase
Ġperoxid ases
Ġcoordin ate
Ġadop t
Ġadop ted
clear ance
Ġground ed
Ġhead er
Ġsuper ox
ĠProgram a
Ġfrag ments
Ġsuff i
Ġsuff ix
ĠÂµ M
ĠClust er
manip ulated
Anion EM
Anion Ch
tcrb Ã¾
homolog ues
Ġworld wide
bracket rightbig
bracket leftbig
polym orphisms
Reg arding
Ġconvenient ly
braceleft big
Ġneutral ized
Ġoligon ucleotide
Ġoligon ucleotides
Amer ican
Budding CP
Eis ner
Not ably
Ste ffen
Uni Prot
Zh ang
fe atures
fin dings
firm ed
mammal ian
numer ically
norm s
pan el
secre ted
Ġur inary
intro duced
heat map
Ġsn apsh
Ġintrac el
Ġpen icillin
Ġpseud o
Ġmes oderm
asc ular
Ġrecombin ant
Ġrecycl ing
accum ulation
Ġtox in
ĠTw ist
ecomp onents
Ġthorough ly
ĠCor cos
ĠCON TIN
amo unt
ĠBurk ovski
Ġexcre tion
Ġ10000 00
ĠPet ri
ĠMolec ule
Ġask ed
ĠEq n
ĠFlux Analyzer
Ġbyany one
tri ple
ĠRoc he
ĠGr x
clam ping
propor tion
Ġleth al
reco very
rapid ly
Ġindis pensable
necess arily
Ġconflic t
particip ate
LRO Z
Ġsuffic es
CellNet Optimizer
Ġproteoly tic
Fragment ation
prostatecancers ignaling
braceright big
Ġbrid ge
discrep ancies
phenomen on
141117 0000
Frequ ency
Lud wig
MAT ERIALS
Pelay o
Symbol s
Sequ ence
SYN THESIS
betw e
fail ure
freec ircuit
nol Ã³gica
sens ing
replic ates
Ġcos timulatory
esim ulated
Ġincon clusive
Ġinthism odel
Ġpas sed
Ġfill ed
Ġmarg inal
Ġdin ucleotide
ĠAz peiti
assemb led
Ġreper toire
Ġreï¬Ĥ ects
ĠTor res
ĠCub e
ĠCaus ing
ĠCho osing
ĠCamp us
ĠOe velen
ĠSto ck
theoutput ofthe
ĠBass ler
ĠMart inez
ĠEco logÃŃa
Ġacom mercial
ĠRa za
ĠRod rÃŃguez
Ġves icles
Ġrespir ation
Ġ045 10
0134 214
Ġenerg y
explo re
ĠLike wise
ĠLars on
Ġneop las
periment ally
Ġunderl ining
Ġadmin is
cellul ose
Infl ammatory
ĠKing dom
corticoster oids
Ġtrac hea
Ġpreval ence
Ġsuperior ity
Ġsynd rome
Ġsynonym ous
canbes een
ĠExam ining
peu tic
meas ures
influ encing
Anti body
Ġapprec i
Ġmoti le
substan tial
TPkjPGN jSLP
TPkjSLP jPGN
ĠPlan ck
Ġcardio genic
ï£¸ï£·ï£· +ï£«
plasm id
Knock o
breastcancer celllines
RPPAdatafor AKT
Ġhallmark s
Ġplurip otent
GFANBM Z
PRFOtF Z
Ack nowled
Kafter combinedEGFand
Kna uer
MED ICAL
Mullenbrock etal
Nik on
Osc ill
Pit a
Pos itive
Sanc hez
Sideroph ore
Screensh ot
TMP RSS
Trac hea
UOU S
Verm eul
Where as
Yp red
dbi osciences
haz al
kel etal
kov itz
lor amphenicol
live ira
poster ior
rham nose
sËĩ Helikar
tmy bA
uor ide
vij ovic
wena el
zhe imer
reon ine
onucle ase
Ġthepossib ility
Ġsour cen
Ġsmol dering
Ġmarb les
arcom a
Ġrenew ed
Ġtounder stand
sthem selves
ĠCRP C
ĠOffic e
ĠOrg an
ĠSDD S
ĠSCI ENCES
ĠSagAM j
Ġhid den
Ġcongru ent
ĠBarc elona
ĠBern ard
ĠMey er
tivari ate
ĠFren ch
ĠTherap eutic
oprecip itation
irud dha
quencour t
ĠRoch a
perme able
Ġvess els
ĠGmb H
Ġgenital ia
plax tinin
Ġperpend icular
ĠWash ington
exhaus tive
Ġcyano amino
ĠLaus anne
Ġcorne a
ĠJosh ua
ĠKlem ke
ĠKÃ¼ hl
ixutum umab
Ġyeas ts
Ġprerequis ite
Ġsupernat ant
Ġelutri ation
Ġimmunolog ists
ĠApparent ly
ĠProyec tos
whichpermits unrestricteduse
oblast oma
ĠZinov yev
ECMicro env
Ġabsorb ing
Ġcolla gen
Ġcarbox ylase
ĠRecru ited
tributedundertheterms ofthe
Ġconsump tion
GutiÃ©r rez
reproductioninan ymedium
Ġsnapsh ot
ĠCONTIN UOUS
Ludwig s
ĠAzpeiti a
KaftercombinedEGFand HRGstimulationinthe
Vermeul en
! âĢĿ
" /
# ,
# .
% ;
& ,
) ?
) {
) ġ
) ].
) âĢĵ
) ],
) ):
) ^:
* )
* -
* =
* Â§
+ .
+ âĪĴ
+ ([
, [
, ^
, Â
, âĢĻâĢĻ
, âĪĴ
, âĢĿ
, âĢł,
, âĢ¡,
, ...
- .
- [
- ),
. ),
/ #
0 4
0 9
0 45
0 20
0 23
0 70
0 30
0 35
0 97
1 45
1 53
2 50
2 46
3 71
3 70
4 12
4 20
4 99
5 56
6 63
6 76
7 45
7 59
8 11
8 45
8 20
8 70
8 51
8 79
8 197
9 20
9 28
9 63
9 47
9 101
9 102
9 132
: {
; :
; âĢ¦
= âĪĴ
= ï£«
A I
A V
A ce
A CS
A RF
A mit
A Ãŀ
A ugust
A lex
A BC
A IC
B Y
B s
B en
B ot
B ase
B AK
B est
B SA
B ool
B lock
B catenin
B esides
B GP
B riefly
B urk
B upregulation
B erlin
C V
C Z
C p
C r
C t
C ac
C am
C ach
C of
C ave
C aus
C all
C old
C TGF
C ollec
C cells
C ON
C sk
C entral
C OX
C It
C GG
C arma
C ombin
C bp
C ERAMIDE
C lostridium
C haves
C ollection
C RKL
C rohn
C entro
C ixutumumab
D x
D z
D IS
D CS
D MT
D SB
D IC
D CI
D GK
D omain
D upregulation
D raw
D edication
D igital
D ependency
D atta
D acl
E U
E g
E q
E AT
E ffec
E arly
E xt
E RT
E ngineering
E ngagement
F G
F R
F er
F is
F GF
F ex
F BA
F min
F BP
F Ã°
F HF
F rontiersin
F ern
F max
F RS
F orexample
F ollowing
F ront
F YV
G r
G u
G as
G ran
G ap
G RK
G PC
G arc
G CT
G go
G ai
G GT
G CK
G lobal
G MPs
G ads
G AB
G raf
G Ã¶
G rr
G ZMB
G uer
G raduate
G eor
G upta
H L
H V
H h
H or
H ow
H and
H ep
H ome
H Ã¾
H yper
H uman
H ans
H ER
H sp
H eyde
H TRA
H enjes
H arbor
H ohmann
I as
I GFR
I expression
I DP
I Ã±
I TED
I yengar
J und
J ao
J ulio
K M
K c
K NO
K arm
K signalling
K auffman
K onom
K lose
L B
L i
L in
L ink
L ower
L CK
L aw
L ED
L ean
L td
L iu
L apatinib
L uca
L aborator
L IX
M er
M ol
M ill
M ines
M art
M arch
M IP
M SK
M ajor
M EN
M transition
M alt
M agdeburg
M DH
M ATLAB
M assachusetts
M SCs
M DF
M utualism
M ayan
M aterial
M elanie
N or
N uc
N IR
N eu
N ebraska
N ew
N evertheless
N ecess
N TIF
N tL
N umerical
O w
O ag
O ct
P R
P f
P an
P PI
P DE
P ublic
P BN
P RAS
P RO
P atient
P BS
P NAS
P resent
P DPK
P ump
P earson
P TCH
P ubMed
P BNs
Q L
Q i
R p
R AP
R educed
R CN
R UNX
R SPO
R HEB
R ichard
S a
S o
S ic
S ter
S tor
S ignal
S ep
S oc
S ystem
S ex
S APK
S ink
S FF
S TP
S upplement
S IN
S ek
S ynchronous
S ource
S econd
S ato
S anta
S ignificant
S pleen
S ahin
S eedSet
S ULTS
S WI
T L
T X
T p
T ro
T ec
T ur
T ab
T pl
T ype
T RN
T oma
T echnology
T rad
T alin
T raf
T echnologies
T aken
T umor
T rkA
T esting
T emsirolimus
T opological
U Z
U l
U u
U st
U TAT
U MR
V f
V im
V io
V RE
V ER
V inc
V IM
V audry
W ork
W hether
W iki
W inkler
W LED
X j
X t
X max
X WH
Y S
Y am
Y OR
Y LR
Z X
Z fp
a el
a et
a way
a ï¬Ģ
a ux
a round
a reco
b R
b o
b en
b em
b ated
b and
b yn
b yp
b org
b Ãŀ
b uck
b ands
b ench
b rief
b usch
b enchmark
b dbiosciences
c A
c I
c m
c ate
c ere
c ates
c th
c ant
c ue
c oin
c ance
c ines
c can
c cording
c DNA
c sk
c ifically
c iting
c ethe
c rosstalk
c FLIP
c antly
c oscillations
c ADPR
c blb
d f
d ation
d ant
d ative
d ist
d iter
d ise
d ancy
d itr
d escribe
d endritic
d depn
d ecreased
d urations
d gk
e ur
e ab
e ase
e vid
e ak
e asure
e ï¬Ģ
e gment
e arl
e andT
f re
f ic
f us
f ur
f os
f red
f eed
f ive
f all
f gene
f ication
f ores
f requ
f unders
f reiburg
f ixing
f trA
f rias
g al
g ith
g ow
g ates
g of
g ered
g sk
g nos
g rant
g iving
g Ã¼
g aps
g ements
g amma
g alactose
g ardless
g ressive
g Nb
h at
h al
h of
h ome
h yl
h its
h that
h ould
h old
h arm
h ai
h aring
h alf
h ubs
h olistic
h arvested
h ybrid
h ydrogen
h mmp
h incubation
i H
i very
i ect
i tide
j e
j et
j ac
j IL
j ector
j TPk
j SrcybHed
j oint
j iï¬ģ
j pet
k ing
k ab
k ine
k Ã»
k hr
l od
l per
l ates
l ip
l ins
l ung
l TLR
l ittle
l anguage
l quist
l celllines
l agellin
m R
m k
m im
m ab
m tor
m atory
m ind
m ond
m art
m inal
m Boolean
m ob
m erg
m ately
m irB
m elan
m yeloma
m ortality
m oment
n D
n c
n m
n es
n ent
n ate
n ations
n ary
n ever
n ance
n ism
n owledge
n ull
n ns
n igm
n omen
n HH
n oring
n cies
n aturally
n stein
n Xu
o on
o es
o is
o lo
o ap
o be
o ka
o strong
o fect
o ÃĪ
o anne
o oxygen
p g
p u
p he
p it
p om
p us
p ure
p ted
p ess
p ak
p ten
p ass
p ace
p ensity
p JNK
p atial
p rac
p kb
p ounds
p olic
p Ã¤
p icillin
p eptides
p KTS
p api
p ools
p rincipal
p apit
p IkBa
p df
p jSrcybHed
r R
r it
r ates
r yl
r ide
r der
r ics
r astuzumab
r lotinib
r lig
r actory
r ifug
s d
s il
s ure
s ole
s ch
s ug
s of
s ence
s ue
s ie
s cript
s ica
s onal
s witch
s light
s ili
s ecting
s enescent
s lowly
s quares
s mart
t ar
t te
t ad
t ations
t able
t ting
t ome
t ens
t act
t one
t reat
t ax
t ys
t xt
t oma
t uate
t ask
t oward
t ails
t echnical
t asks
t ached
u ation
u ates
u ild
u ities
u ences
u fac
u itable
u jiï¬ģ
v in
v as
v im
v ast
v ability
v ival
v any
v ice
v asive
v ices
v ille
v onder
w i
w es
w is
w ab
w ered
w ik
w all
w gt
w tis
x a
x pl
x cel
x enarios
y a
y i
y k
y ed
y the
y cled
y oda
y ielding
z ig
z gÃ¼
{ -
| ,
} }
} ).
° ï£¯
Â ¨
Â ¶
Î µ
Î ¹
Ï Ħ
â Ħ
Ġ @
Ġ ic
Ġ ig
Ġ ND
Ġ um
Ġ ical
Ġ io
Ġ yp
Ġ ies
Ġ .,
Ġ ers
Ġ ill
Ġ her
Ġ yl
Ġ ï¬Ĥux
Ġ âĪĪ
Ġ ËĨ
Ġ ulatory
Ġ Å¡
ĸ zgÃ¼
Ġt x
Ġt y
Ġt is
Ġt el
Ġt ing
Ġt ent
Ġt ly
Ġt ain
Ġt for
Ġt iv
Ġt ors
Ġt all
Ġt work
Ġt ailored
Ġt etr
in A
in ig
in tr
in ates
in ance
in formed
in umab
in activated
in line
in stant
in activity
in side
in versely
in arization
in men
in Blood
in CRPC
in berger
in nate
Ġa is
Ġa to
Ġa Table
Ġa resh
Ġa value
Ġa NEMO
Ġa stable
Ġa key
Ġa CYCD
Ġa strong
Ġa RBR
Ġa KRP
Ġa hypergraph
Ġa lysis
Ġa hierarchical
he b
he tic
re i
re w
re per
re pl
re str
re tain
re ven
re active
re ducing
re ng
re tortaeformis
re verse
re fr
re ducible
re viously
re plication
re versibility
re infor
re ductive
on y
on or
on op
on nec
on ically
on uclear
on sidered
at tr
at ase
at rb
at oid
at their
at otal
at tack
at idic
Ġ( !
Ġ( "
Ġ( #
Ġ( (
Ġ( /
Ġ( |
Ġ( âĪĴ
Ġthe G
Ġthe Th
Ġthe set
Ġthe other
Ġthe level
Ġthe signal
Ġthe state
Ġthe high
Ġthe known
Ġthe node
Ġthe IBD
Ġthe time
Ġthe perturb
Ġthe MAPK
Ġthe models
Ġthe wild
Ġthe interaction
Ġthe components
Ġthe single
Ġthe corresponding
Ġthe organ
Ġthe qualitative
Ġthe threshold
Ġthe simulation
Ġthe predicted
Ġthe fact
Ġthe dynamic
Ġthe Cre
Ġthe source
Ġthe potential
Ġthe small
Ġthe power
Ġthe last
Ġthe phosphorylation
Ġthe proposed
Ġthe simulated
Ġthe respective
Ġthe role
Ġthe structure
Ġthe local
Ġthe upstream
Ġthe influence
Ġthe robustness
Ġthe absence
Ġthe extracellular
Ġthe terms
Ġthe computation
Ġthe lys
Ġthe authors
Ġthe overexpression
Ġthe cases
Ġthe kinetics
Ġthe context
Ġthe integration
Ġthe DDR
Ġthe emergence
Ġthe detrimental
Ġthe quantification
Ġthe trajectory
Ġthe past
Ġthe beginning
Ġthe simplest
Ġo a
Ġo e
Ġo u
Ġo w
Ġo ro
Ġo ve
Ġo mit
Ġo ld
Ġo reven
Ġs f
Ġs g
Ġs m
Ġs y
Ġs ing
Ġs ul
Ġs cre
Ġs ever
Ġs tif
Ġs ym
Ġs we
Ġs ides
Ġs onic
Ġs poradic
Ġs incethe
er ts
er ge
er ase
er ance
er ive
er ner
er odimers
er odimer
er family
er atitis
ti e
ti tions
ti to
ti ates
ti ple
en o
en on
en al
en is
en ec
en ol
en io
en way
en comp
en umer
en oted
en tities
en riched
en dium
or p
or x
or al
or the
or ts
or dium
or relation
al a
al ic
al ent
al un
al istic
al ks
al anine
al gebraic
Ġc n
Ġc ed
Ġc es
Ġc it
Ġc ec
Ġc op
Ġc of
Ġc ata
Ġc ue
Ġc ame
Ġc ros
Ġc enter
Ġc oded
Ġc PARP
Ġc ccA
Ġc Cbl
Ġc GMP
Ġc itations
Ġc rops
Ġc blb
Ġc eutical
ed ata
es tion
es ity
es crip
es igned
es ions
Ġin str
Ġin com
Ġin Fig
Ġin cur
Ġin cu
Ġin comple
Ġin activity
Ġin addition
Ġin verse
Ġin experimental
Ġin order
Ġin gre
Ġin ducible
Ġin RIP
Ġin struction
Ġin quantitative
Ġin several
Ġin asynchronous
Ġin MDFs
Ġin wildtype
Ġin murine
Ġin percent
Ġin wet
Ġin quir
Ġin pg
Ġof Y
Ġof ap
Ġof logical
Ġof EGFR
Ġof model
Ġof action
Ġof Th
Ġof gene
Ġof signal
Ġof which
Ġof fer
Ġof CDK
Ġof PI
Ġof JNK
Ġof most
Ġof pathways
Ġof drug
Ġof anti
Ġof proteins
Ġof knock
Ġof NFkB
Ġof immune
Ġof two
Ġof NEMO
Ġof information
Ġof edges
Ġof non
Ġof damage
Ġof apoptosis
Ġof key
Ġof potential
Ġof metabolic
Ġof aging
Ġof new
Ġof Stress
Ġof ATM
Ġof every
Ġof TNFÎ±
Ġof kappa
Ġof ordinary
Ġof Medical
Ġof avariety
Ġof recombineering
Ġof Health
Ġof polymorphisms
Ġof secreted
an k
an in
an ation
an ical
an ap
an gul
an ch
an cep
an get
an ian
an anti
an tifying
an alog
an iak
an imals
is a
is ive
is available
is necessary
is apl
is properly
is utilized
is tributedunderthetermsofthe
Ġp ion
Ġp ec
Ġp us
Ġp ow
Ġp ole
Ġp ore
Ġp are
Ġp las
Ġp its
Ġp ten
Ġp pc
Ġp ink
Ġp ric
Ġp ores
Ġp ict
Ġp IKB
Ġp arent
Ġp eptides
Ġp eptide
Ġp aired
el lo
el oc
el ting
el ays
el man
el evation
el evated
el stein
Ġan ec
Ġan ym
Ġan ormal
Ġan active
Ġan integr
Ġan example
Ġan effect
Ġan increase
Ġan additional
Ġan ticip
Ġan aphase
Ġan ticancer
ro tic
ro vid
le ys
le ta
le vated
Ġw a
Ġw o
Ġw he
Ġw en
Ġw es
Ġw it
Ġw ase
Ġw iki
Ġw ished
it he
it on
it us
it ly
it am
it di
it ogen
it Ã¤
it canbeseen
ic z
ic te
ic tor
ic her
ic uous
ic antly
Ġf et
Ġf os
Ġf ab
Ġf ores
Ġf luc
Ġf use
Ġf ÆĴ
Ġf ederal
Ġf atal
Ġf rozen
Ġf ellowship
Ġf ËĨÎ³
Ġm L
Ġm k
Ġm ic
Ġm ar
Ġm il
Ġm ab
Ġm ole
Ġm ist
Ġm ores
Ġm Ab
Ġm mp
Ġm edical
Ġm orbidity
Ġm elting
Ġb o
Ġb is
Ġb ac
Ġb ul
Ġb ere
Ġb cl
Ġb of
Ġb ition
Ġb ip
Ġb ases
Ġb itor
Ġb ij
Ġb right
Ġb orders
Ġb ordered
Ġb attle
Ġd m
Ġd io
Ġd and
Ġd yn
Ġd est
Ġd ict
Ġd use
Ġd rop
Ġd ma
Ġd osing
Ġd augh
Ġd rops
Ġd gapa
ĠA ve
ĠA the
ĠA ver
ĠA per
ĠA to
ĠA rc
ĠA BC
ĠA wt
ĠA BN
ĠA hn
ĠA EA
ĠA nton
ĠA talia
ĠA ACGG
et te
et of
et ary
et ailed
et abolic
Ġand F
Ġand N
Ġand S
Ġand a
Ġand model
Ġand Fig
Ġand not
Ġand cells
Ġand only
Ġand analysis
Ġand hence
Ġand Re
Ġand De
Ġand their
Ġand source
Ġand qualitatively
Ġand Invasion
Ġand Stimuli
Ġand zeb
Ġand Enterobacteriaceae
Ġand Zfp
Ġn X
Ġn m
Ġn ex
Ġn Boolean
Ġn Ãŀ
Ġn during
Ġn ucleotide
Ġn arr
Ġn ucerk
ation ally
ar ac
ar ter
ar yst
ar ize
ar ger
ar ah
ar iza
ar real
ar abin
ar andom
as p
as it
as lo
as ted
as ia
as ingle
as sim
as ection
as been
as described
as certain
as astuck
as uitable
Ġre tro
Ġre tin
Ġre comp
Ġre cur
Ġre ci
Ġre paired
Ġre ques
Ġre version
Ġre versible
Ġre ï¬ģned
Ġre pr
Ġre stored
ac id
ac ious
ac ute
ac ement
ac cepted
ac cession
ac Ã¡n
ac aze
ac ryl
ul m
ul o
ul ed
ul tic
ul lis
ul ans
ul atio
tion ary
od s
od is
od ge
Ġto and
Ġto form
Ġto ast
Ġto NF
Ġto model
Ġto other
Ġto function
Ġto analy
Ġto this
Ġto represent
Ġto cellular
Ġto play
Ġto show
Ġto organ
Ġto assess
Ġto further
Ġto bortezomib
Ġto compute
Ġto prevent
Ġto generate
Ġto build
Ġto reproduce
Ġto SNF
Ġto overcome
Ġto reconstruct
Ġto contribute
Ġto facilitate
Ġto trigger
Ġto bac
Ġto find
Ġto manufacturer
Ġto simplify
Ġto counteract
ent he
ent ous
ent ered
Ġe P
Ġe y
Ġe en
Ġe ch
Ġe igh
Ġe con
Ġe ï¬ĥcient
ig ence
ĠT G
ĠT O
ĠT el
ĠT ab
ĠT GFR
ĠT our
ĠT cell
ĠT CA
ĠT TP
ĠT arn
ĠT CP
ĠT ris
ĠT cf
ĠT owards
ĠT issue
ĠT emsirolimus
ĠT YK
ĠT ypically
om i
om ated
om ers
om edata
ec l
ec oded
ec rosis
ec ourse
ec ells
ec nologÃŃa
st ated
st rand
st atistical
Ġth ieffry
Ġth reec
im es
im ing
im ents
im ple
im age
im ist
im ported
im ulate
im olecular
im plies
im plified
im pairment
ut t
ut in
ut or
lo om
lo ci
lo yed
ĠĠ ĠčĊ
ĠC V
ĠC e
ĠC n
ĠC t
ĠC u
ĠC x
ĠC yp
ĠC ore
ĠC av
ĠC are
ĠC all
ĠC TGF
ĠC ommon
ĠC IM
ĠC arl
ĠC ano
ĠC ourse
ĠC SR
ĠC ollection
ĠC lass
ĠC RKL
ĠC olumns
ĠC rohn
ĠC entro
ĠC vijovic
ĠC itogen
ĠN Y
ĠN am
ĠN ow
ĠN ine
ĠN ever
ĠN ame
ĠN eu
ĠN iel
ĠN SP
ĠN SF
ĠN either
ĠN CI
ĠN ano
ĠN ma
ĠN itrate
ĠN ationale
ĠN aram
ĠN tmybA
ĠN ecrosis
ĠN utt
us es
res et
res our
res ence
res tim
res sthis
Ġst u
Ġst ay
Ġst rom
Ġst ore
Ġst ock
Ġst arch
Ġst rand
Ġst ressed
Ġst rik
ur i
ur in
ur is
ur ich
ur able
ur ify
ur mester
ly tic
ly can
ly zed
ly zing
ell er
ell ipses
un ter
un expected
un tof
un perturbed
un folding
ve y
ĠO D
ĠO s
ĠO XP
ĠO spre
ĠO vals
ĠO verexpression
ĠO liveira
ĠI T
ĠI U
ĠI ter
ĠI GFR
ĠI rel
ĠI NO
ĠI Hed
ĠI ÎºB
ĠI tis
ĠI rurzun
ĠI yengar
Ġis n
Ġis able
Ġis of
Ġis known
Ġis based
Ġis important
Ġis necessary
Ġis inactive
Ġis expected
Ġis characterized
Ġis therefore
Ġis mainly
Ġis modeled
Ġis rather
Ġis acomp
Ġis caused
Ġis opentenyl
Ġis repeated
ĠS F
ĠS L
ĠS R
ĠS f
ĠS he
ĠS et
ĠS us
ĠS ter
ĠS em
ĠS yn
ĠS ug
ĠS yst
ĠS ex
ĠS ign
ĠS ix
ĠS ight
ĠS ize
ĠS oci
ĠS PC
ĠS ampl
ĠS ier
ĠS inc
ĠS ynthesis
ĠS even
ĠS Ã¡n
ĠS uccessful
ĠS orger
ĠS enescen
ĠS egment
ĠS arah
ter istic
ter actions
ter ra
am s
am ed
am es
am ate
am bi
am ade
am athematical
am bel
am oto
the i
the w
the out
the ability
the ses
the network
the dynamics
the corresponding
the probability
the original
the Hamming
the manuscript
Ġh o
Ġh ab
Ġh oc
Ġh ome
Ġh ind
Ġh hi
Ġh olding
Ġh int
Ġh clb
Ġh umor
Ġh ydro
Ġh pk
Ġh ampered
Ġg a
Ġg l
Ġg t
Ġg w
Ġg ot
Ġg nal
Ġg ins
Ġg ads
Ġg aps
Ġg ulatory
Ġg lut
os es
os ly
os ep
os able
os ystems
os ensitive
os motic
os erepression
os itide
uc ine
uc tuate
Ġcon ce
Ġcon gen
Ġcon com
Ġcon sp
Ġcon duct
Ġcon junc
Ġcon tex
Ġcon cen
Ġcon sequent
Ġcon strained
Ġcon cise
Ġcon jug
odel ing
ĠB F
ĠB H
ĠB S
ĠB ac
ĠB ig
ĠB ec
ĠB ran
ĠB ore
ĠB ost
ĠB ort
ĠB iom
ĠB AC
ĠB AG
ĠB ody
ĠB GP
ĠB igg
ĠB erk
ĠB run
ĠB owel
ĠB iomÃ©dicas
ĠB omm
ĠB ender
ĠB loom
ĠB urmester
il ing
il ip
il ten
il iximab
id ney
id ulans
Ġpro apoptotic
Ġpro xim
Ġpro vis
Ġpro gramming
Ġpro jects
Ġpro ceeded
ab ra
ab iological
ab lation
ab err
Ġ= "
ot yp
ot ypes
ot ency
ot ov
ot ka
ot yrosine
Ġal s
Ġal lo
Ġal igand
Ġal arge
Ġal iquots
Ġex on
Ġex cep
Ġex clusion
Ġex quis
Ġex cessive
Ġex ceeded
Ġex clu
Ġex citing
Ġ1 12
Ġ1 19
Ġ1 53
Ġ1 15
Ġ1 70
Ġ1 28
Ġ1 1111
Ġ1 111
Ġ1 101
ol a
ol s
ol id
ol ate
ol ay
ol ine
ol ism
ol ving
Ġfor th
Ġfor PCR
Ġfor cellcycle
ĠP T
ĠP X
ĠP is
ĠP as
ĠP ere
ĠP omp
ĠP ers
ĠP erm
ĠP CD
ĠP tp
ĠP can
ĠP otential
ĠP atients
ĠP ier
ĠP SD
ĠP BN
ĠP GD
ĠP rome
ĠP alm
ĠP atric
ĠP lease
ĠP TGS
ĠP apin
ĠP eptidase
ĠP alladin
ĠP resence
00 20
00 35
00 98
ĠM D
ĠM I
ĠM S
ĠM W
ĠM er
ĠM un
ĠM ad
ĠM ain
ĠM AT
ĠM ill
ĠM are
ĠM ixed
ĠM attern
ĠM EM
ĠM MP
ĠM AD
ĠM ML
ĠM organ
ĠM IT
ĠM BB
ĠM iy
ĠM esenchymal
ĠM ammary
ĠM ethodology
ĠM SCs
ĠM ullenbrock
ĠM utualism
ĠM aterial
ĠM uscul
ĠM ajety
ĠM Ã¼ssel
ĠM ultic
Ġas a
Ġas op
Ġas ystem
Ġas mall
Ġas ecre
Ġas witch
Ġas relevant
Ġas green
Ġas ignaling
Ġas crib
Ġas previously
Ġas follows
Ġas timulation
Ġas already
Ġas imulation
Ġas upregulated
Ġas dark
ĠE H
ĠE T
ĠE st
ĠE ts
ĠE cl
ĠE pl
ĠE con
ĠE vent
ĠE ukary
ĠE ll
ĠE LF
ĠE rr
ĠE EA
ĠE CCS
ĠE columns
ĠE cole
ĠE coli
ĠE valuation
ĠE SM
ĠE rn
ĠE lements
ĠE ntrez
Ġthat a
Ġthat in
Ġthat IL
Ġthat were
Ġthat have
Ġthat has
Ġthat should
Ġthat they
Ġthat prevent
Ġthat causes
if orn
Ġmodel er
Ġmodel predictions
ith me
ow ley
ow icz
Ġbe am
Ġbe ad
Ġbe used
Ġbe gin
Ġbe attained
ib erated
ib niz
omp osable
Ġon in
Ġon is
Ġon IL
Ġon protein
Ġon DNA
Ġon requ
Ġon specific
Ġon then
Ġon cogene
Ġon estate
Ġcell u
Ġcell types
Ġcell fate
Ġcell lines
tiv ed
se en
se ven
se gments
se jo
Ġl c
Ġl f
Ġl ing
Ġl ation
Ġl atory
Ġl abor
Ġl icense
Ġl actose
Ġl anguage
Ġl mol
Ġl anes
Ġl esions
ver tic
ver iï¬ģcation
Ġac tions
Ġac comp
Ġac com
Ġac ces
Ġac qui
Ġac kn
Ġac cu
Ġac etyl
Ġac quiring
Ġac ombination
Ġac etoacetyl
Ġac ademic
Ġac onnec
em ari
em ann
em phas
em bry
em pty
Ġ2 10
Ġ2 45
Ġ2 72
ĠF K
ĠF c
ĠF on
ĠF low
ĠF ill
ĠF ive
ĠF ault
ĠF ÃŃ
ĠF RS
ĠF arnesyl
ĠF aur
ĠF EAR
ĠF arias
ated in
Ġby L
Ġby our
Ġby NF
Ġby other
Ġby cells
Ġby JAK
Ġby PCR
Ġby using
Ġby MKK
Ġby adding
Ġby Me
Ġby MKP
um sie
um atoid
Ġare duction
Ġare used
Ġare well
Ġare given
Ġare responsible
Ġare knocked
Ġare explained
pres umably
Ġnetwork and
Ġnetwork sis
Ġnetwork model
Ġnetwork was
Ġnetwork were
Ġnetwork analysis
ical s
ical research
ay ed
ran e
ran ges
ĠThe r
ĠThe or
ĠThe network
ĠThe detailed
ĠThe CreativeCommons
ĠThe lper
te omic
te ffects
te borg
log ie
Ġwith a
Ġwith the
Ġwith two
op ing
op tions
op her
op ulation
op lasm
ir i
ir am
ir reversible
ir ulent
ir reducible
tor ial
io re
io logic
ad a
ad t
ad ia
ad sk
ad itional
ad vanced
ad iol
ad vances
ad ows
ad just
tic ulum
tr ated
tr ical
tr uth
tr onic
tr acking
tr iang
tr uncated
tr uction
tr adeoff
ap ro
ap eutic
ap ped
ap plies
ap osition
ap optosome
ap plying
ap parent
ap alli
ity and
Ġor F
Ġor IFNÎ³
Ġor CEBPbe
qu et
qu ence
qu ite
qu alit
ge ph
ge ometric
and P
and X
and i
and red
and tim
and IL
and WG
and simulated
and Egr
and Sm
and pertuzumab
and Clb
and etoposide
and referen
and Btg
and Awt
and reproductioninanymedium
ted in
Ġcomp et
Ġcomp eti
Ġcomp romised
Ġcomp endium
Ġcan bet
Ġcan also
Ġcan bec
). (
). [
gul in
ĠR in
ĠR et
ĠR am
ĠR AP
ĠR ule
ĠR CH
ĠR apid
ĠR ES
ĠR lk
ĠR AM
ĠR ga
ĠR package
ĠR othen
ĠR uiz
ĠR ÃŃos
ĠR andom
ĠR SPO
per a
per form
per ties
per cellline
rom C
Ġnod ed
ment ary
ment ally
Ġwe pro
Ġwe were
Ġwe focus
Ġv as
Ġv ec
Ġv ascular
ator ynetwork
ĠD r
ĠD ar
ĠD as
ĠD ay
ĠD DNA
ĠD PI
ĠD ah
ĠD onal
ĠD RAS
ĠD HH
ĠD SOD
ĠD PTP
ĠD escribe
ĠD CDC
ĠD AIF
ĠD NMA
ĠD MCD
ĠD otted
ĠD STE
ĠD Ã¼
ĠD ele
ĠD PKA
ĠD CAMP
ĠD RLM
ĠD uo
ĠD rought
ĠD igital
ĠD IABLO
ĠD AdenylateCyclase
ĠD ji
ĠD atta
ĠD rive
ĠD odge
ath ways
Ġres ide
Ġres etting
Ġres olution
Ġres erved
Ġres cue
pec ies
to I
to x
to y
to col
to their
to bec
to quantify
to bech
duc ibility
ignal in
ignal transductionnetwork
Ġat es
Ġat trib
Ġat time
Ġat taining
Ġat tract
Ġat room
Ġat least
Ġat tribute
Ġat tached
und ancy
Ġactiv ati
Ġactiv ely
di p
di vers
di ï¬Ģ
di ana
ĠG E
ĠG L
ĠG o
ĠG er
ĠG ess
ĠG las
ĠG MP
ĠG lucose
ĠG CK
ĠG ads
ĠG Ã¶
ĠG By
ĠG astrointestinal
ĠG reec
ĠG arg
ĠG add
ĠG raduate
ĠG Hz
ĠG lc
ĠG rey
ĠG onadal
ĠG hazal
Ġk i
Ġk w
Ġk ine
Ġk its
Ġk syn
Ġk links
Ġk eratitis
Ġgen omes
Ġgen otype
Ġgen eregulation
Ġgen otyp
ep ing
ep id
ep redic
ep otential
ep aper
ep ithelial
ep hi
ep idermal
ep igenetic
ep pÃ¤
ati vel
ati ally
th gen
th aliana
th reatening
th timestep
th reonine
ĠH S
ĠH U
ĠH i
ĠH er
ĠH an
ĠH am
ĠH sc
ĠH all
ĠH IF
ĠH ER
ĠH aving
ĠH isto
ĠH TRA
ĠH igg
ĠH enk
ĠH ohmann
ĠH arrold
ĠH EAT
sion s
Ġ0 5
Ġ0 11
Ġ0 60
Ġ0 1000
Ġ0 110
Ġus u
ch a
ch t
ch ain
ch ose
ch arac
ase gments
ĠIn tern
ĠIn active
ĠIn activation
ĠIn this
ĠIn trinsic
ĠIn go
ĠIn these
ĠIn total
ĠIn order
ĠIn side
ĠIn tu
ĠIn ference
ĠIn nov
ĠIn stitutional
ĠIn brief
for B
for G
for i
for x
for drug
for diï¬Ģerentiation
ess es
ess ment
ich ten
ich hardt
ich ael
ich ostrong
yp ical
ther more
Ġtrans duced
Ġtrans fection
Ġtrans cr
Ġtrans lating
10 100
10 45
10 22
10 29
10 56
10 31
10 35
10 76
Ġit k
Ġit to
Ġit starget
Ġit alic
able ment
ph os
ph ph
ph orylated
Ġinter a
Ġinter de
Ġinter linked
Ġinter plays
Ġinter ference
Ġinter nation
Ġinter secting
ug al
pro of
pro be
pro ven
pro cal
pro xim
pro gramming
pro pens
pro grams
ĠTh ose
ach owicz
yst s
yst ander
tive and
oc alin
ies tur
Ġregul ar
Ġregul ati
Ġregul atio
Ġnot a
Ġnot ing
Ġnot known
Ġnot been
Ġnot ably
Ġnot yet
Ġnot sufficient
Ġnot explicitly
Ġle c
Ġle v
Ġle af
Ġle ct
Ġle aves
sis ts
igh tof
of A
of l
of for
of Fig
of old
of cells
of each
of anti
of cancer
of some
of astuck
of castration
of prostate
of systemsbiology
Ġwas not
Ġwas induced
Ġwas similar
Ġwas tested
Ġwas done
Ġwas made
Ġwas implemented
Ġwas collected
Ġthis end
pl a
pl ed
pl ates
pl ug
pl ification
pl aur
pl usFe
ine x
ine er
ine ar
Ġde ep
Ġde aling
Ġap ar
Ġap ical
Ġap redic
Ġap eutic
Ġap rior
ub set
ub sequently
ub mitted
Ġr E
Ġr Y
Ġr h
Ġr s
Ġr is
Ġr ing
Ġr id
Ġr ch
Ġr af
Ġr ice
Ġr aw
Ġr ationale
iv otov
Ġsh ading
Ġsh adows
unc ontrolled
unc overed
Ġ3 00
Ġ3 56
ple te
form at
form odel
form ations
Ġper cent
Ġper son
Ġper pet
ĠâĢ ¡
Ġdis trib
Ġdis par
Ġdis tal
Ġdis ci
Ġdis connected
Ġdis sol
Ġdis tilled
01 7
por tion
Ġwere stricted
Ġwere performed
Ġwere pur
ifferen tiated
hen sive
hen cethe
ĠW I
ĠW S
ĠW u
ĠW ill
ĠW ASP
ĠW hether
ĠW iles
ĠW eng
ĠW ecan
ĠW lod
ĠW erner
ĠW adsk
ĠW achowicz
Ġnodes and
Ġnodes are
AT CT
AT IO
Ġen vi
Ġen lar
Ġen counter
Ġen vision
Ġen grailed
Ġen countered
ex ec
ex per
ex port
ex act
ex trac
ex cluding
ex posed
ex clusion
ex clusive
ex ists
ex tending
Ġspec ie
Ġspec ulation
Ġspec ulated
Ġspec ifying
Ġspec ifi
Ġspec trum
Ġcy c
Ġcy an
gen s
gen uity
gen otype
age ing
âĢĻ ~
Ġpathway sthat
ular ly
Ġim posed
Ġim pair
Ġim pose
Ġim posing
Ġim mense
ave y
ĠL u
ĠL ab
ĠL ud
ĠL ip
ĠL ey
ĠL ink
ĠL ys
ĠL uz
ĠL aw
ĠL ocal
ĠL iang
ĠL ook
ĠL eda
ĠL iterature
ĠL onza
ĠL oss
ĠL anosterol
ĠL iao
ĠL IMK
ĠL Ã¶b
ĠL gNb
ĠL sd
ĠL aslo
ĠL acaze
ĠL otka
ĠL eppÃ¤
ĠL ichten
con tin
con stitute
con acy
con tributed
con clusion
con sequence
con clusions
con tex
con densed
con suming
Ġsystem at
Ġsystem could
Ġinterac ti
Ġinterac tively
Ġinterac tio
str ict
str ictly
str asse
str icte
igure d
ĠBoolean rules
ud Ã©
gr ation
gr ained
13 5
13 23
The ta
Ġne tic
Ġanaly tical
ally l
Ġall three
Ġch loramphenicol
ast ases
Ġ4 00
Ġ4 53
Ġ4 40
here ncies
out ward
out growth
tos ide
Ġtim ed
Ġtim ecourses
Ġsimul atio
Ġrepres en
under go
under stood
Ġprotein P
Ġprotein forms
Ġprotein complexes
Ġab lation
Ġab rog
Ġstates of
Ġstates that
mal functions
mal tose
mal toside
ition ally
cre b
cre ates
cre asing
ype graph
Ġinhib ts
12 21
12 70
12 42
12 48
12 41
12 57
so ï¬ģle
Ġpar ame
Ġpar acrine
Ġeach node
av ily
ack ets
tro se
tro ph
tro ducing
tro competent
Ġco ated
Ġco gn
Ġco sts
Ġco exist
Ġco herence
Ġco ats
Ġco uple
vid ed
Ġexperim e
pos es
pos itively
end ocy
end ency
end ofthe
end ogenous
Ġset F
11 88
11 63
11 78
11 96
11 002
Ġrespon set
Ġrespon ders
Ġrespon ded
Ġrespon siveness
Ġactivation and
Ġval i
Ġval leys
Ġob abilities
Ġob viously
Ġob esity
NA M
NA DA
NA ccording
Ġfunc ti
abil it
abil ization
Ġunder line
erm odeling
Ġhas a
bi ot
bi otinylated
oin ositide
Ġour Boolean
Ġour results
Ġour models
tur ning
ĠThis characteristic
ĠThis isan
Ġtwo genes
Ġad mit
Ġad verse
Ġad vis
Ġad van
Ġad ifferent
Ġad herence
Ġad efault
rec ise
rec over
rec urrent
rec overed
rec overs
rec ycled
Ġdata are
Ġcom ments
redic t
Ġmet al
Ġmet aphase
Ġmet rics
Ġph y
Ġi at
Ġi kk
ill s
ill ions
ill arreal
cy c
cy to
cy clase
cy toskeleton
Ġthese quence
Ġup reg
Ġup regulates
Ġup loaded
ign iï¬ģcant
Ġpos itions
ĠPI s
ail ty
ail abilit
ost at
Ġrepresent atives
esc orrespond
ance ment
ak a
ak t
ak ap
ak ai
Ġbeen shown
cell culture
cell prolif
âĪ Ģ
AK AP
ser vation
ser ono
ust ained
Ġcor rected
ific a
Ġdynamic modeling
bin arization
bin aryst
Ġlo ured
ari abilities
ĠJ J
ĠJ U
ĠJ ack
ĠJ ong
ĠJ ij
ĠJ ean
ĠJ iang
ĠJ onathan
ĠJ oanne
Ġregulatory mechanisms
In f
In vestig
In gel
In vitrogen
are both
Ġinput signals
Ġinput redundancy
Ġro l
oth apalli
ard en
Ġeffec tof
Ġeffec tiveness
ĠU S
ĠU b
ĠU nique
ĠU tre
ĠU rokinase
ĠU NAM
Ġsc anned
ĠWe bb
ĠWe additionally
ĠWe inberger
Ġdet ach
Ġdet ox
Ġdet ector
Ġlogical model
Ġlogical steady
Ġlogical expressions
Ġused to
ï¬ģ ve
ï¬ģ xed
ĠV A
ĠV S
ĠV i
ĠV an
ĠV ic
ĠV PS
ĠV itro
ĠV AC
ĠV inc
ĠV IM
ĠV ander
ĠV enk
ĠV audry
ĠV ariabilities
Ġpredic tor
ron ments
Ġ6 7
Ġ6 001
comp ens
comp ound
comp utations
comp atibility
comp artments
Ġsuch as
rap p
co vers
co lored
co efficient
Ġun i
Ġun per
Ġun ex
Ġun regulated
Ġun available
Ġun treated
Ġun mutated
Ġun specified
est ated
est ates
est art
led istributedunderthetermsofthe
Ġinto the
Ġsub se
Ġsub con
Ġsub graph
Ġsub units
Ġsub ject
Ġsub mission
Ġsub graphs
Ġsub clusters
Ġsub arrays
Ġsub stance
Ġsub stances
cle avage
Ġexperiment ation
get he
ss on
ip per
ip ore
ip ped
iden e
ĠK B
ĠK J
ĠK O
ĠK i
ĠK ay
ĠK och
ĠK ras
ĠK ahn
ĠK orf
ĠK SR
ĠK eratinocyte
ĠK evin
ĠK houry
ĠK aniak
ĠK othapalli
ĠK rapp
las ting
Ġar ison
Ġar tiï¬ģc
Ġar ithme
Ġpres qual
Ġpres crib
Ġpres umed
Ġout growth
Ġout lined
Ġind epend
Ġind ef
Ġind ifferent
ix ture
regul at
regul ar
Ġbut we
ight ened
ox y
ox iredoxins
Ġme k
Ġme ant
Ġme eting
Ġse g
Ġse v
tern at
cor related
Ġwhere the
AS Y
RK IP
ff ered
Ġhe ads
ag in
ag ree
ag ocy
ag ift
ag aram
ag onist
ag rowing
struc t
100 39
yl l
yl us
yl alanine
yl idene
Ġqu ad
Ġqu ery
Ġqu eried
Ġrel iable
Ġrel apse
CC A
CC CDK
CC AAT
Ġy t
Ġy ap
Ġy State
Ġy ear
Ġinv a
Ġinv ited
Ġinv ade
Ġinv ok
Ġinv ading
model paper
Ġthere ad
trib u
Ġdi ï¬Ĥ
Ġdi versity
Ġtr ained
Ġtr uncated
Ġtr ypt
45 4
45 8
one Boolean
one uro
21 6
21 9
21 12
Ġsingle ton
Ġpre clud
Ġpre vi
Ġpre mature
ĠÎ »
de gen
de viations
de aling
de ï¬ģcient
nec ting
BA CH
ind eed
ind epen
ind amy
Ġboth types
Ġinitial izing
Ġinitial values
Ġ7 6
Ġ7 7
Ġ7 8
Ġmod est
Ġmod iï¬ģcation
Ġmod iï¬ģcations
ĠFor mally
20 38
20 31
sc ore
sc enarios
sc apes
sc hematic
sc arce
sc enario
ond on
Ġcomplex network
network to
Ġbiological processes
org anisms
org ans
Ġbehav es
Ġ8 6
Ġ8 00
Ġ8 33
Ġ8 07
los ome
ĠCell Cycle
ling s
ling er
back ground
0000 6
0000 8
0000 0000
0000 0001
Ġdo ing
Ġ10 101
Ġform ulation
Ġcomponents in
rect ly
rect angles
Ġmethod olo
Ġed iting
Ġed andetoposide
Ġaut omatic
ist ability
ie ves
Ġstimul a
Ġstimul at
Ġstimul ations
Ġstimul atory
with ad
with other
with inthe
with stuck
ik b
ik kab
vers al
17 7
17 8
Ġsup posed
Ġsup pose
art a
art Draw
Ġover growth
Ġover la
Ġover load
Ġover whelming
lec tion
lec ular
lec trical
lec trocompetent
ĠComp ute
ĠComp aring
Ġchan ces
Ġel se
Ġel astic
Ġel abor
Ġel evation
Ġel eg
Ġred un
Ġred boxes
Ġidentif i
inal lcelllines
Ġwell s
Ġwell as
Ġmicro ar
Ġmicro biology
Ġmicro arrays
lis tof
val onic
val onyl
Ġam ut
Ġam echanistic
Ġam picillin
EGF stimulation
19 5
19 76
19 91
type of
Ġ9 8
not ed
not chan
nt re
see Materials
Ġlar val
Ġimmun og
18 2
18 5
18 0098
ite outgrowth
âĨĴ {
Ġknock ou
Ġindic ators
Ġdec omp
Ġdec ays
Ġdec ipher
Ġdec isive
plic ative
Ġcycle base
der ive
wh atever
Ġtarget path
Ġmech anis
NK X
by r
by ad
ins tit
ins ensitivity
ĠAp plications
ĠAp optosome
ĠAp heres
ĠAp proxim
ĠSt ability
ĠSt udy
ĠSt reet
RB andRPS
ĠCa Ic
38 0
38 1
38 4
38 6
Th ird
Th akar
Ġuse Boolean
RE SE
RE DIC
RE SULTS
Ġanti oxi
Ġdynamics of
ture r
Ġphenot yp
Ġconf ers
Ġconf ined
Ġconf igured
plement ing
Ġdeterm i
that the
that can
that may
Ġpossible that
14 4
14 6
14 8
14 9
14 07
Ġstudy of
Ġthen ucleus
Ġthen ew
Ġthen atural
Ġpl ate
Ġpl aus
Ġpl atelet
Ġwill be
Ġinfl ation
GL M
GL O
ni er
Ġsign if
Ġsign ifying
centr ation
set tes
set tle
set echnologies
set ools
Ġfeedback circuit
Ġfeedback loops
Ġneg a
Ġpresent ations
Ġop ens
Ġop tical
stre ak
stre ngth
RA CT
all the
Ġbec ame
ĠAl pha
ĠAl gorithm
ĠAl together
ĠAl terations
Ġequ ate
Ġequ iv
Ġequ als
Ġequ ipped
âĢĻâĢĻ âĢĵ
cur ated
cur ves
sim ultaneous
sim ulatio
trans mit
trans fected
trans locate
Ġx a
Ġx x
Ġx are
Ġx that
Ġx can
Ġx tz
Ġx mz
Ġcycl ical
other wis
ocy tem
Ġsp in
Ġsp ite
Ġsp otted
Ġsp heres
Ġsp anned
Ġbehavior of
ï£ ®
ï£ °ï£¯
Ġtransition graph
53 0
can occur
Ġthey are
Ã¾ e
Ã¾ and
Ã¾ are
Ã¾ ABA
Ã¾ concentration
Ã¾ increase
Ã¾ efï¬Ĥux
Ã¾ efflux
Ã¾ cd
Ã¾ vav
Ã¾ zap
Ã¾ elevation
ĠSTAT s
15 0
15 6
15 7
15 894
ĠPro f
ĠPro bes
ĠPro pag
ĠPro teasome
ĠPro perties
Boolean modeling
LGL survival
Ġmat hematically
gene expression
gene response
gene tically
Ġdrug response
Ġphosph ates
Ġphosph opro
Ġphosph oinositide
Ġiron Low
Ġprob ed
Ġprob abil
ĠPK D
Ġav irulent
ĠCA NADA
ĠIFN cI
Ġdiscre ted
Ġdiscre tiz
ĠAn iruddha
23 2
23 3
23 4
ext end
ext reme
ext remely
ne ously
ne arest
ne jad
ffic acy
Ġconnec tive
Ġconnec tivities
ĠX and
ĠX BP
ĠX gin
ĠX redescribed
til lo
PA N
sh as
sh ut
sh ad
sh ave
sh all
sh ared
sh aring
signal transduction
ĠEx pres
ĠEx trac
ĠEx trinsic
ĠEx terior
ĠEx isting
ĠEx periments
pre y
pre val
pre pared
pre liminary
path ology
ass ium
ass igning
Ġcl amp
Ġcl athrin
Ġcl aim
Ġcl indamy
ollec ted
Ġknown deregulations
mon itor
mon ooxygen
spec ifies
spec trophotometer
Ġag o
Ġag ar
Ġag gre
Ġag deburg
Ġag reed
Ġag rees
Ġfirst ly
min or
min imum
Ġofthe cell
Ġofthe known
Ġofthe node
Ġofthe output
Ġofthe NEMO
Ġofthe current
Ġofthe proposed
ax ia
over view
over whelming
och olester
Ġsugges tions
sequ en
sequ enced
work ers
work isproperly
IS GF
inter cept
inter leukin
inter feron
inter rog
inter rupted
inter vals
inter ventions
Ġref ractory
abol ism
OR MAL
ace tic
Ġnegative regulation
Ġnegative regulations
rim idine
Ġmulti lineage
Ġmulti plicative
Ġactivated by
We were
We have
Ġran d
Ġdes crip
Ġdes tro
Ġdes mosterol
Ġdes irable
Ġdynamical system
Ġupd at
par tially
ĠMC F
owled ges
ĠTo achieve
Ġsimulation Figure
ĠNetwork Incorporating
99 5
oryl ate
CY CLIND
og le
og ical
og elstein
og lycan
Ġmin istry
Ġnon etheless
Ġsignalling of
which is
50 88
Ġpropos als
CL B
CL L
ĠAc olumns
ĠAc etoacetyl
ĠAc tually
Ġfurther ing
Ġfurther more
TP UT
ogen s
ian s
Ġnec k
Ġnec rotic
46 3
46 9
ĠCon se
ĠCon text
ĠCon struction
ĠCon sider
ĠCon stitutive
ĠCon centrations
ĠCon figurations
42 4
42 7
EM RA
inhib itions
22 7
22 9
CS T
CS NK
MP K
MP S
MP UTAT
Ġbin ariza
Ġdep osition
Ġdep leted
Ġdep loyed
ĠIt ga
Ġhyper mutation
Ġhyper geometric
Ġavailable experimental
oid etes
ĠY un
ĠY ork
ĠY ik
ĠY ck
ĠY ob
ĠY ca
rest ing
ĠPP P
Ġfr ames
TE IN
rel ate
rel ations
rel ies
rel imin
rel iable
Ġpur ity
Ġpur ified
ĠGen er
ĠGen eva
Ġdescribed by
cus s
Ġï¬ģ ed
Ġï¬ģ lled
Ġdel iv
Ġdel eter
Ġdel icate
Ġdel ivery
acro s
lic ular
lic ensee
Ġcap ac
Ġmem bran
Ġpartic u
Ġpartic ul
IN T
IN RIA
IN SERM
ĠThere by
Ġreco g
Ġreco v
Ġ12 5
ves icles
ves que
ek a
ek inumab
tes ville
ĠAs pergillus
MA CS
MA LT
MA NY
Ġhere gulin
biom olecular
biom arker
Ġsequ enced
dom inant
34 8
34 9
we g
we alth
we want
we ightof
ERK signaling
ob las
ĠTNF AR
uman n
Ġhel d
Ġhel ped
PC K
chem i
rup ting
ort ugal
ĠkB is
ric le
ric ula
Ġcur cumin
24 3
term networks
ĠPL OS
dis cussion
dis ruptions
dis rupted
dis junctive
dis ablement
dis tribu
dis cuss
ef ine
ef aces
Ġj F
Ġj and
Ġj ob
Ġj rog
ang ed
ang ing
ang hai
ang iect
Ġwork ed
Ġterm ed
29 3
29 5
ĠZ fp
ĠZ urich
Ġver i
Ġver ification
Ġver ifi
input binaryst
Ġsu f
Ġsu ite
Ġsu ï¬ĥcient
Ġhyp ocholester
oph an
oph yll
48 5
48 8
48 427
ET IC
ĠSP RY
Ġorder ing
graph ical
Ġvalid ates
cal pathways
me z
ry an
Ġquan tif
biomed icalresearch
ĠÂ ¸
unt reat
43 1
differen ces
differen tiate
cript omics
nd means
ĠCy t
ĠCy cl
ĠCy toch
ĠCy tokine
Ġremain der
St age
St uck
St udents
fer ment
fer ring
74 0
Ġtop ical
Ġtop ologies
Ġtop redict
ĠCl inical
fl ip
fl uorescence
Ġobtained from
Ġphase of
Ġinterest ingly
Ġoriginal predictions
27 83
man agement
man ageable
000 7
000 10
000 22
000 44
000 51
Ġmechanisms underlying
BR C
Ġmit och
Ġmit omycin
Ġlong itudinal
Ġend ow
Ġend osome
Ġend osomes
Ġend onuclease
Ġend oplasm
Ġadd resses
NO D
NO X
Ġrepro gram
Ġprom ot
ĠRe generative
ĠRe actome
ĠRe presentation
Ġresult ant
IFN c
IFN GT
no a
Ġes p
analy tic
analy zer
row ser
Ġcompared with
Ġabout the
Ġsel ect
Ġrele ases
DP P
DP a
Ġlogic of
aris ed
aris ing
ĠEGF receptor
ĠEGF ERBB
ĠâĢĿ (
ĠâĢĿ -
Ġcorrespond ed
Ġman ageable
ĠAt tem
ĠAt STP
ĠAt noa
Ġcontr asting
Ġcontr aposition
ï¬Ĥ y
ï¬Ĥ uence
based on
based onthe
hel d
hel l
hel ps
Ġcas tration
Ġcas settes
met hyl
This article
This isan
Ġoscill ators
ON E
ON TOS
Ġoff and
Ġoff except
ner ability
plo id
Ġinthe cell
Ġinthe network
Ġinthe Boolean
Ġinthe NEMO
Ġinthe Ad
Ġinthe disease
Ġinthe onset
Ġlim its
Ġobserv able
TNF a
ĠâĢĻ ,
central ity
signaling pathways
signaling networks
ĠPD F
ĠPD N
ĠPD S
Ġtransduction pathways
Ġgeneral ity
IA C
IA xcel
tem por
Ġlymph atic
Ġlymph oma
Ġlymph opro
Ġlymph ocytic
Ġins ilico
Ġins uff
Ġins ecretion
Ġ14 0
Ġ14 4
Ġ24 0
TI C
tw ist
Ġser ver
ars ki
Ġ16 7
Ġ16 80
Ġ16 1024
PS A
ĠBio logie
Co eff
Con versely
Con sider
Con sidering
Con stitutive
Con vert
Con sortium
Con sejo
det ectable
Î³ H
Ġfocus sing
Ġexternal ly
Ġsimpl ifications
Ġsimpl ifi
DNA D
DNA nucleus
DNA cytoplasm
DNA damage
Â· !
iss ues
Ġgu est
ĠÎ³ H
ĠÎ³ R
ĠÎ³ active
ĠÎ³ between
Ġincluded in
ĠSPN model
mit osis
ra wn
ra ised
ung i
Ġprog resses
Ġprog nostic
Ġevalu at
Ġevalu ations
reg ation
reg ression
AL L
SO X
To ko
Ġcar bfix
Ġintro duction
Ġintro duces
Ġconcentr ate
Ġconcentr ated
Ġ23 5
till a
pir a
Ġent ers
ĠOn co
ĠOn col
ĠRec overed
ofthe ir
ofthe journal
ofthe nodes
ofthe output
ofthe most
ofthe individual
Ġleading from
infl am
phosph otyrosine
Ã° oi
Ġfact that
ondri a
ĠCh ung
ĠCh ina
ĠUn it
ĠUn perturbed
cc dA
Ã© s
Ã© vesque
Ġ+ +
anc ing
Ġvar ia
RNA L
Ġunc on
Ġunc tion
Ġtes ts
ros arcoma
olar ship
Ġclass ically
Ġclass ification
Ġclass ifying
ST KE
ST RACT
between allo
ĠSim u
ĠSim ulating
ĠSim ultaneously
Ġalgorithm ic
combin ing
ĠAll relevant
Ġmetabolic network
Ap art
Ap plied
Ap oyo
Ar r
Ar ray
predic ts
xt z
ĠIg noring
Ġlay outs
MY L
SF C
tig ation
tig ate
tig ating
tig net
Ġevery automaton
Al together
Al zheimer
equ ation
equ ally
equ ences
equ ilibri
Ġlink age
chan nel
36 0
Pro of
Pro ject
Pro statec
Pro vidence
tot ypes
Ġoper a
Ġoper at
Ġoper ate
ĠRes ting
ĠÎ² Î²Î²
PK D
ane ously
Ġep i
Ġep iregulin
Ġsto ichio
ĠRas GRP
Ġtri es
ĠAut hors
ĠDec re
Ġfac ing
Ġfac ulty
ĠAr th
ĠAr ray
ĠAr lt
Ġtothe reported
Ġtothe Perturbation
Ġ" ,
rex ternal
Ġsol vers
gt z
sk y
sk ern
eng ineer
Ġreal ize
Ġreal istically
strain ts
Ġconsider ably
49 6
49 7
49 8
CT G
CT LA
Ġcircuit ry
JNK inhibition
stimul ate
neg ation
neg ie
go at
go od
go ogle
ier a
Ġstabil ise
ĠSH M
Ġsubsequ en
pathways involved
Ġblock er
Ġsuccess ive
Ġsuccess ors
aut omatically
immun ology
immun ocomp
immun oprecipitation
Ġ19 3
aper tures
Ġinterven ing
pathway sto
Rec ent
Rec ently
TA GC
TA MS
Â¬ )
Ġ00 101
Ġ00 011
Ġ00 10000
ĠAP O
ĠAP eters
Ġperm ission
An example
As pergillus
Ġdem on
Ġdem and
Ġdem ands
ĠIm portant
Ġimp acts
Ġimp recise
Ġ17 2
Ġformal ize
ĠPh ot
ĠPh ase
ĠPh arma
ĠPh armaceutical
ĠPh armingen
Ġdetermin acy
Ġdetermin ethe
57 9
57 99
86 0
86 420
86 48427
AR C
AR signaling
Ca M
Ca R
Ca ers
Ca MKK
Ca MK
IF IT
ĠMEK i
Ġdifferential equations
Ġpossib l
Ġtherapeutic ally
Dep olar
tc rlig
Ġtur ning
Ġdiff ere
ĠSLP tz
Ġcytos keletal
ï£· ï£«
Ch rist
Ch ristian
Ch anges
ML S
ML CP
ML CK
drug combination
ok inetic
inform a
inform ative
ĠCollective Âº
gener ally
Ġdiï¬Ģeren tially
Comp ut
Comp etition
Comp uting
normal ities
anti porters
aset ti
aset of
Ġgran ul
Ġapplic ability
Ġuniqu eness
Fe Intracellular
effec tof
sup pression
sup port
sup pressed
sup pressors
Ġcollec tions
entral ized
Ġgo als
Ġachie ves
Ġachie ving
05 10
AC KNO
MAPK andPI
Ġstat etrans
Ġexpos ing
Ġexpos ition
Ġexpos ures
ĠLSS A
ĠKRP s
GT CC
GT TR
hom odimer
Ġsupported by
ĠCTL s
ĠCTL activation
ĠCTL population
Sup port
nos ed
tom odel
Ġgain ing
ĠInter active
ĠInter vention
correspon dence
mut able
mut ualism
Ġwor st
acy clic
These authors
Ġgenetic interactions
dep th
dep letion
lar gest
lar gely
ini tiated
ans w
Ġmo ved
ĠTr I
ĠTr ust
ĠTr II
ĠTr ichostrong
lot ting
lot tesville
Ġalong side
Ġcorrect ness
Ġscen ar
biological processes
biological dat
Ġdemonstr at
Cl indamycin
Cl audine
EN TS
GN C
pen sion
pen icillin
indi ana
Ġclo ses
Ġclo ck
asing led
Ġread ing
Ġeas ier
ĠHere k
Ġenc losing
fi res
number s
Ġtem plate
Ġdifferenti able
Ġobtain the
Ġhypergraph ical
39 1
ER ASE
Ex tracellular
Ex press
micro arrays
inthe ir
inthe development
Ġfib rosis
Ġdri ver
urg ical
NFkB ROS
Ġupdating Frequency
col ors
col icon
sub network
sub set
sub section
sub tle
sub constraints
tane ously
Î± Î±
Î± Î²
Ġplasm ids
Ġmark s
ĠSep ar
Ġexplo ited
Ġ199 0
Ġ199 3
ĠPax illin
ĠDis tributions
Ġupstream regulators
models of
fr ame
mod ate
mod ified
mod ify
mod ularity
main ing
main tenance
sp atially
Ġq and
Ġoverex pressor
Ġreach ability
eregul atorynetwork
ĠEn right
ĠEn ciso
ĠEn grailed
Ġphys iology
Ġlocal interactions
Ġlocal izations
Ġexposure to
mat hematics
Ġsymbol ize
Bio logical
For instance
lim iting
lim itations
integr ates
ithel ium
Ġmon itor
Ġmon ochrom
Ġmon onuclear
Ġmon omers
Ġexam ination
ĠPTP a
Ġtransfer ase
process ed
develop ing
develop mental
Ġoptim ize
Ġdesign s
Sim ulated
vent ing
into account
into asingled
respec t
Ġcons umed
Ġcons ecutively
indic atethe
89 5
89 79
89 87
89 479
prim ers
prim arily
ÃŃ m
ÃŃ n
Ġfind s
ĠSpec iï¬ģc
Ġimplement s
control ling
Ġsimultane osly
cancer drug
55 851
BC O
GATA s
factor ial
factor ily
ru vate
Ġcross links
Ġmax im
ĠMA LR
Ġleukemic T
feedback between
intes ti
Ġprin ted
Ġreplic ated
ĠCat alf
ĠCat tad
Ġexp ands
ĠRho GEF
ĠĠĠĠĠĠĠĠ ĠĠĠĠĠĠĠĠĠĠ
ĠĠĠĠĠĠĠĠ ĠĠĠĠĠĠĠĠĠĠĠĠ
NFKB IA
def inition
Ġphosphat idylinositol
Gen es
Gen us
Gen eral
Gen erally
Supplemental Material
gu ide
gu ided
sel ective
ustr y
ustr ation
Ġz ipper
Ġbi ol
ĠTrans Factor
ĠIKK complex
Ġhom odimer
tra it
ĠHe iden
ĠHe althy
Ġcho ices
Ġcho oses
valu ated
niqu es
growth factor
Ġpropag ates
Aut Ã³nomade
Aut omated
PD GFR
wt that
wt we
information contained
information isavailable
using the
Ġcolon izes
Ġorgan ic
Ġorgan izing
Dis ruption
ID s
Per i
Per le
Per turbed
bx i
la ur
ick e
ĠCo up
ĠIFNg R
ĠCyclin B
It z
It ga
It gam
UN ITED
po ly
vari ation
Ġtech ni
Ġwg stripes
Ġwg bands
ĠAdditional file
Ġendo thelial
Ġadap ting
measure ment
ĠIgG and
110 1
CF U
WG t
mo ved
Ġcr ux
ĠAmer ican
Ġlab elling
ĠIntegr ated
ĠIntegr ating
consis ting
Ġcoun tries
modeling isutilized
Ġperiod s
ï£·ï£· ï£·
ew ed
fault combination
long er
pat match
pat hetic
Ġ_ -
atform that
Ġchem okines
Ġchem otherapeutic
Ġchem ostat
Ġphen om
itu ations
ulner abilities
ĠMicro array
ativ et
ativ ity
Ġpathogen icity
Ġparasite activity
cussion s
RG S
sign atures
Ġderegul a
Ġprote omic
Ġprote oglycan
Ġexperi ence
Ġexperi ences
character izing
conver t
conver sion
130 9
oxid ase
oxid ants
prom ot
Ġcut s
Ġcut oï¬Ģ
ĠSch raven
ĠSch upp
Ġexpres ses
ĠRNA s
Ġvi able
available inthis
69 2
Med icine
Med izin
py ruvate
Ġsitu ated
ĠTA B
ĠCas tillo
Ġright ly
Ġiniti ator
PLC ga
Ġfraction al
IC ATION
Mac B
ares ubsequently
bit ol
bit sequence
bit streams
bit buck
su ï¬ĥcient
Ġillustr ation
Ġsix th
ĠAR NO
ĠSer ies
ĠPer centage
ĠPer haps
ĠPen n
ĠPath ogen
ĠFOX O
ads en
Ġrecogn izes
Ġguarante econ
PTP N
PTP a
PTP PEST
cir cles
depend s
hyp ophosph
ĠQ iu
Ġion and
Ġion of
educ e
Ġput atively
Ġdys functions
Ġdys regulations
ĠStr Ã¤
oscill ates
oscill ating
ĠDes Cyclin
ĠDes CyclinC
ĠDes mosterol
Ġpharmac o
Ġpharmac ody
Ġpharmac odynamic
Ġpharmac okinetic
Ġmeas uring
Ġmeas urable
ĠTGFb R
ann a
Ġrec all
Ġrec tifying
ĠCol or
ĠCol labor
ĠOpen Access
ĠSh an
ĠSh own
ĠSh ah
diï¬Ģeren ts
diï¬Ģeren tially
assum es
Ġblot ting
Cyclin E
AB STRACT
GD v
az aki
hyper ph
hyper sensitivity
hyper graphs
macro parasite
âī ¥
âī ł
Ġpool ed
Ġannot a
Ġrece ives
ultim ately
ĠIR S
ĠSup erfamily
ĠDifferen ces
toch ondria
Ġtranscrip tio
Ġiter ated
Ġeng aged
Ġens ue
1100 53
Ġadj a
Ġphot o
Ġpredictive power
RTK s
Ġproportion ally
PE PC
PE RFOR
Rho K
Rho GDI
che z
Ġpan els
Ġpan tothen
Ġfi re
Ġmim icked
Ġbiom arker
ĠAb ou
ĠAb normalTelomer
ĠNa Cl
ĠNa Ä±
ĠMK P
Ġcompos ing
Ġcompos ite
Ġvir al
Ġvir tually
Ġkeratin ocytem
Ġdistinguis hes
Ġimpro ves
Ġimpro ving
Ġergodic sets
degrad ed
degrad es
degrad able
Ġxi will
Ġavoid ing
Ġparticip ating
ĠZh ong
ĠZh ivotov
BK M
jec tive
link age
rem end
Ġdig iti
Ġdig estion
Ġconcept ual
chang ing
Ġprevent ed
signalling networks
Ġexplan atory
Data Rail
dec ided
dec omposable
nam es
nam ing
orig inally
orig inate
Ġpublic ly
ĠNUC lease
ĠIG HV
ĠIN TRODUCTION
ĠIs opentenyl
Ġaccum ulating
Ġaccum ulates
Ġpercentage of
consid eration
Ġcorrel ating
Ġpreser ving
Ġpreser vation
Ġquantify ing
dynamical models
ĠImmun e
Ġadvantage ous
Ġrecapit ulated
bu ffered
bec ame
cel ist
Ġast here
Ġast hes
ĠCLL s
ĠBL NK
ĠMit osis
ĠMit ochondria
oper on
upd ates
ĠGut Micro
Ġrad io
Ġrad ial
Ġelimin ates
Ġelimin ating
Stat ins
BL NK
Ġtod ep
Ġtod ecrease
Ġtod erive
Ġtod efine
Ġwr iting
Ġbroad er
ĠAss um
ĠATP ase
eth ing
eth anol
eterm in
Ġna Ã¯ve
ĠSp ent
ĠSp ry
Ġproduc tivity
Ġbythe DNA
opos itive
Ġcanbe found
ĠLe e
ĠLe aves
ĠLe arning
times teps
ĠKn own
ĠKn owl
Ġphospho enol
Ġcausal ity
Immun oblot
Ġensure d
Based onthe
Cre ERT
GC s
GC sk
Sci ence
TCR b
tol erance
uPAR signaling
Ġtw enty
Ġtw opossible
Ġtw ofold
Ġanal ysts
Ġfung us
Ġmul tivariate
Ġdark er
semb ly
Ġla ur
ĠDi rected
ï¬ĥ ï¬ĥ
ï¬ĥ cult
ĠCellNet Ana
simpl ifying
simpl elo
ĠAnti bodies
Ġsummar izing
ulnerability assessment
hypothe sized
Ġdistinguish ing
Ġdistinguish able
Col labor
SI B
SI ON
Tr x
dri ver
focus ing
ram anian
sol id
sol ute
spon se
spon ses
Ġsens ory
Ġpred efined
Ġfer rous
Ġfore lectrocompetent
ĠSte p
ĠSte fan
ĠSome where
ĠDISC USSION
ĠInhib iting
ĠInhib itors
proliferative input
occur rences
Ġlet ter
ĠUp per
ĠUp stream
ĠUp dating
ĠVal ue
ĠVal osin
Ġdefin itions
Ġdefin itely
Ġheterogene ously
66 00
Fas T
SREBP s
When ever
feren tiation
ke yp
int ensity
inï¬Ĥ uence
Ġsqu are
Ġinser ts
eli ability
amond s
Ġhierarch al
Ġexer cises
ĠPark inson
direc tions
Ġkind s
Ġkind ly
ĠIns erm
ĠIns ights
clust er
Ġenable ment
contr adic
120 3
ĠVir al
ĠVir tual
assess ing
âĪĴâĪĴ ï£«
MAL TI
biochemical pathways
downstream targets
All iance
Ġinterpret able
Ġresemb le
Ġpoly vin
ĠHeat map
Is opentenyl
Ph arm
Wh ilst
bas al
bas ins
fac es
lab ile
method ologies
power ful
tl enec
ĠÃ Ī
reconstruc tion
Ġinherent ly
Ġpi lot
Ġfeed ing
Ġfeed forward
Ġbist able
ĠAd ult
ĠAd vance
odynam ical
ĠOf course
Ġget ting
ĠBl anch
0001 1
0001 216
Ġonco genes
ĠRep rin
Ġweak er
Ġweak ened
prog nostic
Ins erm
Ins ights
Ins ummary
Inter cept
Ġscienti st
Ġscienti ï¬ģc
Ġassoci ations
Ġassoci ates
identify ing
similar ity
relationship betweenallo
presented asastuck
Ġquanti le
Ġquanti ties
Ġquanti zed
Ġchemical s
Ġlys osome
Ġrestric ts
Ġbalance between
++ ++
IKB KE
RIA EstB
Systems Biology
bacter ium
Ġaber rations
Ġspl its
Ġspl itting
Ġspl enic
Ġsatis factorily
Ġbran ched
Ġearl iest
loss ary
ĠBe ing
ĠBe issbarth
ĠBacter ium
ĠPl at
ĠPl ant
ĠMat hematically
ĠMat thew
Ġatten uate
Ġatten uating
ĠHom o
ĠHom olog
ĠHom ologous
prote ase
Ġdefec t
Ġchrom atin
Ġchrom osomes
ï¬ģrm ed
ĠComput er
Ġsynthes izing
overex press
new ly
Ġrank ed
Ġrank ing
obser v
obser vation
combinations offaults
Bioinformatics and
ĠQu an
âī¤ âī¤
03 15894
Ras GRF
Sp ain
Trans cription
Trans criptomics
eff ers
scription ally
Ã¡ lez
Ã¼ thgen
ËĨ Î¼i
ËĨ Ïĥi
Ġ# (
ĠÃ¾ ABA
Ġï¬Ĥ oral
Ġubiquit ous
Ġubiquit ously
Ġsl id
Ġsl ide
err ors
Ġpy rimidine
stochastic ity
ĠCal cium
ĠCal iforn
ĠCar diac
ĠChem iluminesc
ĠNon ACD
ĠOr dinary
ĠID s
ĠSub set
ĠSub ramanian
Ġprot ective
Ġattrac ted
Ġundergo es
Ġassign ment
uke Busch
whose vulnerability
ĠAnd rogens
Ġcontradic tion
primary inputs
primary outputsequence
Ġcorrobor ate
Mo tivation
OU TPUT
Sh ort
Sh ift
Sh rinkage
Ser um
Ser pin
With in
bound ed
diff er
diff ers
diff ering
eg iu
tag c
review s
Ġinfec tious
Ġpass ing
Ġpass age
role in
ĠAv rg
ĠAv ailabilit
ĠTreg s
lop eptidase
ĠOut puts
ĠSDM s
006 1757
ĠMc Cluskey
ĠMar tignet
Ġassemb le
emat ical
emat ology
emat opoiesis
Ġorchestr ates
ĠRal GDS
ĠDSB s
phas izing
phot osynthesis
continuous ly
Ġparadigm s
Ġ68 182
Ġmanip ulating
helminth s
ĠGroup s
Bl Ã¼thgen
Cas tration
He althy
Micro environment
Micro array
cand idates
lay out
Ġund ifferentiated
Ġ** ,
Ġaf ew
Ġaf undamental
ref ers
ref lected
ref lecting
Ġthes ecretion
Ġthes ereceptors
Ġsk in
Ġsk ills
Ġsk ewed
Ġsus pension
Ġsem ester
Ġdby IL
Ġdby anyof
Ġnutri tion
Ġnutri tional
Ġrect angul
them selves
ĠMem branes
ĠEd win
version s
version of
iored oxins
qual ine
Ġview s
plas mic
Ġimod can
Institute of
coupled receptor
Ġunre alistic
Ġunre stricte
Ġeluc idating
Ġcirc ulation
Ġcirc ulating
Ġcirc ulatory
ĠâĢĿ, âĢľ
Ġprogress ive
depicted in
Ġpolarity network
Ġimprove ment
Bo ard
Bcell Pax
Let ÏĪ
MK Ps
Met abolic
OM ERASE
must bed
syn onym
Âª The
Ġinoc ulating
ana Pelayo
rog ression
Ġmuc osal
Ġdimer ization
Ġdimer isation
ĠAmong st
Ġnic otinamide
ĠBo o
ĠBo er
Ġexpon ent
Ġlip ocalin
Ġcomplic ating
tothe dat
ĠGC s
ĠGreen half
Ġcomb at
Ġcomb ating
206 48
Ġauto immunity
Ġautom ati
2005 14
Ġoxid ized
Ġoxid ants
Ġoxid ativestress
metabol ite
ancers ignaltransductionnetwork
combinatorial therapy
ĠPharmac ol
ĠPharmac odynamic
provided theoriginal
ï£·ï£·ï£·ï£· ï£·ï£·ï£·
#### ##
parenleft Big
Ġanalog y
Ġanalog ue
Differen t
Differen tial
Differen ces
DISC USSION
Sm ith
Sch ool
TO TIC
pH cand
sust ain
sust aining
yo acÃ¡n
Ġlog i
Ġage ing
erno ullis
Ġcc dB
Ġcc blr
Ġcent ered
Ġcent rifug
Ġcall s
Ġinspec ting
Ġretr ieve
stabil izes
implement ation
ĠNew ly
ĠIF NA
ĠICL s
Ġgrad ients
Ġcont ents
ĠPrim ers
ibr ated
ĠFactor s
Ġcompart men
Ġcanal iz
ĠRT Ks
forthe treatment
Ġtransform s
Ġapop lastic
Ġapop last
Ġapop tosome
expl ains
ĠLight Shift
contrib utes
Ġcoinc ident
Ġscal able
coun ting
Ġsevere ly
Ġampl i
Ġampl ified
Ġampl itude
Ġremark ably
Ġorigin ate
Ġorigin ated
Ġbuff ering
Ġpriori tization
consisten cy
ĠÃĤ a
ĠÃĤ lez
Ġrepeated ly
113 9
Ass ociated
CO MPUTAT
CEBP beta
DC II
Str ains
Str ikingly
Up stream
Up regulate
Up date
aRg SagAM
aONd jaT
cen etwork
cen ario
car diac
car ried
car bfix
cam k
faults is
gover n
gover ned
gover ns
iy ama
tu ations
xj f
Â½ 0
Ġ? !
internal ization
Ġcave olin
Ġfav oring
Ġmigr ates
Ġbr ackets
Ġdim acs
Ġdim ethyl
Ġduplic ate
arrest in
arrest ed
omal ies
Ġprov ision
abnormal ityand
Ġexempl ified
ĠMod ulator
Ġasyn ch
Ġasyn chron
Ġasyn chro
ĠERA B
ĠRPM I
Ġattack ed
Ġtransloc ates
Ġinterrup ts
Ġinterrup ted
Ġinterrup ting
Ġ|( (
Ġaden yl
Integr in
Integr ated
Ġdetect able
complement ofthe
TION S
ĠÎ³Î³Î³ Î³R
ĠPhosph orylation
ĠPhosph orylated
correspond sto
targeted drugintervention
targeted therapies
ĠBiot ech
ĠBiot echnol
confirm s
confirm ing
Ġosmotic ally
And rogens
DNF PS
Man tilla
NP YY
Sub system
Sub systems
fit ted
gran ulosa
need s
pr ise
typ ep
typ ically
vir tual
vulnerability ofan
vulnerability ofthenode
xx FG
Ġcarcin ogenesis
Ġmature d
Ġbring s
ĠADP Rc
Ġrevers al
Ġrevers ibility
ĠOb served
Ġisnot ed
ĠBuff y
Ġ=( (
ĠPar ameters
ĠMacro phage
ĠFour quet
ĠFunc tional
ĠThef igure
apes try
ĠRel A
ĠRem y
ĠRem ark
Ġweb site
ĠDen mark
ĠDef ine
ĠDef ining
ĠInc ubation
ĠInc itatif
ĠThrough out
formal isms
ATION S
cons ensus
cons ecutively
Ġinfil trate
withthe result
ĠStat istics
Ġplcg b
ĠProb ability
ĠProb ably
ĠProb lem
ĠProb abilistic
prevent ing
bbre viation
Ġemphas ized
Ġemphas ize
ĠBNM s
discre tization
display ed
blast oma
Ġcollabor a
Ġcollabor ative
author informationisavailable
Ġheterodimer isation
sufficient ly
parenrightbig g
resistance mechanisms
Ġexponential ly
parenleftbig g
223 2012
Mc Culloch
Mc Cluskey
My osin
Open Access
Rel ative
Sc ore
ee ing
pend encies
run s
run ning
rsk erk
rather than
sent ation
tre nd
tus sis
investig ation
investig ated
reach ability
Ġov ary
annot ations
isch ler
Ġple ase
Ġfa of
Ġfo od
Ġfem ales
Ġmen tion
Ġdil uted
Ġdil utions
arti te
Ġreduc tions
Ġreduc tive
ĠTi plaxtinin
ĠTarget s
ĠTTSS II
ĠNC BI
Ġster ile
Ġster oid
Ġster oids
ĠIll ustration
ĠSm ac
ĠSm artDraw
thel ikar
Ġconser ve
Ġconcurrent ly
Ġconcaten ated
ĠPa ula
0034 9
0034 999
ĠMe asure
ĠEqu ations
ĠEqu ivalence
ĠEffec t
ĠEffec ts
ĠEffec tive
emerg ent
opro teins
optim ization
ĠDia gnos
Ġtransduc ers
1089 33
Ġenumer ate
Ġenumer ating
Ġneut ro
Ġloading s
ĠUl rike
cover ing
Ġhex ose
community to
Ġspeed s
canbe activate
ĠExt ensive
ĠExt Pump
Ġdeline ated
across all
INOU Z
calc ulations
ĠReg ion
IFNg R
Ġmanif old
ĠChrist ine
ĠChrist opher
BioMed Central
ĠTranscription al
arrows denote
Ã¡n dez
Ġexecution er
demonstr ate
vextenddouble ÏĪ
Cub e
Fyn Lck
Full listof
LIH s
Qu antitative
Qu antifying
Some times
Val idation
bere tal
did notchan
effic iency
fib roblasts
glut amate
lac Z
modelling approach
pur ple
post translational
rink ing
success ors
Ġign oring
Ġsor ted
Ġsure ly
enh ancer
enh ancers
orough ly
Ġcul tivation
Ġing Information
Ġpat ched
lement ed
Ġfil ter
Ġdy e
Ġdot s
ĠAnaly ser
ĠAnaly zer
Ġnitro cellulose
aspec ific
Ġretain s
aciÃ³n Tec
stat istically
ĠSY BR
ĠSY STEM
Ġhisto logy
ĠBel ow
Ġproï¬ģ les
ĠPos sible
ĠMech anism
ĠMech anisms
umb old
api ens
rie ï¬Ĥy
ĠIncre ase
ĠIncre ased
ĠIncre ases
plant ation
ĠLin de
Ġneur ite
Ġneur ites
Ġneur onal
cytos ol
âĪ¨ âĪ¨
Ġunam biguous
ĠKr aus
ĠKr umsie
Ġarri ved
Ġartif acts
deh y
scienti st
Ġautomat anetwork
foreach ofthe
foreach output
Ġelic ited
Ġmicrosc op
Ġmicrosc ope
Ġambig uities
Through put
Ġconfer red
Ġconfer ring
ĠAnn emari
Ġclin ic
interacting partners
ĠGeneral ized
Ġï¬ģg ure
obtain arandom
ĠÂ§ Â§
Ġdiag nosed
ĠImage J
Ġdidnot trigger
Ġdistinc tive
Ġtempor ary
coli were
fragment ation
Ġsustain cell
visual ized
visual ization
Ġflip s
Edited by
faulty circuit
Ġadjust ed
Ġadjust ments
ĠKnock out
Ġpolynom ials
Aktp athways
Ġelectroph ores
Ġprolifer at
Ġprolifer ating
112 4
Atrboh D
Chem Chains
Def ine
Def inition
Ga q
HS PA
Iden tifying
MS igDB
Mal ate
Non ACD
Over all
Predic ts
Predic ting
Ral BP
Ral GDS
aR t
benef it
cut off
cut aneous
dÃ° cPARP
few est
gut microbiom
my tochondria
sur rounding
Ġut most
Ġell ipses
Ġâī ¥
Ġair bor
Ġakt d
repe titions
atthe location
atthe endofthe
Ġsom ething
enetwork modelpaper
Ġcam k
Ġcopy right
Ġinduc tors
Ġofall genes
Ġwarran ts
Ġbed erived
Ġda unting
Ġds RNA
[...]
