{"<pad>":0,"<eos>":1,"<s>":2,"<unk>":3,"<mask>":4,"!":5,"\"":6,"#":7,"$":8,"%":9,"&":10,"'":11,"(":12,")":13,"*":14,"+":15,",":16,"-":17,".":18,"/":19,"0":20,"1":21,"2":22,"3":23,"4":24,"5":25,"6":26,"7":27,"8":28,"9":29,":":30,";":31,"<":32,"=":33,">":34,"?":35,"@":36,"A":37,"B":38,"C":39,"D":40,"E":41,"F":42,"G":43,"H":44,"I":45,"J":46,"K":47,"L":48,"M":49,"N":50,"O":51,"P":52,"Q":53,"R":54,"S":55,"T":56,"U":57,"V":58,"W":59,"X":60,"Y":61,"Z":62,"[":63,"\\":64,"]":65,"^":66,"_":67,"`":68,"a":69,"b":70,"c":71,"d":72,"e":73,"f":74,"g":75,"h":76,"i":77,"j":78,"k":79,"l":80,"m":81,"n":82,"o":83,"p":84,"q":85,"r":86,"s":87,"t":88,"u":89,"v":90,"w":91,"x":92,"y":93,"z":94,"{":95,"|":96,"}":97,"~":98,"¡":99,"¢":100,"£":101,"¤":102,"¥":103,"¦":104,"§":105,"¨":106,"©":107,"ª":108,"«":109,"¬":110,"®":111,"¯":112,"°":113,"±":114,"²":115,"³":116,"´":117,"µ":118,"¶":119,"·":120,"¸":121,"¹":122,"º":123,"»":124,"¼":125,"½":126,"¾":127,"¿":128,"À":129,"Á":130,"Â":131,"Ã":132,"Ä":133,"Å":134,"Æ":135,"Ç":136,"È":137,"É":138,"Ê":139,"Ë":140,"Ì":141,"Í":142,"Î":143,"Ï":144,"Ð":145,"Ñ":146,"Ò":147,"Ó":148,"Ô":149,"Õ":150,"Ö":151,"×":152,"Ø":153,"Ù":154,"Ú":155,"Û":156,"Ü":157,"Ý":158,"Þ":159,"ß":160,"à":161,"á":162,"â":163,"ã":164,"ä":165,"å":166,"æ":167,"ç":168,"è":169,"é":170,"ê":171,"ë":172,"ì":173,"í":174,"î":175,"ï":176,"ð":177,"ñ":178,"ò":179,"ó":180,"ô":181,"õ":182,"ö":183,"÷":184,"ø":185,"ù":186,"ú":187,"û":188,"ü":189,"ý":190,"þ":191,"ÿ":192,"Ā":193,"ā":194,"Ă":195,"ă":196,"Ą":197,"ą":198,"Ć":199,"ć":200,"Ĉ":201,"ĉ":202,"Ċ":203,"ċ":204,"Č":205,"č":206,"Ď":207,"ď":208,"Đ":209,"đ":210,"Ē":211,"ē":212,"Ĕ":213,"ĕ":214,"Ė":215,"ė":216,"Ę":217,"ę":218,"Ě":219,"ě":220,"Ĝ":221,"ĝ":222,"Ğ":223,"ğ":224,"Ġ":225,"ġ":226,"Ģ":227,"ģ":228,"Ĥ":229,"ĥ":230,"Ħ":231,"ħ":232,"Ĩ":233,"ĩ":234,"Ī":235,"ī":236,"Ĭ":237,"ĭ":238,"Į":239,"į":240,"İ":241,"ı":242,"Ĳ":243,"ĳ":244,"Ĵ":245,"ĵ":246,"Ķ":247,"ķ":248,"ĸ":249,"Ĺ":250,"ĺ":251,"Ļ":252,"ļ":253,"Ľ":254,"ľ":255,"Ŀ":256,"ŀ":257,"Ł":258,"ł":259,"Ń":260,"Ġt":261,"in":262,"čĊ":263,"Ġa":264,"he":265,"re":266,"on":267,"at":268,"Ġ(":269,"Ġthe":270,"Ġo":271,"Ġs":272,"er":273,"ti":274,"en":275,"or":276,"al":277,"Ġc":278,"Ġ)":279,"ed":280,"es":281,"Ġin":282,"Ġof":283,"an":284,"is":285,"Ġp":286,"el":287,"Ġan":288,"ion":289,"ro":290,"le":291,"Ġw":292,"it":293,"ing":294,"ic":295,"Ġf":296,"Ġm":297,"Ġb":298,"Ġd":299,"ĠA":300,"et":301,"Ġand":302,"Ġn":303,"ation":304,"ar":305,"as":306,"Ġre":307,"ac":308,"ul":309,"tion":310,"od":311,"Ġto":312,"ent":313,"Ġe":314,"ig":315,"ĠT":316,"om":317,"ec":318,"st":319,"Ġth":320,"im":321,"ND":322,"ut":323,"ĠAND":324,"lo":325,"ĠĠ":326,"ĠC":327,"ĠN":328,"us":329,"res":330,"Ġst":331,"ur":332,"ly":333,"ell":334,"un":335,"ĠčĊ":336,"ve":337,"ĠO":338,"ĠI":339,"Ġis":340,"ĠS":341,"ter":342,"am":343,"the":344,"etw":345,"Ġh":346,"Ġg":347,"os":348,"uc":349,"Ġcon":350,"odel":351,"ĠB":352,"ork":353,"il":354,"ĠNO":355,"id":356,"Ġpro":357,"ab":358,"ĠNOT":359,"Ġ=":360,"ot":361,"Ġal":362,"Ġex":363,"Ġ1":364,"ate":365,"ol":366,"Ġfor":367,"ĠP":368,"00":369,"ĠM":370,"ĠOR":371,"ere":372,"Ġas":373,"etwork":374,"ĠE":375,"ce":376,"Ġthat":377,"if":378,"Ġmodel":379,"ith":380,"ow":381,"Ġbe":382,"ib":383,"omp":384,"Ġon":385,"Ġcell":386,"tiv":387,"âĢ":388,"se":389,"Ġl":390,"GF":391,"ver":392,"Ġac":393,"em":394,"Ġ2":395,"ĠF":396,"nal":397,"ated":398,"Ġby":399,"um":400,"Ġare":401,"pres":402,"Ġnetwork":403,"ical":404,"ay":405,"ran":406,"ĠThe":407,"te":408,"log":409,"Ġwith":410,"ure":411,"Ġ[":412,"op":413,"ir":414,"tor":415,"ts":416,"tions":417,"io":418,"ad":419,"tic":420,"tr":421,"ap":422,"ity":423,"Ġor":424,"up":425,"ations":426,"qu":427,"ge":428,"ain":429,"and":430,"ted":431,"Ġcomp":432,"Ġcan":433,").":434,"gul":435,"ĠR":436,"per":437,"rom":438,"ri":439,"Ġnod":440,"ment":441,"rans":442,"Ġwe":443,"Ġv":444,"ator":445,"ĠD":446,"ath":447,"Ġres":448,"pec":449,"to":450,"duc":451,"ignal":452,"Ġat":453,"und":454,"yn":455,"ates":456,"Ġactiv":457,"ole":458,"di":459,"ĠG":460,"red":461,"Ġk":462,"Ġgen":463,"Ġwh":464,"ep":465,"ati":466,"th":467,"ĠH":468,"sion":469,"].":470,"Ġ0":471,"Ġus":472,"ch":473,"ase":474,"pon":475,"ĠIn":476,"for":477,"ess":478,"ich":479,"GFR":480,"yp":481,"ther":482,"cl":483,"Ġfrom":484,"vel":485,"Ġtrans":486,"10":487,"iz":488,"Ġit":489,"able":490,"ph":491,"Ġinter":492,"actor":493,"ug":494,"pro":495,"ĠTh":496,"ore":497,"ach":498,"put":499,"Ġsignal":500,"Ġpath":501,"ents":502,"iff":503,"yst":504,"way":505,"tive":506,"oc":507,"fec":508,"Ġsim":509,"ies":510,"ystem":511,"ant":512,"Ġregul":513,"eren":514,"Ġnot":515,"Ġle":516,"sis":517,"igh":518,"of":519,"Ġwas":520,"Ġthis":521,"logical":522,"pl":523,"Ġstate":524,"Ġ|":525,"tein":526,"Ġcells":527,"our":528,"oole":529,"oolean":530,"Ġwhich":531,"ative":532,"own":533,"ine":534,"),":535,"Ġde":536,"ata":537,"Ġap":538,"ĠĠĠ":539,"ĠIL":540,"ub":541,"Ġr":542,"ding":543,"atory":544,"iv":545,"Ġsh":546,"unc":547,"Ġ3":548,"ple":549,"ynam":550,"form":551,"low":552,"ence":553,"Ġper":554,"ĠâĢ":555,"Ġdis":556,"01":557,"pression":558,"tial":559,"por":560,"ĠĠĠĠ":561,"Ġwere":562,"ifferen":563,"hen":564,"ĠW":565,"Ġnodes":566,"AT":567,"hib":568,"aly":569,"Ġen":570,"ex":571,"ary":572,"Ġspec":573,"Ġet":574,"Ġcy":575,"gen":576,"ting":577,"age":578,"âĢĻ":579,"Ġpathway":580,"ular":581,"Ġim":582,"ave":583,"ue":584,"ĠL":585,"con":586,"ber":587,"Ġsystem":588,"Ġinterac":589,"str":590,"igure":591,"ĠBoolean":592,"rb":593,"ud":594,"ges":595,"logy":596,"ĠEGFR":597,"gr":598,"13":599,"The":600,"rip":601,"Ġne":602,"tim":603,"Ġanaly":604,"ous":605,"ally":606,"crip":607,"ved":608,"Ġall":609,"perim":610,"een":611,"Ġch":612,"tain":613,"Ġdifferen":614,"ast":615,"ï¬":616,"Ġ4":617,"here":618,"Ġhave":619,"tractor":620,"Ġdynam":621,"out":622,"tos":623,"Ġtim":624,"Ġsimul":625,"Ġrepres":626,"Ġnode":627,"wo":628,"under":629,"Ġprotein":630,"Ġab":631,"rbB":632,".,":633,"ia":634,"Ġstates":635,"ffec":636,"mal":637,"ition":638,"cre":639,"ype":640,"Ġ5":641,"Ġinhib":642,"ely":643,"12":644,"so":645,"Ġpar":646,"hem":647,"Ġkn":648,"Ġeach":649,"ers":650,"ome":651,"av":652,"ating":653,"ack":654,"tro":655,"uch":656,"etween":657,"Ġco":658,"Ġone":659,"Ġexpression":660,"vid":661,"Ġexperim":662,"pos":663,"end":664,"Ġresul":665,"Ġset":666,"11":667,"cess":668,"ugh":669,"Ġrespon":670,"Ġactivation":671,"Ġval":672,"Ġob":673,"NA":674,"Ġfunc":675,"ever":676,"abil":677,"Ġunder":678,"erm":679,"Ġhas":680,"bi":681,"oin":682,"Ġour":683,"tur":684,"ĠThis":685,"Ġtwo":686,"Ġad":687,"rec":688,"AP":689,"ong":690,"Ġdata":691,"Ġcom":692,"Ġattractor":693,"redic":694,"respon":695,"Ġmet":696,"cription":697,"Ġph":698,"ww":699,"ased":700,"ĠCD":701,"Ġi":702,"Ġtime":703,"ill":704,"Ġsignaling":705,"tosis":706,"NF":707,"cy":708,"Ġthese":709,"ile":710,"Ġup":711,"ign":712,"Ġother":713,"OS":714,"Ġpos":715,"cep":716,"ĠPI":717,"ail":718,"tif":719,"ost":720,"Ġrepresent":721,"esc":722,"iology":723,"ance":724,"Ġgene":725,"tin":726,"Ġalso":727,"Ġits":728,"optosis":729,"ak":730,"Ġbeen":731,"cell":732,"âĪ":733,"AK":734,"Ġbetween":735,"ser":736,"ust":737,"Ġcor":738,"ific":739,"Ġnetworks":740,"EGFR":741,"Ġspecies":742,"Ġanalysis":743,"Ġdynamic":744,"bin":745,"Ġlo":746,"ari":747,"dition":748,"duced":749,"her":750,"ĠJ":751,"uld":752,"Ġregulatory":753,"mun":754,"In":755,"are":756,"Ġinput":757,"Ġro":758,"ree":759,"iron":760,"oth":761,"ard":762,"eed":763,"Ġeffec":764,"ĠU":765,"Ġsc":766,"duction":767,"Ġno":768,"ech":769,"ĠWe":770,"IL":771,"ism":772,"hod":773,"Ġdet":774,"Ġonly":775,"Ġ201":776,"Ġgenes":777,"Ġlogical":778,"ible":779,"Ġused":780,"ï¬ģ":781,"ĠV":782,"Ġfactor":783,"Ġcomple":784,"Ġpredic":785,"ron":786,"Ġ6":787,"activ":788,"comp":789,"umber":790,"rib":791,"Ġsuch":792,"Ġass":793,"rap":794,"co":795,"Ġbio":796,"Ġun":797,"est":798,"turb":799,"led":800,"ens":801,"Ġinto":802,"acter":803,"trol":804,"Ġsub":805,"cle":806,"Ġexperiment":807,"aus":808,"get":809,"sid":810,"Ġinhibit":811,"escrib":812,"CD":813,"ied":814,"ead":815,"ss":816,"ip":817,"Ġresponse":818,"iden":819,"cer":820,"Ġgro":821,"timul":822,"utation":823,"ĠK":824,"las":825,"Ġcompon":826,"Ġar":827,"Ġpres":828,"Ġout":829,"ingle":830,"Ġev":831,"ose":832,"Ġind":833,"TAT":834,"ix":835,"regul":836,"Ġbut":837,"ild":838,"71":839,"Ġ200":840,"ial":841,"Ġpoin":842,"Ġdifferent":843,"cent":844,"ues":845,"ight":846,"icro":847,"ĠFigure":848,"ox":849,"Ġ.":850,"Ġme":851,"ases":852,"Ġse":853,"tern":854,"Ġinf":855,"Ġusing":856,"ious":857,"epend":858,"ability":859,"ses":860,"hed":861,"Ġini":862,"cor":863,"Ġlevel":864,"Ġwhere":865,"sed":866,"edi":867,"AS":868,"RK":869,"ff":870,"Ġnumber":871,"Ġtheir":872,"Ġhe":873,"formation":874,"ag":875,"hav":876,"Ġpathways":877,"struc":878,"100":879,"yl":880,"Ġ/":881,"Ġmodels":882,"Ġinteractions":883,"Ġ,":884,"ame":885,"Ġqu":886,"âĢĵ":887,"PL":888,"Ġrel":889,"ample":890,"port":891,"ound":892,"ĠBiology":893,"velop":894,"CC":895,"Ġy":896,"fter":897,"sible":898,"ypes":899,"Ġinv":900,"model":901,"ized":902,"Ġfunction":903,"ual":904,"Ġthere":905,"trib":906,"ock":907,"ErbB":908,"],":909,"Ġdi":910,"Ġstr":911,"Ġiden":912,"Ġshow":913,"Ġer":914,"ization":915,"Ġresults":916,"Ġobser":917,"eady":918,"ĠFig":919,"Ġtranscription":920,"Ġtr":921,"act":922,"45":923,"one":924,"osph":925,"owever":926,"21":927,"ties":928,"ult":929,"Ġsingle":930,"Ġpre":931,"Figure":932,"ĠÎ":933,"com":934,"de":935,"Ġincl":936,"Ġcorrespon":937,"nec":938,"arget":939,"rough":940,"olec":941,"BA":942,"ind":943,"ature":944,"Ġboth":945,"ive":946,"Ġinitial":947,"Ġ7":948,"ceptor":949,"FN":950,"ines":951,"Ġmod":952,"Ġprocess":953,"Ġcontrol":954,"ĠFor":955,"20":956,"sc":957,"ond":958,"ules":959,"ress":960,"Ġcomplex":961,"network":962,"Ġappro":963,"reat":964,"Ġmore":965,"rug":966,"ĠErbB":967,"Ġbiological":968,"ym":969,"org":970,"Ġperturb":971,"urther":972,"Ġbehav":973,"Ġcombin":974,"Ġ8":975,"Ġinteraction":976,"anism":977,"los":978,"ĠCell":979,"ling":980,"ces":981,"jour":982,"ered":983,"journal":984,"back":985,"0000":986,"les":987,"Ġdo":988,"Ġ10":989,"ollow":990,"Ġform":991,"Ġcomponents":992,"IR":993,"Ġ).":994,"do":995,"ior":996,"Ġexperimental":997,"ient":998,"uk":999,"rect":1000,"Ġmethod":1001,"Ġhigh":1002,"Ġlead":1003,"henot":1004,"Ġed":1005,"Ġaut":1006,"tit":1007,"Ġdescrib":1008,"Ġsteady":1009,"ide":1010,"ist":1011,"ie":1012,"Ġstimul":1013,"Fig":1014,"fore":1015,"with":1016,"ential":1017,"Ġstud":1018,"ik":1019,"Ġwild":1020,"Ġactivity":1021,"Ġgener":1022,"vers":1023,"raph":1024,"17":1025,"Ġdevelop":1026,"Ġshown":1027,"eedback":1028,"Ġsup":1029,"Ġmay":1030,"art":1031,"Ġover":1032,"lec":1033,"its":1034,"Ġwhen":1035,"ĠComp":1036,"tical":1037,"Ġchan":1038,"CR":1039,"tp":1040,"Ġel":1041,"Ġconsid":1042,"ck":1043,"ined":1044,"ival":1045,"1371":1046,"arch":1047,"Ġred":1048,"olum":1049,"ĠâĢĵ":1050,"Ġidentif":1051,"inal":1052,"Ġwell":1053,"Ġmicro":1054,"iven":1055,"lis":1056,"val":1057,"âĨ":1058,"Ġam":1059,"Ġgraph":1060,"pha":1061,"nod":1062,"EGF":1063,"19":1064,"ormal":1065,"omat":1066,"ixed":1067,"type":1068,"Ġ9":1069,"irst":1070,"not":1071,"Ġproteins":1072,"itive":1073,"CA":1074,"nt":1075,"tiation":1076,"see":1077,"Ġlar":1078,"Ġimmun":1079,"18":1080,":/":1081,"ditions":1082,"utational":1083,"Ac":1084,"ite":1085,"amm":1086,"Ġsimulations":1087,"lif":1088,"ttp":1089,"ors":1090,"âĨĴ":1091,"Ġmut":1092,"Ġknock":1093,"ĠABA":1094,"Ġindic":1095,"Ġsec":1096,"Ġdec":1097,"Ġreceptor":1098,"Ġvari":1099,"plic":1100,"Ġcycle":1101,"der":1102,"wh":1103,"Ġtarget":1104,"Ġmech":1105,"200":1106,"NK":1107,"be":1108,"Ġinformation":1109,"Ġprovid":1110,"Ġexample":1111,"by":1112,"ins":1113,"eration":1114,"ĠON":1115,"ize":1116,"Ġinvol":1117,"ĠAp":1118,"ĠSt":1119,"RB":1120,"Ġafter":1121,"ĠCa":1122,"Ġeffect":1123,"MC":1124,"action":1125,"fection":1126,"vious":1127,"wth":1128,"38":1129,"Th":1130,"ey":1131,"Ġif":1132,"qui":1133,"Ġvalues":1134,"Ġmolec":1135,"Ġthan":1136,"Ġuse":1137,"RE":1138,"Ġanti":1139,"Ġfollow":1140,"Ġdynamics":1141,"KB":1142,"ture":1143,"Ġphenot":1144,"ĠAK":1145,"Ġconf":1146,"ten":1147,"plement":1148,"Ġrem":1149,"very":1150,"Ġdeterm":1151,"that":1152,"Ġpossible":1153,"14":1154,"tegr":1155,"Ġstudy":1156,"://":1157,"Ġthen":1158,"Ġpl":1159,"Ġwill":1160,"chron":1161,"Ġinfl":1162,"reatment":1163,"GL":1164,"Ġfactors":1165,"ni":1166,"ould":1167,"ution":1168,"Ġsign":1169,"Ġint":1170,"Ġfound":1171,"ĠNF":1172,"ucle":1173,"centr":1174,"set":1175,"viron":1176,"Ġsyn":1177,"Ġany":1178,"Ġfeedback":1179,"Ġthrough":1180,"Ġapoptosis":1181,"Ġneg":1182,"Ġpresent":1183,"Ġop":1184,"stre":1185,"Ġregulation":1186,"RA":1187,"all":1188,"istic":1189,"tively":1190,"ause":1191,"iter":1192,"Ġbec":1193,"ĠAl":1194,"Ġequ":1195,"old":1196,"âĢĻâĢĻ":1197,"APK":1198,"IP":1199,"cur":1200,"sim":1201,"ternal":1202,"ĠAKT":1203,"vironment":1204,"trans":1205,"Ġx":1206,"Ġconditions":1207,"Ġcycl":1208,"attern":1209,"other":1210,"ocy":1211,"Ġattractors":1212,"ĠCC":1213,"201":1214,"ough":1215,"Ġsp":1216,"ited":1217,"ulti":1218,"Ġbehavior":1219,"ï£":1220,"Ġ-":1221,"Ġtransition":1222,"tained":1223,"53":1224,"can":1225,"uous":1226,"Ġthey":1227,"ĠPIP":1228,"kn":1229,"Ã¾":1230,"Ġincre":1231,"udi":1232,"ĠSTAT":1233,"ilar":1234,"ators":1235,"stream":1236,"15":1237,"ĠPro":1238,"Boolean":1239,"LGL":1240,"Ġmat":1241,"ark":1242,"asure":1243,"gene":1244,"ven":1245,"ise":1246,"Ġdrug":1247,"Ġallow":1248,"Ġobserved":1249,"pressed":1250,"26":1251,"ĠHowever":1252,"ugges":1253,"Ġphosph":1254,"Ġiron":1255,"Ġfixed":1256,"Ġprob":1257,"ĠPK":1258,"Ġdef":1259,"âĪŀ":1260,"Ġav":1261,"ute":1262,"tok":1263,"ystems":1264,"Ġimport":1265,"liferation":1266,"ae":1267,"ĠCA":1268,"ĠIFN":1269,"Ġdiscre":1270,"Ġmechanism":1271,"ove":1272,"Ġmain":1273,"Ġbased":1274,"ically":1275,"chronous":1276,"ared":1277,"level":1278,"ĠAn":1279,"23":1280,"RP":1281,"ology":1282,"Ġmost":1283,"Ġrequi":1284,"ext":1285,"ne":1286,"Ġ!":1287,"protein":1288,"Ġloop":1289,"ffic":1290,"TGF":1291,"Ġgiven":1292,"Ġconnec":1293,"ependent":1294,"Ġinclud":1295,"Ġtype":1296,"any":1297,"uring":1298,"Ġcellular":1299,"ĠDNA":1300,"ĠApoptosis":1301,"Ġschem":1302,"ASP":1303,"lished":1304,"ĠX":1305,"til":1306,"PA":1307,"ics":1308,"âĢĺ":1309,"Ġfunctions":1310,"sh":1311,"signal":1312,"Ġdown":1313,"igur":1314,"Ġstep":1315,"ĠEx":1316,"pre":1317,"path":1318,"alit":1319,"ass":1320,"Ġsystems":1321,"ule":1322,"ÂĪ":1323,"Ġsame":1324,"Ġcl":1325,"ollec":1326,"erest":1327,"Ġknown":1328,"Ġgrowth":1329,"PLOS":1330,"mon":1331,"pc":1332,"spec":1333,"Ġag":1334,"stand":1335,"Ġthree":1336,"Ġaddition":1337,"tinuous":1338,"ukem":1339,"Ġimmune":1340,"bb":1341,"ince":1342,"Ġsome":1343,"Ġfirst":1344,"www":1345,"Ġpoint":1346,"func":1347,"min":1348,"Ġofthe":1349,"active":1350,"Ġwhile":1351,"Ġpattern":1352,"ults":1353,"Ġconver":1354,"mall":1355,"Ġcould":1356,"ax":1357,"over":1358,"och":1359,"yper":1360,"Ġsugges":1361,"sequ":1362,"Ġrespec":1363,"ailable":1364,"Ġrole":1365,"work":1366,"ĠTable":1367,"ade":1368,"Ġcancer":1369,"Ġlarge":1370,"IS":1371,"ures":1372,"inter":1373,"ither":1374,"amet":1375,"70":1376,"Ġref":1377,"imal":1378,"abol":1379,"ĠModel":1380,"OR":1381,"Ġmedi":1382,"ace":1383,"doi":1384,"Ġnegative":1385,"pcbi":1386,"rim":1387,"alization":1388,"Ġcir":1389,"Ġmulti":1390,"aracter":1391,"Ġactive":1392,"Ġactivated":1393,"We":1394,"ds":1395,"Ġran":1396,"Ġtreatment":1397,"Ġdes":1398,"ported":1399,"Ġdynamical":1400,"Ġupd":1401,"Ġinvolved":1402,"Table":1403,"par":1404,"stit":1405,"Ġindi":1406,"ĠMC":1407,"owled":1408,"oci":1409,"ink":1410,"ĠTo":1411,"Ġstudi":1412,"ables":1413,"ĠERK":1414,"Ġspecific":1415,"Ġsimulation":1416,"Ġcase":1417,"ĠNetwork":1418,"Ġinhibition":1419,"tal":1420,"duce":1421,"vely":1422,"99":1423,"oryl":1424,"formed":1425,"âĪĴ":1426,"Ġprevious":1427,"owledge":1428,"ci":1429,"eb":1430,"Ġliter":1431,"hemat":1432,"Ġgroup":1433,"KK":1434,"Ġhow":1435,"Ġcytok":1436,"Ġnew":1437,"olume":1438,"CY":1439,"og":1440,"Ġlow":1441,"Ġmin":1442,"Ġnon":1443,"Ġoutput":1444,"Ġmeasure":1445,"aj":1446,"Ġsignalling":1447,"Ġapproach":1448,"FF":1449,"STAT":1450,"bust":1451,"ities":1452,"ys":1453,"which":1454,"LR":1455,"ful":1456,"amage":1457,"Ġerbb":1458,"50":1459,"iR":1460,"Ġtypes":1461,"Ġbas":1462,"Ġvalue":1463,"ĠVolume":1464,"ucleus":1465,"TGFa":1466,"Ġcle":1467,"actions":1468,"Ġpropos":1469,"medi":1470,"tent":1471,"Ġ&":1472,"state":1473,"Ġthus":1474,"Ġline":1475,"Ġpoints":1476,"Ġkey":1477,"vidual":1478,"Ġknockout":1479,"16":1480,"CL":1481,"ĠAc":1482,"Ġnormal":1483,"arly":1484,"urv":1485,"Ġmodeling":1486,"ways":1487,"ĠâĢĺ":1488,"UC":1489,"uz":1490,"Ġleukem":1491,"ĠComputational":1492,"Ġconfigur":1493,"east":1494,"itions":1495,"Ġu":1496,"Ġfurther":1497,"ulation":1498,"construc":1499,"TP":1500,"cu":1501,"ily":1502,"ogen":1503,"Ġsmall":1504,"everal":1505,"28":1506,"high":1507,"ian":1508,"Ġduring":1509,"Ġnec":1510,"ĠThese":1511,"trac":1512,"iffic":1513,"Ġlevels":1514,"Ġcorresponding":1515,"Ġelem":1516,"46":1517,"af":1518,"rc":1519,"Ġem":1520,"omata":1521,"ĠCon":1522,"Ġstable":1523,"42":1524,"EM":1525,"inhib":1526,"ector":1527,"22":1528,"CS":1529,"MP":1530,"Ġbin":1531,"Ġrules":1532,"activation":1533,"omatal":1534,"Ġimportant":1535,"alitative":1536,"Ġdep":1537,"ĠIt":1538,"Ġhyper":1539,"Ġedges":1540,"Ġavailable":1541,"oid":1542,"ĠY":1543,"rest":1544,"rent":1545,"ision":1546,"Ġstress":1547,"ĠPP":1548,"tribution":1549,"bet":1550,"Ġwww":1551,"ĠMAPK":1552,"Ġstruc":1553,"ociated":1554,"LP":1555,"SK":1556,"uding":1557,"Ġfr":1558,"ethod":1559,"Ġproper":1560,"Ġpaths":1561,"fficient":1562,"TE":1563,"rel":1564,"ering":1565,"Ġpur":1566,"ĠTGF":1567,"ĠGen":1568,"Ġsimilar":1569,"Ġ2015":1570,"Ġassum":1571,"Ġdescribed":1572,"Ġdevelopment":1573,"nodes":1574,"cus":1575,"Ġï¬ģ":1576,"ale":1577,"ico":1578,"Ġdel":1579,"acro":1580,"otential":1581,"ays":1582,"Ġexperiments":1583,"Ġpositive":1584,"nivers":1585,"present":1586,"Ġkin":1587,"atively":1588,"Ġinhibitor":1589,"http":1590,"lic":1591,"hes":1592,"environment":1593,"lym":1594,"Ġcontinuous":1595,"upplement":1596,"Ġenput":1597,"RF":1598,"ault":1599,"Ġcap":1600,"Ġmem":1601,"Ġsignals":1602,"Ġpartic":1603,"lasm":1604,"BP":1605,"IN":1606,"pa":1607,"ward":1608,"umab":1609,"ĠThere":1610,"logic":1611,"Ġcharacter":1612,"SS":1613,"hip":1614,"ants":1615,"Ġreco":1616,"igr":1617,"ĠBN":1618,"Ġ12":1619,"Ġloops":1620,"from":1621,"ves":1622,"Ġintegr":1623,"Ġreg":1624,"Ġconsis":1625,"Ġvia":1626,"function":1627,"ek":1628,"more":1629,"tes":1630,"enc":1631,"ĠAs":1632,"lying":1633,"ote":1634,"ublished":1635,"ived":1636,"Ġdirect":1637,"ammatory":1638,"Ġliterature":1639,"MA":1640,"othe":1641,"Ġhere":1642,"Ġeither":1643,"Ġparamet":1644,"biom":1645,"Ġmean":1646,"Ġperturbations":1647,"Ġdiscrete":1648,"urvival":1649,"vant":1650,"uted":1651,"Ġexpressed":1652,"Ġorig":1653,"ATA":1654,"ssue":1655,"Ġsequ":1656,"losure":1657,"dom":1658,"umm":1659,"Ġconsidered":1660,"niversity":1661,"34":1662,"MT":1663,"we":1664,"ÂĨ":1665,"ency":1666,"Ġproliferation":1667,"Ġdise":1668,"comple":1669,"Activ":1670,"52":1671,"ERK":1672,"ob":1673,"Ġinfection":1674,"Ġdamage":1675,"ĠTNF":1676,"ĠSrc":1677,"uman":1678,"essary":1679,"ificant":1680,"Ġhel":1681,"ike":1682,"PC":1683,"chem":1684,"dc":1685,"rup":1686,"Ġseveral":1687,"ort":1688,"Ġfe":1689,"ull":1690,"ĠkB":1691,"ï¬ģc":1692,"cording":1693,"Ġyeast":1694,"ric":1695,"Ġox":1696,"Ġcur":1697,"Ġmap":1698,"Ġdepend":1699,"ĠROS":1700,"though":1701,"Ġrobust":1702,"Ġinflu":1703,"24":1704,"atus":1705,"Ġthem":1706,"ertain":1707,"term":1708,"ĠPL":1709,"rix":1710,"dis":1711,"ef":1712,"Ġj":1713,"ang":1714,"Ġwork":1715,"itor":1716,"ĠSystems":1717,"Ġ11":1718,"aph":1719,"Ġmetabol":1720,"Ġpredictions":1721,"Ġterm":1722,"Ġwould":1723,"Ġstomatal":1724,"ationship":1725,"ments":1726,"expression":1727,"ake":1728,"29":1729,"kB":1730,"zer":1731,"ĠZ":1732,"Ġver":1733,"input":1734,"Ġsu":1735,"Ġhyp":1736,"Ġconstruc":1737,"ility":1738,"ified":1739,"ower":1740,"tivity":1741,"oph":1742,"Ġdetail":1743,"pe":1744,"ĠMed":1745,"gram":1746,"48":1747,"ET":1748,"plos":1749,"Ġtherap":1750,"erg":1751,"arc":1752,"Ġthose":1753,"resh":1754,"ĠIssue":1755,"opto":1756,"ĠâĢľ":1757,"Ġrepresented":1758,"Ġeffects":1759,"Ġfollowing":1760,"Ġopen":1761,"PM":1762,"top":1763,"Ġfour":1764,"ellular":1765,"ĠSP":1766,"Ġcontain":1767,"Ġorder":1768,"Ġknowledge":1769,"Ġunderstand":1770,"Ġsecond":1771,"elling":1772,"Ġalpha":1773,"graph":1774,"Ġanalyz":1775,"Ġdifferentiation":1776,"Ġvalid":1777,"Ġqualitative":1778,"Ġamong":1779,"uzumab":1780,"ethods":1781,"lymph":1782,"igration":1783,"OI":1784,"bio":1785,"cal":1786,"me":1787,"ry":1788,"sing":1789,"Ġsubset":1790,"Ġquan":1791,"biomed":1792,"BMC":1793,"bol":1794,"nucleus":1795,"ov":1796,"poin":1797,"ĠÂ":1798,"Ġoc":1799,"Ġblo":1800,"Ġreconstruc":1801,"ently":1802,"unt":1803,"ticle":1804,"ï¬Ģ":1805,"optotic":1806,"43":1807,"bl":1808,"Ġclas":1809,"ancy":1810,"Ġinputs":1811,"Ġdoes":1812,"differen":1813,"induced":1814,"Ġbacter":1815,"ĠOFF":1816,"ĠSO":1817,"cript":1818,"Ġable":1819,"ĠJNK":1820,"Ġidentify":1821,"RBB":1822,"known":1823,"Ġindividual":1824,"ajor":1825,"gor":1826,"gro":1827,"ually":1828,"Ġpotential":1829,"idative":1830,"ocus":1831,"Ġproposed":1832,"nd":1833,"itation":1834,"arn":1835,"ĠCy":1836,"Ġ15":1837,"ynchronous":1838,"Ġphosphoryl":1839,"):":1840,"ected":1841,"plied":1842,"Ġprocesses":1843,"Ġcombination":1844,"Ġremain":1845,"Ġleukemia":1846,"54":1847,"St":1848,"fer":1849,"Ġtransitions":1850,"ifficile":1851,"reshold":1852,"59":1853,"74":1854,"Ġreduced":1855,"Ġtop":1856,"ĠCl":1857,"Ġ20":1858,"ATP":1859,"cells":1860,"Ġstudies":1861,"EC":1862,"fl":1863,"ness":1864,"ental":1865,"Ġperformed":1866,"Ġobtained":1867,"Ġphase":1868,"ymbol":1869,"Ġmutant":1870,"Ġinterest":1871,"Ġcytokines":1872,"Ġoriginal":1873,"Ġoccur":1874,"27":1875,"BD":1876,"man":1877,"Ġcal":1878,"Ġhttp":1879,"000":1880,"ĠThus":1881,"IRF":1882,"Ġmechanisms":1883,"Activator":1884,"BR":1885,"difficile":1886,"Ġmit":1887,"Ġtotal":1888,"Ġlong":1889,"Ġend":1890,"Ġadd":1891,"AKT":1892,"CYT":1893,"EK":1894,"NO":1895,"Ġsurvival":1896,"ences":1897,"icted":1898,"Ġrepro":1899,"Ġprom":1900,"ĠCDK":1901,"Ġmolecular":1902,"Ġsignificant":1903,"Ġparticular":1904,"eu":1905,"ĠCT":1906,"veal":1907,"ĠRe":1908,"ource":1909,"Ġresult":1910,"Ġassociated":1911,"regulation":1912,"node":1913,"Ġphenotypes":1914,"Ġdefined":1915,"tracellular":1916,"Ġpurpos":1917,"25":1918,"CP":1919,"IFN":1920,"no":1921,"Ġes":1922,"Ġvery":1923,"analy":1924,"row":1925,"Ġbl":1926,"ulations":1927,"Ġcompared":1928,"Ġabout":1929,"activated":1930,"Ġchanges":1931,"Ġcircu":1932,"inv":1933,"Ġsel":1934,"Ġder":1935,"Ġrele":1936,"artment":1937,"Ġphenotype":1938,"ollective":1939,"DP":1940,"Ġlogic":1941,"atic":1942,"Ġosc":1943,"Ġdue":1944,"aris":1945,"astic":1946,"ĠPA":1947,"ĠEGF":1948,"ĠâĢĿ":1949,"Ġneed":1950,"Ġabove":1951,"ĠUniversity":1952,"Ġrelationship":1953,"Ġincluding":1954,"Ġcorrespond":1955,"Ġnecessary":1956,"II":1957,"bod":1958,"bran":1959,"hor":1960,"kt":1961,"Ġfin":1962,"Ġman":1963,"ĠAt":1964,"Ġcontr":1965,"ï¬Ĥ":1966,"Ġpresence":1967,"ATPase":1968,"based":1969,"iqu":1970,"hel":1971,"alpha":1972,"Ġcas":1973,"ĠSignal":1974,"Ġcondition":1975,"Ġperturbation":1976,"hematical":1977,"ĠâĢĺâĢĺ":1978,"Ġkinase":1979,"met":1980,"oS":1981,"zom":1982,"orte":1983,"Ġprim":1984,"ampl":1985,"ithm":1986,"ĠDOI":1987,"Ġstimulation":1988,"Ġchange":1989,"This":1990,"Ġbecause":1991,"Ġoscill":1992,"zomib":1993,"88":1994,"ON":1995,"ium":1996,"ater":1997,"Ġoff":1998,"ĠMY":1999,"clin":2000,"regulated":2001,"Ġdecre":2002,"Ġmatrix":2003,"Ġrequired":2004,"ortezomib":2005,"ddition":2006,"ner":2007,"plo":2008,"Ġso":2009,"Ġsize":2010,"Ġinthe":2011,"aches":2012,"Ġlim":2013,"Ġwithin":2014,"Ġabs":2015,"Ġsets":2016,"corpor":2017,"Ġobserv":2018,"urthermore":2019,"Ġleads":2020,"Ġrespectively":2021,"Ġrandom":2022,"73":2023,"TNF":2024,"ger":2025,"Ġcaus":2026,"Ġcertain":2027,"ication":2028,"asis":2029,"ĠBcl":2030,"izing":2031,"formis":2032,"ĠâĢĻ":2033,"Ġresponses":2034,"cept":2035,"central":2036,"aeformis":2037,"signaling":2038,"Ġconfigurations":2039,"cin":2040,"odic":2041,"ĠPD":2042,"ĠDC":2043,"this":2044,"Ġtransduction":2045,"grad":2046,"Ġrepresents":2047,"Ġresulting":2048,"Ġcomponent":2049,"Ġmethods":2050,"Ġgeneral":2051,"ĠTherefore":2052,"IA":2053,"tem":2054,"Ġlymph":2055,"hether":2056,"Ġcol":2057,"Ġins":2058,"Ġpower":2059,"arm":2060,"igand":2061,"ĠOur":2062,"Ġhuman":2063,"Ġ14":2064,"Ġlines":2065,"Ġ24":2066,"Ġcanalization":2067,"Ġpredicted":2068,"Ġeven":2069,"olumn":2070,"32":2071,"TI":2072,"tw":2073,"was":2074,"were":2075,"Ġ0000":2076,"Ġser":2077,"Ġsince":2078,"Ġcases":2079,"ars":2080,"ulated":2081,"Ġ16":2082,"Ġaccording":2083,"naly":2084,"ensi":2085,"Ġshows":2086,"Ġdownstream":2087,"chemical":2088,"Ġoxidative":2089,"30":2090,"56":2091,"PS":2092,"infection":2093,"reA":2094,"Ġmacro":2095,"ĠNGF":2096,"amily":2097,"ĠBio":2098,"ify":2099,"Ġorg":2100,"Ġ2012":2101,"Ġstrong":2102,"Ġredund":2103,"Ġadditional":2104,"Co":2105,"Con":2106,"det":2107,"iel":2108,"Î³":2109,"ĠâĨĴ":2110,"Ġclosure":2111,"Ġfocus":2112,"Ġreduction":2113,"abor":2114,"Ġexternal":2115,"clus":2116,"Ġsimpl":2117,"CDK":2118,"Ġindicates":2119,"Ġallows":2120,"Ġelements":2121,"EMO":2122,"Ġcurrent":2123,"biomedcentral":2124,"DNA":2125,"NUC":2126,"down":2127,"Â·":2128,"reated":2129,"alu":2130,"iss":2131,"ice":2132,"Ġmany":2133,"ĠIRF":2134,"Ġgu":2135,"ĠGATA":2136,"experim":2137,"Ġevents":2138,"ĠÎ³":2139,"Ġincluded":2140,"ĠSPN":2141,"ï¬Ģeren":2142,"gorithm":2143,"40":2144,"Page":2145,"ho":2146,"mit":2147,"ra":2148,"Ġden":2149,"states":2150,"ung":2151,"Ġprog":2152,"Ġupon":2153,"Ġrepresentation":2154,"estab":2155,"Ġevalu":2156,"Ġtargets":2157,"ĠExternal":2158,"iana":2159,"Ġproperties":2160,"upplementary":2161,"PI":2162,"iom":2163,"iï¬ģc":2164,"reg":2165,"represent":2166,"aliana":2167,"Ġmigration":2168,"Ġmajor":2169,"Ġreveal":2170,"Ġearly":2171,"Ġidentified":2172,"Ġdetermine":2173,"TEN":2174,"AL":2175,"SO":2176,"To":2177,"Ġtum":2178,"reen":2179,"Ġcar":2180,"Ġintro":2181,"Ġanother":2182,"Ġreported":2183,"Ġcontrib":2184,"Ġconcentr":2185,"Ġ18":2186,"Ġ23":2187,"amework":2188,"Ġvariables":2189,"till":2190,"Ġpatterns":2191,"Ġmultiple":2192,"Ġpreviously":2193,"Ġhypothe":2194,"dynam":2195,"ning":2196,"pir":2197,"where":2198,"Ġent":2199,"Ġaffec":2200,"Ġsuc":2201,"ense":2202,"ection":2203,"Ġthaliana":2204,"ĠCY":2205,"ĠOn":2206,"Ġext":2207,"Ġexpl":2208,"Ġbeing":2209,"ĠRec":2210,"clud":2211,"ofthe":2212,"Ġfunctional":2213,"Ġleading":2214,"Ġprovided":2215,"ĠMCs":2216,"Ġstructure":2217,"toplasm":2218,"ij":2219,"ores":2220,"infl":2221,"ately":2222,"Ġcour":2223,"Ġbel":2224,"Ġthreshold":2225,"ilico":2226,"Ġ13":2227,"phosph":2228,"Ġedge":2229,"eutic":2230,"RN":2231,"luc":2232,"Ã°":2233,"Ãŀ":2234,"heck":2235,"Ġfact":2236,"ression":2237,"ĠFox":2238,"Ġwithout":2239,"essential":2240,"response":2241,"Ġexperimentally":2242,"Ġ2009":2243,"Ġinfer":2244,"ondri":2245,"minth":2246,"Ġdisease":2247,"HK":2248,"IBD":2249,"ev":2250,"Ġinst":2251,"ross":2252,"Ġtoward":2253,"ĠCh":2254,"iles":2255,"ĠPage":2256,"ĠERBB":2257,"Ġregulators":2258,"time":2259,"ĠUn":2260,"ivalent":2261,"value":2262,"Ġprovide":2263,"Ġclear":2264,"brane":2265,"Res":2266,"cc":2267,"less":2268,"Ã©":2269,"Ġ+":2270,"anc":2271,"Ġway":2272,"press":2273,"Ġsimple":2274,"ours":2275,"inetic":2276,"Ġdistribution":2277,"Ġdisrup":2278,"Ġsimulated":2279,"Ġpart":2280,"Ġantibod":2281,"RAF":2282,"ĠPKC":2283,"Ġminimal":2284,"Ġparameters":2285,"Ġinfluence":2286,"63":2287,"SP":2288,"inally":2289,"Ġasynchronous":2290,"Ġvar":2291,"Ġapplied":2292,"genes":2293,"igned":2294,"Ġwhereas":2295,"Ġprobability":2296,"Ġphosphorylation":2297,"RNA":2298,"SA":2299,"ool":2300,"ycin":2301,"Ġunc":2302,"Ġtes":2303,"alth":2304,"ros":2305,"Ġbu":2306,"olar":2307,"ĠMore":2308,"iour":2309,"ained":2310,"Ġcannot":2311,"Ġdeath":2312,"Ġshould":2313,"output":2314,"Ġunderlying":2315,"IRAK":2316,"ĠONE":2317,"Ġclass":2318,"Ġpurposes":2319,"Cell":2320,"ST":2321,"between":2322,"card":2323,"line":2324,"system":2325,"Ġpublished":2326,"ommon":2327,"ĠCdc":2328,"ĠSim":2329,"Ġhig":2330,"Ġalgorithm":2331,"pected":2332,"Ġactivating":2333,"atients":2334,"fections":2335,"Ġleast":2336,"Ġperi":2337,"Ġ2008":2338,"CCP":2339,"combin":2340,"ĠAll":2341,"ocyte":2342,"ĠProtein":2343,"ochondri":2344,"Ġmetabolic":2345,"Ġsufficient":2346,"Ap":2347,"Ar":2348,"aT":2349,"air":2350,"predic":2351,"rk":2352,"xt":2353,"Ġfum":2354,"Ġtool":2355,"omes":2356,"ĠIg":2357,"osin":2358,"Ġlay":2359,"Ġabund":2360,"Ġtranscriptional":2361,"omaton":2362,"Ġagain":2363,"ochastic":2364,"Ġterms":2365,"zero":2366,"33":2367,"BI":2368,"Cy":2369,"MY":2370,"SF":2371,"Ġtest":2372,"tig":2373,"Ġfault":2374,"Ġfamily":2375,"ational":2376,"Ġevery":2377,"apX":2378,"Ġrepresenting":2379,"regulatory":2380,"Ġcombinations":2381,"Ġcyclin":2382,"Ġopening":2383,"Ġcasc":2384,"345":2385,"Al":2386,"MV":2387,"equ":2388,"page":2389,"terest":2390,"vi":2391,"Ġsource":2392,"Ġstill":2393,"Ġwhether":2394,"ĠmiR":2395,"Ġbiology":2396,"ĠTLR":2397,"ĠIf":2398,"ils":2399,"001":2400,"Ġlink":2401,"ducing":2402,"chan":2403,"astuzumab":2404,"Ġnovel":2405,"CCV":2406,"Ġsynchronous":2407,"ocytes":2408,"36":2409,"Pro":2410,"ah":2411,"ages":2412,"ct":2413,"ris":2414,"ray":2415,"tot":2416,"ux":2417,"Ġ:":2418,"Ġessential":2419,"Ġoper":2420,"Ġcitation":2421,"ĠMethods":2422,"trins":2423,"ĠRes":2424,"oretical":2425,"1213":2426,"Ġ2006":2427,"PLoS":2428,"ĠÎ²":2429,"Ġdeveloped":2430,"Ġremo":2431,"ĠCAC":2432,"point":2433,"ĠSignaling":2434,"ensitivity":2435,"AD":2436,"EBP":2437,"MI":2438,"PK":2439,"ka":2440,"ane":2441,"ites":2442,"Ġep":2443,"igatus":2444,"imers":2445,"Ġsto":2446,"Ġligand":2447,"ĠRas":2448,"Ġtransient":2449,"oftw":2450,"Ġanalyses":2451,"Ġpartial":2452,"Ġloss":2453,"Ġshowed":2454,"Ġschema":2455,"ebpa":2456,"Ġframework":2457,"Ġdirectly":2458,"Ġprimary":2459,"lucose":2460,"ommons":2461,"trinsic":2462,"TLR":2463,"bg":2464,"ii":2465,"sib":2466,"Ġtri":2467,"Ġcheck":2468,"Ġmade":2469,"ĠAut":2470,"Ġalter":2471,"Ġ100":2472,"ĠDec":2473,"Ġactivate":2474,"Ġregulated":2475,"ĠWh":2476,"Ġbehaviour":2477,"Ġschemata":2478,"oftware":2479,"End":2480,"rin":2481,"ingly":2482,"Ġfac":2483,"ĠAr":2484,"Ġnam":2485,"Ġtothe":2486,"utes":2487,"ella":2488,"thesis":2489,"ĠPTEN":2490,"chis":2491,"Ġrat":2492,"ously":2493,"Ġtherefore":2494,"Ġtrig":2495,"Ġdescribe":2496,"Ġmicroenvironment":2497,"1954":2498,"Ġindicate":2499,"Ġdecision":2500,"Ġmeasured":2501,"complex":2502,"Network":2503,"gree":2504,"wn":2505,"zym":2506,"Ġ\"":2507,"rex":2508,"attractor":2509,"Ġsol":2510,"Ġsumm":2511,"Ġinduced":2512,"Ġincorpor":2513,"odelling":2514,"Ġprop":2515,"ĠFurthermore":2516,"perturb":2517,"Ġvector":2518,"Ġinterpre":2519,"Ġarticle":2520,"titative":2521,"Ġvariable":2522,"Ġspace":2523,"Ġsequence":2524,"Ġvarious":2525,"31":2526,"44":2527,"DE":2528,"gt":2529,"sk":2530,"ving":2531,"eng":2532,"Ġreal":2533,"Ġevid":2534,"ĠCO":2535,"unit":2536,"amycin":2537,"strain":2538,"Ġ50":2539,"gether":2540,"Ġautomata":2541,"Ġconsider":2542,"Ġmolecules":2543,"Ġequations":2544,"Ġbasin":2545,"Ġunderstanding":2546,"Ġredundancy":2547,"..":2548,"49":2549,"75":2550,"CT":2551,"FC":2552,"ROS":2553,"deed":2554,"each":2555,"pi":2556,"ty":2557,"Ġestab":2558,"Ġtak":2559,"Ġcolumn":2560,"Ġnet":2561,"Ġrese":2562,"Ġreactions":2563,"otes":2564,"ement":2565,"tica":2566,"ĠRaf":2567,"ritical":2568,"Ġrule":2569,"abilities":2570,"cytoplasm":2571,"Ġbiochemical":2572,"ensity":2573,"lastic":2574,"Ġdirec":2575,"iew":2576,"Ġreceptors":2577,"Ġincrease":2578,"Ġincreased":2579,"Ġsteps":2580,"ĠGene":2581,"Ġconsistent":2582,"arnes":2583,"Ġcircuit":2584,"Ġcontrast":2585,"Ġfumigatus":2586,"050":2587,"GR":2588,"JNK":2589,"most":2590,"stimul":2591,"Ġpair":2592,"Ġfull":2593,"Ġdat":2594,"ĠASK":2595,"ĠPC":2596,"opo":2597,"duces":2598,"Ġwhose":2599,"Ġenvironment":2600,"Ġ2013":2601,"Ġdetermined":2602,"neg":2603,"Ġupdate":2604,"Ġenputs":2605,"arison":2606,");":2607,"90":2608,"Bacter":2609,"SC":2610,"TR":2611,"go":2612,"ier":2613,"ng":2614,"Ġtiss":2615,"tire":2616,"els":2617,"stant":2618,"Ġstar":2619,"Ġstabil":2620,"ĠSH":2621,"ĠPalpha":2622,"ĠMarch":2623,"rior":2624,"uble":2625,"astasis":2626,"tural":2627,"ĠJAK":2628,"Ġsubsequ":2629,"1752":2630,"pathways":2631,"mediated":2632,"Ġblock":2633,"different":2634,"Ġrelationships":2635,"Ġsuccess":2636,"0509":2637,"41":2638,"aut":2639,"been":2640,"ral":2641,"xL":2642,"ester":2643,"Ġoften":2644,"ions":2645,"Ġrecent":2646,"immun":2647,"used":2648,"ider":2649,"Ġ19":2650,"aper":2651,"eptica":2652,"ĠHigh":2653,"pone":2654,"Ġinterven":2655,"Ġdiscus":2656,"ronchis":2657,"Ġarrest":2658,"Ġindependent":2659,"indamycin":2660,"Ġapproaches":2661,"âĪŀâĪŀ":2662,"Ġconnected":2663,"Ġinclude":2664,"pathway":2665,"species":2666,"stitu":2667,"Ġmeans":2668,"Ġconstructed":2669,"ĠMYB":2670,"dditional":2671,"Ġcourse":2672,"ronchiseptica":2673,"Rec":2674,"TA":2675,"YN":2676,"iella":2677,"Â¬":2678,"Ġ00":2679,"onstr":2680,"Ġsilico":2681,"Ġmal":2682,"Ġdia":2683,"ĠAP":2684,"ect":2685,"ably":2686,"ĠEach":2687,"Ġcomputational":2688,"ĠGbg":2689,"Ġshort":2690,"Ġperm":2691,"biol":2692,"Ġcommon":2693,"cellular":2694,"Ġarc":2695,"ternative":2696,"scale":2697,"Ġstimuli":2698,"Ġinflammatory":2699,"Ġhelminth":2700,"amples":2701,"aboratory":2702,"Arrest":2703,"**":2704,"926":2705,"An":2706,"As":2707,"Fs":2708,"IG":2709,"Ġ),":2710,"ancer":2711,"ĠpNF":2712,"Ġpatients":2713,"Ġdem":2714,"ĠIm":2715,"Ġhad":2716,"ĠBMC":2717,"Ġexist":2718,"Ġrate":2719,"Ġimp":2720,"tify":2721,"compbiol":2722,"Ġinhibitors":2723,"networks":2724,"ĠPKA":2725,"Ġconverg":2726,"stitute":2727,"ploscompbiol":2728,"invari":2729,"DM":2730,"UT":2731,"ai":2732,"like":2733,"ological":2734,"wit":2735,"ode":2736,"ĠCi":2737,"Ġstochastic":2738,"Ġhost":2739,"Ġ17":2740,"Ġformal":2741,"ĠPh":2742,"Ġgenus":2743,"connec":2744,"escribed":2745,"ials":2746,"anisms":2747,"Ġautomaton":2748,"Ġdetermin":2749,"Ġpresented":2750,"ï£¬":2751,"Ġobservations":2752,"Bacterium":2753,"57":2754,"559":2755,"86":2756,"AR":2757,"Ca":2758,"IF":2759,"Model":2760,"data":2761,"Ġsoftware":2762,"Ġfile":2763,"Ġmight":2764,"tional":2765,"ĠIEC":2766,"Ġhowever":2767,"Ġprof":2768,"ĠMEK":2769,"apoptotic":2770,"ĠâĢĶ":2771,"Ġdifferential":2772,"Ġpossib":2773,"ification":2774,"Ġsee":2775,"Ġmathematical":2776,"Ġstudied":2777,"Ġmembrane":2778,"ekk":2779,"Ġfew":2780,"Ġtherapeutic":2781,"Ġcontains":2782,"ĠRegul":2783,"CoA":2784,"55946":2785,"Dep":2786,"tc":2787,"Ġtur":2788,"atter":2789,"Ġpop":2790,"Ġprec":2791,"Ġfinal":2792,"Ġdid":2793,"Ġdiff":2794,"ĠTCR":2795,"ecause":2796,"ĠSLP":2797,"amide":2798,"Ġproduction":2799,"Ġlack":2800,"ady":2801,"Ġactivates":2802,"Ġcytos":2803,"cycle":2804,"served":2805,"Ġloc":2806,"munity":2807,"echn":2808,"Ġrelated":2809,"ï£·":2810,"Ġrelevant":2811,"Ġfinding":2812,"Ġabsence":2813,"Ġprogression":2814,"arnesiella":2815,"Ch":2816,"ML":2817,"drug":2818,"gment":2819,"ned":2820,"ok":2821,"symbol":2822,"inform":2823,"requ":2824,"Ġbortezomib":2825,"Ġbronchiseptica":2826,"odes":2827,"ĠCollective":2828,"Ġconstant":2829,"ĠBoth":2830,"Ġalone":2831,"Ġexis":2832,"âĢĿ":2833,"Ġlike":2834,"Ġ25":2835,"irm":2836,"Ġkinetic":2837,"gener":2838,"crete":2839,"Ġheter":2840,"10043":2841,"Ġdiï¬Ģeren":2842,"Ġplay":2843,"interactions":2844,"Ġreflec":2845,"Ġdescription":2846,"https":2847,"Ġcapture":2848,"nalysis":2849,"Ġinferred":2850,"Ġtowards":2851,"Ġhigher":2852,"35":2853,"Comp":2854,"Net":2855,"den":2856,"dependent":2857,"have":2858,"hors":2859,"normal":2860,"olog":2861,"taeformis":2862,"only":2863,"also":2864,"anti":2865,"roph":2866,"aset":2867,"ĠCASP":2868,"ĠNo":2869,"Ġhours":2870,"Ġgran":2871,"Ġproduced":2872,"verage":2873,"Ġach":2874,"tortaeformis":2875,"through":2876,"ĠHCC":2877,"erence":2878,"ights":2879,"Ġapplic":2880,"Ġprediction":2881,"Ġuniqu":2882,"ulture":2883,"Ġhighly":2884,"ikely":2885,"Ġamo":2886,"Ġmutants":2887,"Ġprovides":2888,"Ġclust":2889,"Ġrobustness":2890,"Ġselected":2891,"CM":2892,"Dynam":2893,"Fe":2894,"NB":2895,"cap":2896,"effec":2897,"free":2898,"sup":2899,"yel":2900,"Ġcollec":2901,"Ġcritical":2902,"itro":2903,"Ġnext":2904,"Ġreac":2905,"entral":2906,"oma":2907,"ĠCac":2908,"une":2909,"there":2910,"Ġgo":2911,"Ġless":2912,"Ġacco":2913,"Ġcomput":2914,"ĠIndeed":2915,"Ġappe":2916,"Ġapoptotic":2917,"compon":2918,"Ġinhibiting":2919,"Ġcorresponds":2920,"Ġcombined":2921,"lish":2922,"Ġsection":2923,"related":2924,"Ġanalyze":2925,"analysis":2926,"Ġevidence":2927,"invariant":2928,"Ġachie":2929,"05":2930,"78":2931,"AC":2932,"EB":2933,"MAPK":2934,"RT":2935,"come":2936,"ft":2937,"mer":2938,"sive":2939,"Ġinactive":2940,"Ġpost":2941,"Ġprior":2942,"Ġful":2943,"Ġflow":2944,"aran":2945,"Ġretortaeformis":2946,"utroph":2947,"ĠĠčĊ":2948,"ĠCebpa":2949,"ĠNote":2950,"Ġstat":2951,"Ġexpos":2952,"ĠMig":2953,"umer":2954,"text":2955,"ades":2956,"ains":2957,"Ġvis":2958,"Ġresist":2959,"Ġdegrad":2960,"Ġperform":2961,"ĠWhen":2962,"ĠLSS":2963,"Ġpredict":2964,"ĠKRP":2965,"Ġarrow":2966,"Ġevol":2967,"Ġsecre":2968,"ĠPLC":2969,"ĠMedical":2970,"Ġderived":2971,"Ġbelow":2972,"Results":2973,"Arrestin":2974,"Ab":2975,"GT":2976,"hom":2977,"rf":2978,"right":2979,"wise":2980,"Îº":2981,"ĠAPC":2982,"ason":2983,"Ġreaction":2984,"Ġef":2985,"ecre":2986,"results":2987,"Ġglucose":2988,"Ġalways":2989,"ĠRac":2990,"izes":2991,"1111":2992,"ronti":2993,"Ġtrastuzumab":2994,"ĠÎ±":2995,"Ġsupported":2996,"transcription":2997,"Ġsuggest":2998,"Ġrefer":2999,"Ġmediated":3000,"Ġelement":3001,"Ġdele":3002,"ĠCTL":3003,"ĠDecem":3004,"51":3005,"Hed":3006,"LL":3007,"Sup":3008,"ns":3009,"nos":3010,"ras":3011,"tom":3012,"well":3013,"rele":3014,"atics":3015,"ances":3016,"ĠSince":3017,"Ġgain":3018,"ĠInter":3019,"Ġapp":3020,"ï¬ģed":3021,"correspon":3022,"2015":3023,"proteins":3024,"specific":3025,"Ġbacterial":3026,"Ġconcentration":3027,"inflammatory":3028,"Ġlayer":3029,"Ġagainst":3030,"Ġdiagram":3031,"rontiers":3032,"60":3033,"76":3034,"big":3035,"ced":3036,"mut":3037,"otic":3038,"rehen":3039,"Ġwor":3040,"ict":3041,"etal":3042,"acy":3043,"ulate":3044,"lotin":3045,"Ġstand":3046,"traction":3047,"Ġdistin":3048,"These":3049,"Ġtimes":3050,"Ġgenetic":3051,"activity":3052,"Ġrelative":3053,"Ġerr":3054,"Ġgenerated":3055,"Ġmicrobi":3056,"Ġgraphs":3057,"knock":3058,"Ġcytokine":3059,"Ġcharacterized":3060,"Ġbacteria":3061,"informatics":3062,"lotinib":3063,"Fc":3064,"OG":3065,"dep":3066,"eep":3067,"earch":3068,"lar":3069,"rst":3070,"Ġzero":3071,"ini":3072,"ans":3073,"Ġmo":3074,"Ġmust":3075,"Ġbre":3076,"ĠTr":3077,"lot":3078,"Ġalong":3079,"olester":3080,"ĠFA":3081,"ĠFinally":3082,"Ġactivator":3083,"ĠInterest":3084,"ĠLog":3085,"Ġsimulate":3086,"possible":3087,"Ġcorrect":3088,"Ġscen":3089,"Ġcomplete":3090,"Ġinves":3091,"tributed":3092,"Ġmolecule":3093,"Ġbecome":3094,"Ġconfiguration":3095,"Ġbinary":3096,"Ġhyperarc":3097,"biological":3098,"Ġlimit":3099,"Ġdemonstr":3100,"65":3101,"CH":3102,"Cl":3103,"EN":3104,"Fa":3105,"GN":3106,"nf":3107,"pen":3108,"uis":3109,"ÃĹ":3110,"Ġtreated":3111,"indi":3112,"reative":3113,"Ġclo":3114,"escription":3115,"Ġinc":3116,"Ġintracellular":3117,"Ġpaper":3118,"asing":3119,"Ġread":3120,"Ġeas":3121,"Ġgreen":3122,"ĠBCL":3123,"ides":3124,"Ġalternative":3125,"Ġexpected":3126,"ĠML":3127,"Ġlight":3128,"addition":3129,"appro":3130,"ĠHK":3131,"ĠHere":3132,"Ġenc":3133,"Ġ60":3134,"ensitive":3135,"Ġsearch":3136,"Ġwildcard":3137,"Ġrequire":3138,"Ġcalled":3139,"Ġestim":3140,"iomet":3141,"Akt":3142,"ICD":3143,"fi":3144,"number":3145,"ring":3146,"view":3147,"Ġtem":3148,"receptor":3149,"Ġplastic":3150,"arding":3151,"imum":3152,"verex":3153,"Ġhand":3154,"ateg":3155,"Ġlung":3156,"Ġlatter":3157,"verse":3158,"tors":3159,"ichiomet":3160,"Ġdifferenti":3161,"Ġobtain":3162,"centage":3163,"oxide":3164,"tension":3165,"Ġcyclic":3166,"Ġhypergraph":3167,"Ġversion":3168,"Ġdetailed":3169,"ĠSOCS":3170,"Ġblue":3171,"armac":3172,"Ġtested":3173,"ĠMoreover":3174,"ĠRegulatory":3175,"olesterol":3176,"39":3177,"ER":3178,"Ex":3179,"NNB":3180,"ml":3181,"micro":3182,"ta":3183,"target":3184,"treatment":3185,"Ġir":3186,"inthe":3187,"atur":3188,"Ġcause":3189,"analization":3190,"ised":3191,"ĠpH":3192,"ica":3193,"Ġfib":3194,"Ġbest":3195,"Ġdri":3196,"asite":3197,"Ġrepression":3198,"igm":3199,"sto":3200,"loc":3201,"urg":3202,"Ġalthough":3203,"ifically":3204,"Ġbefore":3205,"ĠFak":3206,"Ġentire":3207,"expressed":3208,"Ġability":3209,"NFkB":3210,"Ġuntil":3211,"Ġyet":3212,"olecular":3213,"Ġbecomes":3214,"Ġupdating":3215,"mediate":3216,"Ġassump":3217,"Ġmember":3218,"Ġanalyzed":3219,"ield":3220,"experimental":3221,"Ġclearance":3222,"Ġabundance":3223,"immune":3224,"ÎºB":3225,"CASP":3226,"IK":3227,"JAK":3228,"OX":3229,"SASP":3230,"after":3231,"both":3232,"col":3233,"eti":3234,"has":3235,"rg":3236,"sub":3237,"two":3238,"tane":3239,"Î±":3240,"Ġplasm":3241,"Ġmark":3242,"Ġdom":3243,"Ġdiv":3244,"Ġdays":3245,"econd":3246,"uscript":3247,"ĠSep":3248,"these":3249,"Ġexplo":3250,"Ġ199":3251,"ĠPax":3252,"Ġcomparison":3253,"peri":3254,"ĠDis":3255,"play":3256,"Ġenzym":3257,"bert":3258,"stricted":3259,"Ġneutroph":3260,"Ġupstream":3261,"Ġassess":3262,"models":3263,"independent":3264,"Ġstimulus":3265,"KBR":3266,"ĠNFKB":3267,"Ġmaintain":3268,"show":3269,"Ġsuggests":3270,"Ġsuggested":3271,"upplemental":3272,"Ġmitochondri":3273,"TNFR":3274,"althy":3275,"...,":3276,"Ġtissue":3277,"rehensive":3278,"Ġinvestig":3279,")~":3280,"CK":3281,"TRAF":3282,"br":3283,"bal":3284,"fr":3285,"ien":3286,"mod":3287,"main":3288,"sp":3289,"sor":3290,"utions":3291,"when":3292,"Ġq":3293,"Ġoverex":3294,"Ġinduction":3295,"elf":3296,"Ġnature":3297,"arized":3298,"Ġreach":3299,"ĠNEMO":3300,"ĠBi":3301,"eregul":3302,"ĠEn":3303,"Ġled":3304,"Ġact":3305,"duct":3306,"Ġwhole":3307,"fected":3308,"off":3309,"Ġphys":3310,"Ġlocal":3311,"ĠJune":3312,"Ġevent":3313,"1004":3314,"Ġauthors":3315,"Ġrequires":3316,"Ġrespect":3317,"Ġdelay":3318,"Ġdependency":3319,"ĠBclxL":3320,"Ġstrongly":3321,"Ġremoved":3322,"ĠWhile":3323,"Ġrather":3324,"9260":3325,"Ġprofiles":3326,"Ġunique":3327,"Ġreached":3328,"Ġexposure":3329,"47":3330,"IH":3331,"PCR":3332,"Sr":3333,"kk":3334,"mp":3335,"mat":3336,"pite":3337,"tation":3338,"wild":3339,"inis":3340,"atin":3341,"Ġsymbol":3342,"Ġpe":3343,"Ġfate":3344,"Ġfrequ":3345,"Ġbet":3346,"ĠAkt":3347,"ĠAnalysis":3348,"Ġreason":3349,"steady":3350,"Ġstability":3351,"ĠSupplementary":3352,"ĠErk":3353,"upled":3354,"ĠDynam":3355,"ĠHGF":3356,"ĠHence":3357,"ĠHATPase":3358,"Ġinternal":3359,"Ġunknown":3360,"Ġinhibits":3361,"portant":3362,"ymmet":3363,"00000":3364,"Ġmutations":3365,"ĠStress":3366,"Ġimportance":3367,"Ġupdated":3368,"Ġgroups":3369,"Ġï¬ģrst":3370,"Ġintegrated":3371,"aterials":3372,"Ġbuil":3373,"total":3374,"Ġdeletion":3375,"ichiometric":3376,"))":3377,"37":3378,"Bio":3379,"For":3380,"Free":3381,"NEMO":3382,"]).":3383,"follow":3384,"lim":3385,"tered":3386,"Â¼":3387,"incre":3388,"integr":3389,"eroxide":3390,"order":3391,"als":3392,"ithel":3393,"Ġmon":3394,"ĠAT":3395,"ulating":3396,"vered":3397,"Ġexam":3398,"ĠPAK":3399,"ĠPTP":3400,"ĠModelling":3401,"ĠMekk":3402,"Ġmodeled":3403,"Ġ26":3404,"Ġcompute":3405,"atial":3406,"Ġtransfer":3407,"prob":3408,"process":3409,"ublic":3410,"ĠâĢ¢":3411,"Ġsetting":3412,"1000":3413,"develop":3414,"plicit":3415,"Ġuseful":3416,"Ġfollows":3417,"Ġoptim":3418,"Ġcycles":3419,"Ġdrugs":3420,"Ġdesign":3421,"inhibition":3422,"Ġbinding":3423,"Ġparameter":3424,"ÂĨ&":3425,"plosone":3426,"Ġquantitative":3427,"Ġoccurs":3428,"ĠCTNNB":3429,"Ġintroduced":3430,"cluded":3431,"echnology":3432,"Ġfully":3433,"Ġdistinct":3434,"210":3435,"474":3436,"FA":3437,"MEK":3438,"Sim":3439,"but":3440,"mb":3441,"ped":3442,"tuzumab":3443,"vent":3444,"Â§":3445,"ÎĶ":3446,"into":3447,"reement":3448,"ĠABI":3449,"Ġtogether":3450,"enter":3451,"respec":3452,"ĠSci":3453,"Ġcons":3454,"Ġexcept":3455,"Ġ21":3456,"Ġ28":3457,"Ġcomputed":3458,"Ġattraction":3459,"ĠHapX":3460,"ugust":3461,"111":3462,"ermany":3463,"Ġphph":3464,"Ġ/âĪŀâĪŀ":3465,"Ġerlotinib":3466,"indic":3467,"Ġmodelling":3468,"CAM":3469,"shown":3470,"ĠNetworks":3471,"Ġmeasurements":3472,"Ġvalidated":3473,"Ġcalc":3474,"determ":3475,"Ġtumour":3476,"Ġperiodic":3477,"Apoptosis":3478,"Ġresearch":3479,"Ġcytosol":3480,",...,":3481,"77":3482,"89":3483,"Fb":3484,"However":3485,"SLP":3486,"bf":3487,"gf":3488,"prim":3489,"tures":3490,"xim":3491,"ÃŃ":3492,"Ġ{":3493,"Ġsust":3494,"erative":3495,"rob":3496,"lex":3497,"Ġfail":3498,"Ġfind":3499,"Ġbox":3500,"odimers":3501,"lobal":3502,"units":3503,"ĠSpec":3504,"ĠSreA":3505,"Ġgreat":3506,"Ġconstitu":3507,"ilit":3508,"idate":3509,"olved":3510,"Ġlate":3511,"Ġlikely":3512,"cluding":3513,"ports":3514,"porting":3515,"Ġimplement":3516,"control":3517,"Ġsimultane":3518,"aking":3519,"activate":3520,"00001":3521,"cancer":3522,"Ġincreases":3523,"Ġdiscrep":3524,"functions":3525,"Ġmedium":3526,"inhibitor":3527,"INsim":3528,"ĠBNE":3529,"Ġsignificantly":3530,"Ġantibodies":3531,"ideroph":3532,"Ġformalism":3533,"Ġdegradation":3534,"ithelial":3535,"55":3536,"BC":3537,"GATA":3538,"OYN":3539,"SE":3540,"Treg":3541,"aved":3542,"aults":3543,"cat":3544,"din":3545,"factor":3546,"lated":3547,"ru":3548,"sR":3549,"infections":3550,"ready":3551,"ending":3552,"Ġcross":3553,"Ġpo":3554,"iting":3555,"Ġmuch":3556,"Ġmax":3557,"Ġnow":3558,"aster":3559,"omic":3560,"Ġstart":3561,"ĠSuch":3562,"oted":3563,"Ġextrinsic":3564,"ĠMA":3565,"tory":3566,"ading":3567,"cles":3568,"Ġtranscript":3569,"Ġdegree":3570,"Ġ30":3571,"Ġ2011":3572,"Ġrelatively":3573,"Ġstrateg":3574,"Ġfollowed":3575,"Ġconfirm":3576,"ĠAlthough":3577,"Ġallowed":3578,"Ġclindamycin":3579,"interaction":3580,"fully":3581,"Ġknockouts":3582,"Ġleukemic":3583,"Ġdepicted":3584,"Ġstructural":3585,"MAD":3586,"complete":3587,"ĠPARP":3588,"tember":3589,"Ġstoichiometric":3590,"components":3591,"Ġlungs":3592,"OYNET":3593,"61":3594,"96":3595,"Fox":3596,"SD":3597,"cum":3598,"feedback":3599,"inase":3600,"intes":3601,"Ġaverage":3602,"atures":3603,"tice":3604,"Ġprin":3605,"Ġmake":3606,"ĠAugust":3607,"Ġnucleus":3608,"aring":3609,"Ġreplic":3610,"step":3611,"ĠCat":3612,"ĠCommons":3613,"then":3614,"Ġexp":3615,"Ġextension":3616,"002":3617,"ĠMAP":3618,"ĠMÃ©":3619,"uplic":3620,"ĠRho":3621,"ĠGRN":3622,"Ġwhat":3623,"provid":3624,"ĠĠĠĠĠĠĠĠ":3625,"aving":3626,"NFKB":3627,"def":3628,"ietic":3629,"ĠState":3630,"Ġphosphat":3631,"Ġlower":3632,"Ġassume":3633,"Ġdetails":3634,"Ġreconstruction":3635,"Ġendocy":3636,"ĠPDGF":3637,"osinoph":3638,"opoietic":3639,"Ġstarting":3640,"Ġpopulation":3641,"Ġamount":3642,"Ġmembers":3643,"ĠSeptember":3644,"AG":3645,"At":3646,"DFs":3647,"Gen":3648,"MG":3649,"No":3650,"Supplementary":3651,"Supplemental":3652,"TC":3653,"gu":3654,"mark":3655,"oh":3656,"rich":3657,"sel":3658,"such":3659,"ustr":3660,"vis":3661,"xico":3662,"zed":3663,"Ġz":3664,"Ġseen":3665,"tis":3666,"ory":3667,"ales":3668,"lem":3669,"icense":3670,"Ġbi":3671,"Ġdiffic":3672,"eting":3673,"tioned":3674,"ĠTrans":3675,"uture":3676,"Ġstatus":3677,"ĠIKK":3678,"ĠSKBR":3679,"Ġhom":3680,"Ġgiv":3681,"Ġlaboratory":3682,"Ġ29":3683,"tra":3684,"ĠRAS":3685,"ĠGSK":3686,"epar":3687,"ĠHe":3688,"Ġusually":3689,"Ġcho":3690,"Ġcolo":3691,"NAI":3692,"Ġothers":3693,"cepted":3694,"tified":3695,"Ġroles":3696,"Ġassigned":3697,"Ġseem":3698,"Ġperturbed":3699,"valu":3700,"ammation":3701,"ĠCaM":3702,"niqu":3703,"sequently":3704,"Ġrange":3705,"ajector":3706,"Ġdiseases":3707,"growth":3708,"Ġdecrease":3709,"Ġaffect":3710,"Ġinstance":3711,"Ġcascade":3712,"Ġpropag":3713,"Ġdiscussed":3714,"Ġturn":3715,"Ġfindings":3716,"cedure":3717,"%)":3718,"64":3719,"Aut":3720,"EL":3721,"GAP":3722,"PD":3723,"gn":3724,"gin":3725,"hh":3726,"lap":3727,"ps":3728,"tum":3729,"wt":3730,"Â±":3731,"Ġ%":3732,"ĠâĪŀ":3733,"Ġtake":3734,"inical":3735,"information":3736,"onal":3737,"Ġsideroph":3738,"Ġinduce":3739,"etort":3740,"stable":3741,"ime":3742,"ĠCX":3743,"using":3744,"Ġpropor":3745,"ĠMIS":3746,"Ġacid":3747,"opy":3748,"ĠRB":3749,"ĠRBR":3750,"poral":3751,"ĠLUT":3752,"stract":3753,"ouse":3754,"posed":3755,"tific":3756,"Ġ2014":3757,"Ġinhibited":3758,"Ġcontrolled":3759,"Ġdouble":3760,"Ġidentification":3761,"aceae":3762,"Ġemerg":3763,"ĠControl":3764,"MPs":3765,"Ġrecovered":3766,"encies":3767,"Ġtherapy":3768,"Ġadded":3769,"Ġblack":3770,"ploy":3771,"Ġcolon":3772,"Ġorgan":3773,"Ġdenote":3774,"dynamics":3775,"Ġantibody":3776,"MVB":3777,"Ġligands":3778,"Ġnamely":3779,"Ġtrigg":3780,"TRetort":3781,"Ġconvergence":3782,"witch":3783,"Department":3784,"Ġdiffer":3785,"Ġaccount":3786,"Ġplasticity":3787,"Ġpeak":3788,"intestin":3789,"TRetortaeformis":3790,"06":3791,"Dis":3792,"ID":3793,"Per":3794,"SB":3795,"bx":3796,"cto":3797,"la":3798,"mech":3799,"ping":3800,"systems":3801,"Î²":3802,"restricted":3803,"atically":3804,"Ġsepar":3805,"enesc":3806,"alizing":3807,"Ġcand":3808,"ital":3809,"ick":3810,"Ġfl":3811,"Ġbound":3812,"ĠAfter":3813,"Ġrest":3814,"ĠTOYNET":3815,"omen":3816,"imer":3817,"ĠCo":3818,"ammal":3819,"uck":3820,"Ġcontext":3821,"ĠBy":3822,"Ġexhib":3823,"ĠPMV":3824,"ĠEMT":3825,"Ġones":3826,"ĠFirst":3827,"iring":3828,"ĠRPS":3829,"ries":3830,"atorial":3831,"ĠGrb":3832,"epG":3833,"hence":3834,"Ġcholesterol":3835,"ended":3836,"Ġpredicts":3837,"Ġmodes":3838,"Ġformation":3839,"Ġdescribing":3840,"Ġgenera":3841,"Ġindicated":3842,"Ġantigen":3843,"ĠNFkB":3844,"Ġequivalent":3845,"current":3846,"ĠIFNg":3847,"Ġindirect":3848,"Ġcleaved":3849,"Ġkinases":3850,"Ġregarding":3851,"ĠPLD":3852,"ĠÂ¼":3853,"Ġclasses":3854,"group":3855,"ĠCyclin":3856,"Ġtopology":3857,"ĠCln":3858,"Ġguard":3859,"Ġrevealed":3860,"ĠArticle":3861,"Ġdirected":3862,"Ġsubsequent":3863,"Ġintervention":3864,"Ġvisual":3865,"Ġwords":3866,"Ġeasily":3867,"etition":3868,"Ġplasma":3869,"ctober":3870,"574":3871,"CB":3872,"Canalization":3873,"Im":3874,"It":3875,"OP":3876,"UN":3877,"dk":3878,"described":3879,"hi":3880,"nels":3881,"po":3882,"vari":3883,"Ġtech":3884,"ren":3885,"edges":3886,"edia":3887,"estern":3888,"Ġinfections":3889,"Ġwg":3890,"itr":3891,"Ġmice":3892,"ĠAdditional":3893,"Ġgive":3894,"Ġglobal":3895,"Ġconcer":3896,"ĠBarnesiella":3897,"idA":3898,"ĠPBMC":3899,"iological":3900,"Ġcompartment":3901,"Ġcompris":3902,"ĠInstitute":3903,"ources":3904,"Ġshp":3905,"Ġendo":3906,"Ġadap":3907,"Ġcommunity":3908,"akes":3909,"arily":3910,"Ġhealthy":3911,"Ġstudents":3912,"Ġoverall":3913,"phages":3914,"ĠStates":3915,"REBP":3916,"ĠNFAT":3917,"ĠIFNG":3918,"Ġagreement":3919,"Ġpropose":3920,"enced":3921,"Ġcontaining":3922,"measure":3923,"Ġaddress":3924,"Ġcircuits":3925,"ï¬Ĥux":3926,"ĠâĢĻâĢĻ":3927,"SOCS":3928,"ĠUnited":3929,"Ġdisruption":3930,"ĠIgG":3931,"Ġcascades":3932,"change":3933,"ĠAutomata":3934,"Ġpermits":3935,"Ġdiï¬Ģerentiation":3936,"yeloid":3937,"arante":3938,"initial":3939,"ĠInterestingly":3940,"individual":3941,"Ġneutrophils":3942,"+]":3943,"110":3944,"CF":3945,"Our":3946,"Re":3947,"WG":3948,"bHed":3949,"burg":3950,"des":3951,"ired":3952,"mo":3953,"pri":3954,"types":3955,"inc":3956,"allow":3957,"Ġcr":3958,"Ġcentral":3959,"Ġanion":3960,"leuk":3961,"ĠAmer":3962,"Ġnumer":3963,"ario":3964,"Ġeosinoph":3965,"ĠText":3966,"Ġthough":3967,"ĠSpi":3968,"ided":3969,"idence":3970,"Ġalready":3971,"003":3972,"Ġlis":3973,"Ġlab":3974,"Ġlast":3975,"ape":3976,"ĠRab":3977,"ĠInformation":3978,"ĠIntegr":3979,"Ġregulator":3980,"ighb":3981,"Ġdistributed":3982,"conf":3983,"consis":3984,"gramm":3985,"There":3986,"Ġcoun":3987,"illustr":3988,"cybHed":3989,"ailed":3990,"ĠUsing":3991,"modeling":3992,"Ġapproxim":3993,"Ġsupport":3994,"ivalence":3995,"Ġredescription":3996,"2007":3997,"1471":3998,"uclear":3999,"ĠAlbert":4000,"Ġspatial":4001,"ĠCAV":4002,"PAR":4003,"associated":4004,"ebras":4005,"functional":4006,"ummary":4007,"Ġdepends":4008,"inputs":4009,"Ġsubsets":4010,"Ġreconstructions":4011,"ground":4012,"Ġneeded":4013,"Ġlymphoid":4014,"phosphate":4015,"Ġperiod":4016,"ADD":4017,"Ġcheckpoint":4018,"Ġestablish":4019,"stimulation":4020,"Ġrecently":4021,"connected":4022,"ï£¬ï£¬":4023,"ï£·ï£·":4024,"Abstract":4025,"Ġsimultaneously":4026,"ĠMÃ©xico":4027,"5741":4028,"ebraska":4029,".[":4030,"Ed":4031,"EKK":4032,"HF":4033,"Methods":4034,"PP":4035,"TOR":4036,"ew":4037,"fault":4038,"ging":4039,"ks":4040,"long":4041,"light":4042,"map":4043,"pat":4044,"pare":4045,"rac":4046,"rine":4047,"single":4048,"Ġ<":4049,"Ġ_":4050,"Ġhemat":4051,"atform":4052,"entioned":4053,"orm":4054,"Ġcore":4055,"Ġchem":4056,"Ġphen":4057,"itu":4058,"ulner":4059,"oding":4060,"ĠCancer":4061,"urine":4062,"Ġhaving":4063,"ottom":4064,"ĠMicro":4065,"cetic":4066,"Ġacross":4067,"quan":4068,"ĠDep":4069,"ynthesis":4070,"ativ":4071,"Ġpathogen":4072,"Ġleft":4073,"plies":4074,"Ġdist":4075,"ĠLPS":4076,"Ġchain":4077,"Ġ56":4078,"Ġparasite":4079,"Ġmetastasis":4080,"ĠJan":4081,"side":4082,"Ġintensity":4083,"Ġsynerg":4084,"Ġsynthesis":4085,"ĠAnion":4086,"paration":4087,"cuit":4088,"cussion":4089,"ĠZEB":4090,"486":4091,"Ġdecreased":4092,"Ġinsights":4093,"Ġseries":4094,"Ġhypothesis":4095,"Ġepithelial":4096,"Ġfacilit":4097,"negative":4098,"Ġarcs":4099,"Ġimpact":4100,"Ġarrows":4101,"Ġevolution":4102,"eeping":4103,"Ġbetter":4104,"ĠPBMCs":4105,"80":4106,"BN":4107,"De":4108,"En":4109,"ERBB":4110,"NGF":4111,"RG":4112,"TT":4113,"non":4114,"sign":4115,"take":4116,"van":4117,"vector":4118,"za":4119,"ĠÏ":4120,"ĠÃĹ":4121,"atec":4122,"Ġsur":4123,"anistic":4124,"Ġfree":4125,"Ġfive":4126,"Ġmutation":4127,"Ġbind":4128,"Ġderegul":4129,"ethe":4130,"etyl":4131,"array":4132,"ashed":4133,"ĠNebraska":4134,"ĠOctober":4135,"ĠIP":4136,"ĠSun":4137,"Ġgover":4138,"Ġprote":4139,"oting":4140,"Ġexperi":4141,"ĠMet":4142,"Ġlist":4143,"Ġcomputation":4144,"Ġcomprehensive":4145,"ritic":4146,"unding":4147,"ĠGINsim":4148,"character":4149,"phage":4150,"Ġregulate":4151,"Ġlearn":4152,"Ġrun":4153,"ĠWith":4154,"conver":4155,"constrain":4156,"udy":4157,"130":4158,"arios":4159,"Ġ2007":4160,"oxid":4161,"agment":4162,"ĠÎĶ":4163,"Ġmethodology":4164,"Ġconsidering":4165,"values":4166,"Ġindicating":4167,"2002":4168,"Ġincludes":4169,"abolic":4170,"Ġassumed":4171,"Ġhelper":4172,"ĠAttribution":4173,"Ġexplain":4174,"ancies":4175,"ĠSimilar":4176,"PKC":4177,"Ġtrigger":4178,"Ġpossibility":4179,"Ġerror":4180,"knockout":4181,"TNFRSF":4182,"1004486":4183,"ĠAmerica":4184,"'s":4185,"LM":4186,"LIP":4187,"Wnt":4188,"aff":4189,"ially":4190,"prom":4191,"same":4192,"tely":4193,"uary":4194,"Ġsamples":4195,"eratin":4196,"enput":4197,"orrespon":4198,"Ġcut":4199,"rogen":4200,"Ġfigure":4201,"ets":4202,"ĠCIR":4203,"ĠCreative":4204,"use":4205,"ĠSK":4206,"ĠSch":4207,"theless":4208,"ĠBT":4209,"Ġexpres":4210,"ĠECM":4211,"irB":4212,"ticular":4213,"apid":4214,"ĠRNA":4215,"Ġvi":4216,"ĠGermany":4217,"therap":4218,"achnos":4219,"ineering":4220,"Ġenh":4221,"ĠLicense":4222,"concentr":4223,"available":4224,"ackground":4225,"ignant":4226,"âĪĪ":4227,"Ġeffective":4228,"Ġscore":4229,"Ġoutcome":4230,"cord":4231,"10023":4232,"Ġmodules":4233,"Ġcomplexity":4234,"NKG":4235,"behav":4236,"2017":4237,"arkov":4238,"isease":4239,"Ġconnection":4240,"IST":4241,"Ġcircles":4242,"Ġemploy":4243,"Ġrecover":4244,"points":4245,"Ġreconstructed":4246,"Ġcauses":4247,"ĠBioinformatics":4248,"Ġfocused":4249,"clusion":4250,"predictions":4251,"MYD":4252,"attractors":4253,"Ġappear":4254,"Ġresistance":4255,"ĠDecember":4256,"corresponding":4257,"Ġmitochondria":4258,"plicitly":4259,"Ġdifficult":4260,"ĠJanuary":4261,"1002345":4262,"312":4263,"62":4264,"69":4265,"ABA":4266,"Biology":4267,"Here":4268,"Jun":4269,"LT":4270,"Lig":4271,"Med":4272,"RAS":4273,"gre":4274,"ogene":4275,"py":4276,"pase":4277,"phenot":4278,"uence":4279,"Âł":4280,"Ã³":4281,"Ġtable":4282,"inimal":4283,"including":4284,"Ġaim":4285,"atis":4286,"Ġsum":4287,"Ġsample":4288,"Ġsensitivity":4289,"Ġsymmet":4290,"Ġsitu":4291,"Ġcre":4292,"ĠmRNA":4293,"Ġmammal":4294,"oded":4295,"Ġefficient":4296,"ĠTA":4297,"imin":4298,"ĠCas":4299,"ĠCRE":4300,"Ġcontin":4301,"ĠBecause":4302,"Ġprogen":4303,"abase":4304,"ĠMy":4305,"ird":4306,"ands":4307,"Ġvitro":4308,"diac":4309,"ocrine":4310,"Ġregulations":4311,"Ġregulates":4312,"Ġright":4313,"Ġpersis":4314,"tinguis":4315,"Ġimplic":4316,"berg":4317,"Ġneighb":4318,"Ġchall":4319,"Ġdifference":4320,"Ġadvant":4321,"tification":4322,"Ġrow":4323,"ensive":4324,"Ġiniti":4325,"Ġheat":4326,"1005741":4327,"Ġques":4328,"PLC":4329,"Ġtrue":4330,"Ġtrajector":4331,"Ġcomplexes":4332,"Ġauthor":4333,"2016":4334,"Ġconnections":4335,"Ġscheme":4336,"Ġconverge":4337,"ISC":4338,"Ġfraction":4339,"Ġinhibitory":4340,"Ġregard":4341,"Ġmeaning":4342,"ĠSOD":4343,"ĠCycle":4344,"NOT":4345,"ĠDCM":4346,"TICAM":4347,"piraceae":4348,"ĠCYCD":4349,"clude":4350,"Ġtools":4351,"ĠIgA":4352,"Ġalterations":4353,"Ġestablished":4354,"Ġdataset":4355,"Ġachieved":4356,"Ġtemporal":4357,"Ġoverexpression":4358,"438":4359,"BF":4360,"Background":4361,"Fr":4362,"HH":4363,"IC":4364,"MO":4365,"Mac":4366,"MKK":4367,"University":4368,"aw":4369,"ares":4370,"bre":4371,"bit":4372,"cas":4373,"cill":4374,"eived":4375,"fixed":4376,"ject":4377,"ler":4378,"mig":4379,"mber":4380,"su":4381,"vance":4382,"Ġly":4383,"Ġillustr":4384,"ĠtD":4385,"Ġtext":4386,"repres":4387,"Ġsix":4388,"orph":4389,"Ġback":4390,"ĠAR":4391,"ety":4392,"ĠnM":4393,"ĠSer":4394,"amag":4395,"osen":4396,"Ġprogram":4397,"olated":4398,"ĠPer":4399,"ĠPen":4400,"ĠPath":4401,"ĠMT":4402,"ĠMET":4403,"Ġaspec":4404,"Ġonce":4405,"âĢł":4406,"ĠFOX":4407,"ads":4408,"ĠRgt":4409,"phase":4410,"conditions":4411,"Ġtiming":4412,"Ġtimesc":4413,"Ġmeta":4414,"ĠiTreg":4415,"Ġitself":4416,"Ġscale":4417,"Ġidenti":4418,"organ":4419,"2006":4420,"Ġinflammation":4421,"knowledge":4422,"ĠProliferation":4423,"Ġprobabilities":4424,"ovember":4425,"PARP":4426,"sequence":4427,"paramet":4428,"orylation":4429,"ĠTGFBR":4430,"Ġrecogn":4431,"oving":4432,"Ġlimited":4433,"Ġcaused":4434,"ĠPDK":4435,"Ġsimplified":4436,"Ġguarante":4437,"Ġevaluation":4438,"SOD":4439,"ĠFoxo":4440,"aha":4441,"Ġoperators":4442,"Ġexisting":4443,"1004338":4444,"Dynamic":4445,"relevant":4446,"caten":4447,"Ġgives":4448,"leukin":4449,"ĠIntegrins":4450,"achnospiraceae":4451,"58":4452,"Additional":4453,"ES":4454,"IM":4455,"PTP":4456,"RO":4457,"biology":4458,"cg":4459,"cir":4460,"depend":4461,"hyp":4462,"junc":4463,"ĠQ":4464,"Ġion":4465,"Ġtyp":4466,"requi":4467,"eramide":4468,"educ":4469,"ising":4470,"Ġput":4471,"ĠpRB":4472,"Ġpolar":4473,"Ġplot":4474,"rop":4475,"Ġmouse":4476,"Ġdys":4477,"ĠTbx":4478,"ĠNodes":4479,"ĠNovember":4480,"ĠOne":4481,"ĠStr":4482,"ĠSNAI":4483,"oscill":4484,"Ġconstrain":4485,"Ġprocedure":4486,"Ġextracellular":4487,"ĠMO":4488,"ĠMKK":4489,"ĠMDFs":4490,"âĢľ":4491,"Ġaction":4492,"Ġaccur":4493,"ĠFOS":4494,"qualitative":4495,"Ġcompetition":4496,"ĠDes":4497,"Ġrapid":4498,"exp":4499,"Ġ48":4500,"positive":4501,"Ġpharmac":4502,"ĠVCP":4503,"escribe":4504,"Ġmeas":4505,"ylvan":4506,"ukary":4507,"Ġsupplement":4508,"Ġsuperoxide":4509,"Ġoverlap":4510,"liferative":4511,"transition":4512,"Ġrespective":4513,"Ġutil":4514,"ĠTGFb":4515,"Ġcharacterize":4516,"Ġconsists":4517,"Ġfeatures":4518,"differentiation":4519,"Ġremaining":4520,"Ġreproduction":4521,"Ġpromotes":4522,"Ġparticularly":4523,"dditionally":4524,"Ġrandomly":4525,"Ġentry":4526,"Ġenvironmental":4527,"ierarch":4528,"ĠSHP":4529,"Ġsuccessfully":4530,"Received":4531,"1004324":4532,"nsylvan":4533,"rontiersin":4534,"Ġstandard":4535,"Ġbreast":4536,"ĠLogical":4537,"Author":4538,"Ġsynergistic":4539,"nsylvania":4540,"##":4541,"82":4542,"AA":4543,"AND":4544,"Bcl":4545,"BET":4546,"DD":4547,"GE":4548,"IAP":4549,"Low":4550,"Ps":4551,"closure":4552,"ged":4553,"itively":4554,"lm":4555,"lation":4556,"mail":4557,"rig":4558,"section":4559,"uti":4560,"uro":4561,"Ġ^":4562,"ining":4563,"Ġax":4564,"atio":4565,"Ġsig":4566,"ann":4567,"Ġmedia":4568,"Ġrec":4569,"uly":4570,"studi":4571,"uting":4572,"lood":4573,"ĠCol":4574,"ĠNormal":4575,"ĠNational":4576,"elled":4577,"unts":4578,"ĠOm":4579,"ĠOpen":4580,"ĠSh":4581,"ĠSummary":4582,"ters":4583,"ucial":4584,"ĠBA":4585,"Ġexact":4586,"ument":4587,"quation":4588,"aining":4589,"ĠROR":4590,"diï¬Ģeren":4591,"Ġnote":4592,"Ġpertuzumab":4593,"Ġspecial":4594,"ĠLow":4595,"Ġinteract":4596,"Ġdifferences":4597,"Ġ44":4598,"troduction":4599,"Ġcoupled":4600,"endritic":4601,"ĠCDH":4602,"ĠUSA":4603,"Ġ2016":4604,"208":4605,"Ġformat":4606,"Ġknockdown":4607,"Ġequation":4608,"Ġequivalence":4609,"Ġcyclins":4610,"Ġproblem":4611,"Ġmainly":4612,"assum":4613,"Ġbasis":4614,"ĠAccess":4615,"TPk":4616,"Ġcharacteristic":4617,"Ġvalidation":4618,"Ġblot":4619,"Ġoscillations":4620,"ĠFoxp":4621,"rosine":4622,"Cyclin":4623,"Ġinterpreted":4624,"ength":4625,"Ġtaken":4626,"ĠSHF":4627,"hominis":4628,"Ġscenario":4629,"Ġestimated":4630,"Ġassumption":4631,"SrcybHed":4632,"Ġbuilt":4633,"following":4634,"ĠATM":4635,"1000438":4636,"richment":4637,"Ġtechniqu":4638,"Ġeosinophils":4639,"Ġhematopoietic":4640,"*,":4641,"AB":4642,"Analy":4643,"CX":4644,"Copy":4645,"Furthermore":4646,"GD":4647,"On":4648,"VY":4649,"az":4650,"damage":4651,"eas":4652,"frontiersin":4653,"given":4654,"hyper":4655,"kinase":4656,"liter":4657,"mad":4658,"macro":4659,"pt":4660,"rad":4661,"tle":4662,"âī":4663,"athematical":4664,"eral":4665,"alin":4666,"edu":4667,"esis":4668,"ĠpERK":4669,"Ġpool":4670,"Ġannot":4671,"road":4672,"Ġfuture":4673,"Ġnrg":4674,"Ġrece":4675,"ultim":4676,"Ġeukary":4677,"sth":4678,"study":4679,"uth":4680,"ĠCenter":4681,"ĠNot":4682,"Ġstre":4683,"ĠIR":4684,"ĠSup":4685,"Ġgut":4686,"osis":4687,"Ġproduce":4688,"Ġexogen":4689,"0055946":4690,"ĠMinimal":4691,"Ġlater":4692,"ried":4693,"ĠData":4694,"ĠDifferen":4695,"pecially":4696,"toch":4697,"ducted":4698,"ĠHepG":4699,"asegment":4700,"Ġtranscrip":4701,"Ġiter":4702,"Ġintermediate":4703,"ĠILK":4704,"Ġeng":4705,"Ġens":4706,"Ġetc":4707,"Ġsystemic":4708,"udding":4709,"tose":4710,"Ġknow":4711,"ackage":4712,"endo":4713,"1100":4714,"Ġadj":4715,"Ġphot":4716,"ĠCDKB":4717,"Ġpredictive":4718,"ĠKÃ¾":4719,"Ġmodule":4720,"Ġstimulated":4721,"Acid":4722,"simulations":4723,"alitatively":4724,"standing":4725,"Ġtreatments":4726,"pair":4727,"discrete":4728,"Ġreproduce":4729,"ĠAttractor":4730,"Î³R":4731,"iï¬ģcant":4732,"Ġtumor":4733,"MYC":4734,"ĠResearch":4735,"Ġremoval":4736,"RTK":4737,"Ġmotif":4738,"atural":4739,"ĠBiol":4740,"BCN":4741,"uplication":4742,"Ġproportion":4743,"ĠMISs":4744,"paren":4745,"Ã³n":4746,"ĠPennsylvania":4747,"81":4748,"929":4749,"NT":4750,"PE":4751,"Rho":4752,"SRN":4753,"TG":4754,"];":4755,"bivalent":4756,"che":4757,"dh":4758,"either":4759,"fh":4760,"godic":4761,"mem":4762,"ply":4763,"pattern":4764,"test":4765,"uate":4766,"vo":4767,"wide":4768,"Ġ71":4769,"Ġhence":4770,"Ġaper":4771,"Ġtheoretical":4772,"Ġsink":4773,"Ġsense":4774,"Ġswitch":4775,"ench":4776,"alk":4777,"Ġcat":4778,"Ġpan":4779,"ellow":4780,"itors":4781,"Ġfi":4782,"Ġmim":4783,"Ġbiom":4784,"Ġdur":4785,"Ġdone":4786,"ĠAb":4787,"asion":4788,"Ġreduce":4789,"Ġrecap":4790,"acion":4791,"Ġeight":4792,"ĠCM":4793,"ĠCbl":4794,"ĠNa":4795,"ĠNrf":4796,"resul":4797,"Ġstages":4798,"ursor":4799,"ĠSMAD":4800,"Ġhh":4801,"Ġgates":4802,"Ġaltered":4803,"Ġexpress":4804,"ĠMK":4805,"ĠMaterials":4806,"seq":4807,"ĠFHF":4808,"rand":4809,"rance":4810,"try":4811,"apoptosis":4812,"Ġcompos":4813,"Ġcompare":4814,"Ġcanalizing":4815,"mental":4816,"Ġvir":4817,"ĠGa":4818,"ĠGro":4819,"Ġkeratin":4820,"Ġ33":4821,"Ġdistinguis":4822,"Ġenab":4823,"Ġenables":4824,"example":4825,"Ġimpro":4826,"uez":4827,"Ġsystematically":4828,"Ġchosen":4829,"biome":4830,"Ġuptake":4831,"ailability":4832,"Ġcompletely":4833,"timuli":4834,"Ġrelation":4835,"Ġergodic":4836,"Ġpreparation":4837,"comes":4838,"degrad":4839,"203":4840,"Ġbiologically":4841,"ĠCells":4842,"Ġdoi":4843,"versely":4844,"Ġsuppress":4845,"Ġlarger":4846,"Ġmechanistic":4847,"Ġplatform":4848,"Ġxi":4849,"2012":4850,"Ġavoid":4851,"Ġclinical":4852,"Ġsuggesting":4853,"ĠModeling":4854,"Ġmediator":4855,"Ġdespite":4856,"Ġoutputs":4857,"ĠActiv":4858,"Ġsmaller":4859,"Ġdepending":4860,"beta":4861,"Ġparticip":4862,"ĠZh":4863,"black":4864,"Ġremains":4865,"ĠClb":4866,"mann":4867,"Ġpurpose":4868,"Ġmanner":4869,"739":4870,"Ġorganisms":4871,"Ġevaluate":4872,"Ġcardiac":4873,"pirical":4874,"Ġextensive":4875,"Ġexists":4876,"Ġapplication":4877,"Ġdivision":4878,"ienti":4879,"Ġoptimal":4880,"ÂĨ&!":4881,"Ġsustained":4882,"Ġboxes":4883,"ĠâĪŀ/":4884,"Ġsiderophore":4885,"ĠCXCR":4886,"concentration":4887,"behavior":4888,"ĠMyosin":4889,"AMP":4890,"BK":4891,"BCL":4892,"Del":4893,"Fos":4894,"Frontiers":4895,"PGN":4896,"cf":4897,"culture":4898,"ihominis":4899,"jec":4900,"lk":4901,"ligh":4902,"link":4903,"nas":4904,"qR":4905,"some":4906,"vation":4907,"yrosine":4908,"zy":4909,"Âģ":4910,"ĠâĪ":4911,"rem":4912,"Ġsi":4913,"Ġslow":4914,"Ġintra":4915,"icine":4916,"Ġfund":4917,"Ġmyeloid":4918,"Ġbottom":4919,"Ġdig":4920,"arization":4921,"Ġrestr":4922,"Ġretur":4923,"ula":4924,"ulos":4925,"ĠTwo":4926,"important":4927,"ĠCHK":4928,"ĠNICD":4929,"Ġstage":4930,"ĠSB":4931,"thes":4932,"their":4933,"Ġconcept":4934,"ĠBased":4935,"ĠBIR":4936,"Ġonthe":4937,"ĠThey":4938,"ducible":4939,"Ġactivators":4940,"redund":4941,"Ġgenome":4942,"eptor":4943,"threshold":4944,"chang":4945,"Ġregula":4946,"Ġnotation":4947,"Ġrates":4948,"ivo":4949,"Ġ37":4950,"013":4951,"tially":4952,"perimental":4953,"would":4954,"CDC":4955,"ipher":4956,"certain":4957,"Ġnumbers":4958,"Ġprevent":4959,"necessary":4960,"schem":4961,"Ġdescribes":4962,"viously":4963,"14739":4964,"Ġintu":4965,"simulation":4966,"266":4967,"Ġdefine":4968,"Ġconnectivity":4969,"signalling":4970,"Ġconversion":4971,"works":4972,"ebp":4973,"ÂĨÂĨ":4974,"Ġconstruct":4975,"Ġconstruction":4976,"called":4977,"mean":4978,"involved":4979,"Ġ00000":4980,"Ġmacrophage":4981,"Ġdenoted":4982,"Ġcontribute":4983,"Ġconcentrations":4984,"Ġexplan":4985,"ĠChIP":4986,"anced":4987,"predicted":4988,"Ġsubsequently":4989,"Ġinterventions":4990,"effect":4991,"ĠLSSs":4992,"Suppl":4993,"Ġmicrobiome":4994,"Ġsymbols":4995,"Ġphosphatase":4996,"enescence":4997,"priate":4998,"configur":4999,"ativec":5000,"ĠSimilarly":5001,"Ġmammalian":5002,"ĠCREB":5003,"Ġmeasures":5004,"Delta":5005,"68":5006,"72":5007,"::":5008,"Barnesiella":5009,"Data":5010,"ED":5011,"GG":5012,"IT":5013,"dec":5014,"fact":5015,"iï¬ģed":5016,"land":5017,"nam":5018,"nature":5019,"uod":5020,"Ġvers":5021,"Ġultim":5022,"inactive":5023,"onical":5024,"Ġsite":5025,"Ġsampl":5026,"tide":5027,"enum":5028,"oring":5029,"orig":5030,"Ġcbi":5031,"Ġculture":5032,"issing":5033,"Ġpublic":5034,"elet":5035,"rosis":5036,"Ġfar":5037,"Ġfix":5038,"Ġfield":5039,"Ġfaults":5040,"ĠmM":5041,"Ġmakes":5042,"Ġbal":5043,"Ġday":5044,"ĠAdditionally":5045,"ask":5046,"omics":5047,"loop":5048,"ĠNK":5049,"ĠNUC":5050,"ĠOther":5051,"ĠIG":5052,"ĠIN":5053,"ĠIs":5054,"osome":5055,"Ġconducted":5056,"ĠBir":5057,"Ġextent":5058,"Ġforthe":5059,"ĠforIBD":5060,"ĠMarkov":5061,"ĠEgr":5062,"Ġaccum":5063,"ĠFrom":5064,"ĠFurther":5065,"rant":5066,"tration":5067,"ĠRIP":5068,"Ġvivo":5069,"redited":5070,"reduplication":5071,"three":5072,"Ġ01":5073,"ypic":5074,"ocument":5075,"Ġrac":5076,"Ġpercentage":5077,"Ġspecified":5078,"contain":5079,"consid":5080,"Ġ49":5081,"herent":5082,"outs":5083,"creativec":5084,"Ġcorrel":5085,"Introduction":5086,"Ġassay":5087,"utationa":5088,"Ġpreser":5089,"Ġthereby":5090,"Ġtract":5091,"Ġcontrols":5092,"Ġcontrolling":5093,"Ġautocrine":5094,"Ġgenerate":5095,"Ġchannels":5096,"Ġinvolve":5097,"REC":5098,"Ġoppos":5099,"Ġmaintained":5100,"âĢĺâĢĺ":5101,"signals":5102,"ĠExpression":5103,"Ġspecification":5104,"Ġlinear":5105,"Ġuell":5106,"Ġnecess":5107,"Ġbinarized":5108,"Ġsequences":5109,"Ġjust":5110,"Ġsecondary":5111,"Ġquantify":5112,"ĠCDKA":5113,"Ġself":5114,"Ġmacrophages":5115,"clusive":5116,"experiment":5117,"Ġmajority":5118,"Ġreveals":5119,"dynamical":5120,"Ġentries":5121,"ĠRecLig":5122,"oolNet":5123,"combination":5124,"perturbation":5125,"perturbations":5126,"Ġtakes":5127,"going":5128,"ĠImmun":5129,"Ġprecursor":5130,"Ġreflect":5131,"Ġsecretion":5132,"Ġeffor":5133,"ecrease":5134,"Ġapplying":5135,"Ġmicrobial":5136,"Ġhyperarcs":5137,"Ġincub":5138,"ĠMLK":5139,"approach":5140,"Ġexplore":5141,"development":5142,"Ġdiscrepancies":5143,"mechanisms":5144,"Ġcrucial":5145,"Ġadvantage":5146,"Ġaspects":5147,"Ġguarantee":5148,"20841":5149,"ĠIRAK":5150,"Ġrecapit":5151,"ebpb":5152,"uodenum":5153,"creativecommons":5154,"/Ā":5155,"85":5156,"98":5157,"Citation":5158,"bu":5159,"bec":5160,"cel":5161,"caus":5162,"ears":5163,"first":5164,"ril":5165,"raf":5166,"tence":5167,"Ġtyrosine":5168,"ina":5169,"Ġast":5170,"repro":5171,"onic":5172,"ĠofIL":5173,"isation":5174,"eline":5175,"robust":5176,"Ġdra":5177,"Ġdimers":5178,"ĠARE":5179,"Ġnt":5180,"arl":5181,"arrow":5182,"ĠTBET":5183,"ĠTSRN":5184,"sts":5185,"stability":5186,"imen":5187,"ĠCLL":5188,"Ġstomata":5189,"ĠSingle":5190,"ĠSecond":5191,"Ġcontained":5192,"Ġconserved":5193,"ĠBL":5194,"ategor":5195,"ĠMit":5196,"Ġcellcycle":5197,"ĠlBiology":5198,"Ġacti":5199,"Ġaccess":5200,"Ġ22":5201,"ĠFas":5202,"oper":5203,"upd":5204,"quis":5205,"performed":5206,"Ġvary":5207,"ĠGut":5208,"ĠGab":5209,"ĠGfi":5210,"ĠHog":5211,"101":5212,"proliferation":5213,"Ġrad":5214,"iving":5215,"Ġdisplay":5216,"01929":5217,"expected":5218,"Ġspecifically":5219,"Ġcommit":5220,"ifications":5221,"Ġhepat":5222,"Ġshowing":5223,"ymph":5224,"ikar":5225,"Ġsupporting":5226,"ĠComputationa":5227,"Ġelec":5228,"Ġelimin":5229,"Ġambivalent":5230,"2009":5231,"Ġinvolving":5232,"istically":5233,"ĠAlso":5234,"Ġbehaviors":5235,"tokines":5236,"ĠAny":5237,"Ġliteral":5238,"Ġdepic":5239,"Ġproperly":5240,"paired":5241,"obtained":5242,"observed":5243,"Ġhelp":5244,"Ġfeature":5245,"Ġinfluenced":5246,"ĠPLoS":5247,"Stat":5248,"Ġlonger":5249,"nolog":5250,"Ġmanuscript":5251,"Ġabsent":5252,"Ġobservation":5253,"arma":5254,"Ġredundant":5255,"piratory":5256,"Ġuncertain":5257,"Ġlinked":5258,"changes":5259,"MICA":5260,"ĠAuthor":5261,"Ġnames":5262,"ĠPhys":5263,"Ġdetermination":5264,"Ġcollection":5265,"Ġgoal":5266,"Ġelementary":5267,"ĠDecemb":5268,"ĠLogic":5269,"Ġincidence":5270,"ĠMLCP":5271,"Ġenzymes":5272,"Ġphysiological":5273,"Ġcalculated":5274,"Ġmaximum":5275,"Ġtranscriptome":5276,"Attractor":5277,"Ġpropagation":5278,"ĠAnionCh":5279,"oxidant":5280,"represents":5281,"Analyzer":5282,"changed":5283,"ipheral":5284,"BL":5285,"Des":5286,"EV":5287,"FAS":5288,"Published":5289,"RR":5290,"Rod":5291,"RIP":5292,"SCR":5293,"])":5294,"bon":5295,"ble":5296,"case":5297,"ched":5298,"ders":5299,"evalu":5300,"fate":5301,"kb":5302,"lines":5303,"published":5304,"sreA":5305,"sensitivity":5306,"va":5307,"von":5308,"wor":5309,"Ġ;":5310,"Ġide":5311,"ĠÃ°":5312,"Ġtod":5313,"ination":5314,"inant":5315,"Ġsites":5316,"Ġsensitive":5317,"Ġwr":5318,"itting":5319,"Ġmass":5320,"Ġmurine":5321,"Ġbars":5322,"Ġbroad":5323,"Ġdependent":5324,"ĠAss":5325,"ĠATP":5326,"ĠAcetic":5327,"eth":5328,"eterm":5329,"Ġna":5330,"Ġng":5331,"Ġreview":5332,"access":5333,"ulse":5334,"Ġeffic":5335,"ĠTRAF":5336,"stead":5337,"statec":5338,"ĠCSS":5339,"Ġiss":5340,"ĠSp":5341,"osynthesis":5342,"Ġproduc":5343,"Ġexplicitly":5344,"ĠPOR":5345,"ĠParis":5346,"ĠMost":5347,"ĠMAL":5348,"ĠER":5349,"ibility":5350,"âĢĶ":5351,"Ġlength":5352,"ĠFC":5353,"ĠFAK":5354,"ĠFrance":5355,"Ġbythe":5356,"ĠTheoretical":5357,"opos":5358,"tics":5359,"tically":5360,"Ġcomparing":5361,"Ġcanc":5362,"Ġcanbe":5363,"ĠDe":5364,"ĠDAG":5365,"ĠHMG":5366,"Ġ32":5367,"ĠWNT":5368,"ĠLe":5369,"ĠLymph":5370,"Ġsystematic":5371,"138":5372,"times":5373,"omeost":5374,"Ġresulted":5375,"Ġphases":5376,"Ġupper":5377,"Ġrepresentative":5378,"Ġlook":5379,"ĠJuly":5380,"Ġround":5381,"Ġscores":5382,"Ġcomplement":5383,"ĠKn":5384,"ASASP":5385,"Ġobserve":5386,"Ġtruth":5387,"ĠÎĽ":5388,"Ġcombinatorial":5389,"within":5390,"1832":5391,"2004":5392,"2008":5393,"ĠStart":5394,"Ġremoving":5395,"Ġallowing":5396,"Ġphospho":5397,"ĠIFNGR":5398,"sequences":5399,"Ġmediators":5400,"ĠTGFB":5401,"Ġsequential":5402,"ĠTNFR":5403,"Ġcurve":5404,"Ġmetabolism":5405,"Ġmetabolites":5406,"ĠZAP":5407,"means":5408,"Ġpromo":5409,"Ġespecially":5410,"Ġcausal":5411,"clusions":5412,"representation":5413,"Ġcarried":5414,"dynamic":5415,"Ġaffected":5416,"Ġinstead":5417,"Ġtesting":5418,"Ġbuild":5419,"Ġabundances":5420,"totox":5421,"Ġsummary":5422,"Ġinterpretation":5423,"Ġpairs":5424,"Ġmalignant":5425,"ĠIECs":5426,"throughput":5427,"Ġcomputing":5428,"Ġachieve":5429,"Ġstatis":5430,"large":5431,"Ġscenarios":5432,"Ġdemonstrated":5433,"Ġclosed":5434,"Ġirre":5435,"Ġinvestigate":5436,"Ġfrequency":5437,"respectively":5438,"Ġimplemented":5439,"Ġprinci":5440,"intestinihominis":5441,"Discussion":5442,"Immun":5443,"Ġcomprises":5444,"Ġdistance":5445,"Frag":5446,"Ġaxis":5447,"Ġensure":5448,"endoza":5449,"ĠSBML":5450,"0131832":5451,"ocumented":5452,"79":5453,"97":5454,"AF":5455,"Ad":5456,"Based":5457,"Cre":5458,"GC":5459,"OFF":5460,"Sci":5461,"TCR":5462,"URE":5463,"YCA":5464,"because":5465,"boh":5466,"cip":5467,"column":5468,"ded":5469,"dence":5470,"fold":5471,"green":5472,"human":5473,"key":5474,"pnas":5475,"source":5476,"snf":5477,"ton":5478,"tol":5479,"uPAR":5480,"vae":5481,"},":5482,"Ġtw":5483,"ĠaT":5484,"ataset":5485,"Ġos":5486,"Ġown":5487,"Ġclos":5488,"esp":5489,"Ġinactivation":5490,"Ġinduces":5491,"ission":5492,"elikar":5493,"Ġanal":5494,"rose":5495,"rophosphate":5496,"left":5497,"Ġways":5498,"Ġfung":5499,"Ġmul":5500,"Ġdark":5501,"Ġdashed":5502,"etent":5503,"Ġnull":5504,"Ġreverse":5505,"acu":5506,"ĠTbet":5507,"ĠTime":5508,"ĠTalin":5509,"stan":5510,"Ġthird":5511,"lock":5512,"Ġstop":5513,"ĠSw":5514,"ĠSCF":5515,"among":5516,"Ġhor":5517,"Ġ1000":5518,"ĠPGN":5519,"ife":5520,"semb":5521,"Ġla":5522,"Ġ27":5523,"ope":5524,"adic":5525,"ĠDi":5526,"ĠGAL":5527,"thus":5528,"Ġuses":5529,"chased":5530,"ĠInput":5531,"forward":5532,"Ġtranslated":5533,"external":5534,"genic":5535,"Ġimplies":5536,"ï¬ĥ":5537,"evertheless":5538,"cyclin":5539,"Ġotherwise":5540,"ronic":5541,"activating":5542,"cogene":5543,"ensus":5544,"Ġoutcomes":5545,"Ġsegment":5546,"Ġidentical":5547,"coming":5548,"ĠCellNet":5549,"tity":5550,"plicity":5551,"Ġinvolves":5552,"ĠApril":5553,"eyde":5554,"ucleo":5555,"simpl":5556,"ĠAnti":5557,"Ġconnecting":5558,"paths":5559,"Ġreference":5560,"particular":5561,"stitut":5562,"Ġnewly":5563,"Ġclearly":5564,"Ġbinarization":5565,"Ġrecovers":5566,"vestig":5567,"Ġintegrin":5568,"angles":5569,"Ġvalidate":5570,"blue":5571,"Ġidentifying":5572,"ferred":5573,"Ġtopological":5574,"Ġinterested":5575,"Ġfinite":5576,"ifying":5577,"represented":5578,"ALT":5579,"Ġintroduce":5580,"Ġhypotheses":5581,"equations":5582,"Ġstored":5583,"Ġsummar":5584,"Ġincorporated":5585,"Dynamical":5586,"mutant":5587,"Ġassumptions":5588,"Ġcytosolic":5589,"Ġconstitutively":5590,"factors":5591,"ĠMACR":5592,"Ġstrategies":5593,"Foxp":5594,"gramming":5595,"Ġphenomen":5596,"ulnerability":5597,"ĠMicrobiome":5598,"Ġquestion":5599,"catenin":5600,"hypothe":5601,"Ġrecru":5602,"ĠOmaha":5603,"Copyright":5604,"acional":5605,"randon":5606,"Ġdistinguish":5607,"quisition":5608,"totoxic":5609,".)":5610,"02":5611,"226":5612,"Col":5613,"Cdc":5614,"ERA":5615,"FIG":5616,"More":5617,"MMPs":5618,"RY":5619,"SI":5620,"Spec":5621,"Tr":5622,"XT":5623,"affec":5624,"cies":5625,"dri":5626,"found":5627,"focus":5628,"how":5629,"haus":5630,"iency":5631,"kinetic":5632,"ld":5633,"lux":5634,"molec":5635,"multi":5636,"potential":5637,"rm":5638,"ram":5639,"rate":5640,"rules":5641,"sol":5642,"spon":5643,"ued":5644,"wg":5645,"xed":5646,"yd":5647,"Ġtran":5648,"infected":5649,"included":5650,"hest":5651,"revious":5652,"Ġsens":5653,"ern":5654,"tiz":5655,"eness":5656,"entific":5657,"Ġcere":5658,"ĠcAMP":5659,"esides":5660,"ansion":5661,"anuscript":5662,"Ġpin":5663,"Ġpred":5664,"Ġfer":5665,"Ġfore":5666,"Ġfold":5667,"Ġmentioned":5668,"acch":5669,"Ġtoo":5670,"igen":5671,"ĠTfh":5672,"ombin":5673,"stalk":5674,"load":5675,"ĠCH":5676,"ressed":5677,"resist":5678,"unrestricted":5679,"ĠSI":5680,"ĠSte":5681,"ĠSome":5682,"Ġhold":5683,"ĠBC":5684,"Ġprostate":5685,"olding":5686,"ĠPBCN":5687,"004":5688,"005":5689,"ĠMDM":5690,"ĠMolecular":5691,"ĠEbf":5692,"Ġacts":5693,"opsis":5694,"adigm":5695,"trboh":5696,"Ġcanonical":5697,"ĠRed":5698,"ĠREL":5699,"rome":5700,"ĠDISC":5701,"tof":5702,"direct":5703,"ĠGiven":5704,"thase":5705,"ĠInhib":5706,"Ġinterval":5707,"Ġintermedi":5708,"proliferative":5709,"occur":5710,"Ġregulating":5711,"Ġlet":5712,"ubiqu":5713,"dings":5714,"Ġperman":5715,"ĠWT":5716,"ĠWestern":5717,"Ġspeciï¬ģc":5718,"ĠLi":5719,"content":5720,"Theoretical":5721,"Ġparts":5722,"aves":5723,"Ġresponsible":5724,"abilistic":5725,"oint":5726,"Ġadult":5727,"ĠCDC":5728,"ĠUp":5729,"Ġdetected":5730,"ĠVal":5731,"Ġsubconstrain":5732,"ceramide":5733,"Ġindeed":5734,"Ġ2005":5735,"struction":5736,"ualism":5737,"tributions":5738,"Ġtra":5739,"ĠÎ¼":5740,"degree":5741,"does":5742,"Ġredescribed":5743,"Ġmicroarray":5744,"Ġ90":5745,"Ġlarvae":5746,"Ġdecl":5747,"Ġvariety":5748,"Ġphenotypic":5749,"tenance":5750,"Ġstudying":5751,"Ġsigniï¬ģcant":5752,"transduction":5753,"2013":5754,"Ġincreasing":5755,"Ġdefin":5756,"Ġdesigned":5757,"Ġbasins":5758,"ĠActin":5759,"ĠPPI":5760,"Ġproperty":5761,"Ġï¬ģn":5762,"environments":5763,"encing":5764,"Ġherein":5765,"Ġtherapies":5766,"Ġblood":5767,"Ġmitosis":5768,"IFNÎ³R":5769,"ĠPAI":5770,"Ġinsight":5771,"ields":5772,"Ġcurrently":5773,"Ġevaluated":5774,"Ġcontributed":5775,"ĠCYCB":5776,"Ġhighest":5777,"BID":5778,"viations":5779,"Ġtrials":5780,"perturbed":5781,"ngth":5782,"Ġexistence":5783,"ARCH":5784,"Ġheterogene":5785,"Ġcollected":5786,"Ġresistant":5787,"Ġerrors":5788,"Ġbreak":5789,"location":5790,"Ġdomain":5791,"Ġassessed":5792,"Ġeventually":5793,"probability":5794,"2105":5795,"ÃŃa":5796,"Ġfailure":5797,"Ġgreater":5798,"SEARCH":5799,"Ġzap":5800,"Ġcandidate":5801,"itrary":5802,"Editor":5803,"Ġsymmetry":5804,"ĠFOXP":5805,"circuit":5806,"Ġputative":5807,"literature":5808,"Ġpanel":5809,"Ġduration":5810,"ĠZhang":5811,"ĠCHKREC":5812,"eleton":5813,"Ġvarying":5814,"ĠLymphocyte":5815,"Ġstatistical":5816,"FIGURE":5817,"ubiquit":5818,"+-":5819,"66":5820,"67":5821,"93":5822,"ADP":5823,"DS":5824,"DOI":5825,"Ebf":5826,"Fas":5827,"Funding":5828,"Log":5829,"Modelling":5830,"Mathematical":5831,"SREBP":5832,"ULP":5833,"When":5834,"WIST":5835,"bel":5836,"dle":5837,"disease":5838,"eap":5839,"feren":5840,"gence":5841,"haran":5842,"ke":5843,"keleton":5844,"ll":5845,"lational":5846,"making":5847,"ou":5848,"sf":5849,"sum":5850,"sugges":5851,"since":5852,"small":5853,"second":5854,"uff":5855,"vare":5856,"xi":5857,"Â©":5858,"Î¼":5859,"int":5860,"inï¬Ĥ":5861,"Ġthenetwork":5862,"Ġsqu":5863,"Ġsources":5864,"alt":5865,"alter":5866,"Ġinser":5867,"ĠinIBD":5868,"Ġofa":5869,"ange":5870,"Ġprac":5871,"Ġpackage":5872,"eli":5873,"eled":5874,"Ġanimal":5875,"Ġfiles":5876,"Ġduodenum":5877,"Ġnuclear":5878,"ash":5879,"Ġtobe":5880,"ĠTF":5881,"ĠOver":5882,"ĠIBD":5883,"ĠSNO":5884,"ĠSnf":5885,"amond":5886,"amental":5887,"Ġhierarch":5888,"uctural":5889,"idopsis":5890,"idharan":5891,"abidopsis":5892,"Ġexer":5893,"ĠPark":5894,"ifies":5895,"sever":5896,"versid":5897,"ĠFVY":5898,"open":5899,"rief":5900,"ĠDO":5901,"direc":5902,"ĠGai":5903,"Ġkind":5904,"atient":5905,"those":5906,"ĠHOG":5907,"ĠHeyde":5908,"ĠIns":5909,"clust":5910,"Ġrab":5911,"Ġenable":5912,"Ġenough":5913,"Ġcytotoxic":5914,"contr":5915,"ousek":5916,"Ġ40":5917,"iae":5918,"120":5919,"Ġcoe":5920,"Ġadding":5921,"Ġpositively":5922,"oster":5923,"âĪĹ":5924,"binding":5925,"Ġeffector":5926,"ĠVir":5927,"could":5928,"Ġbiolog":5929,"Ġunits":5930,"Ġ2003":5931,"Ġinference":5932,"Ġyellow":5933,"Ġ70":5934,"scape":5935,"Ġappropriate":5936,"Ġgraphical":5937,"Ġ96":5938,"while":5939,"white":5940,"being":5941,"Ġplays":5942,"niversid":5943,"Ġsynchron":5944,"Ġnegatively":5945,"Ġequal":5946,"simon":5947,"Ġdefault":5948,"aez":5949,"assess":5950,"spective":5951,"Ġagents":5952,"Ġconverted":5953,"Ġconverges":5954,"stitutes":5955,"âĪĴâĪĴ":5956,"uzzy":5957,"ogenic":5958,"Ġnecrosis":5959,"Ġempirical":5960,"CSF":5961,"Ġdevelopmental":5962,"MAL":5963,"Activation":5964,"itory":5965,"biochemical":5966,"Ġpotentially":5967,"Ġ2010":5968,"metabolic":5969,"Ġcolor":5970,"Î³Î³":5971,"downstream":5972,"Ġcourses":5973,"ĠFoxO":5974,"rosstalk":5975,"STM":5976,"All":5977,"equivalent":5978,"ahn":5979,"Ġtriple":5980,"Ġinterpret":5981,"Ġcolumns":5982,"Ġresemb":5983,"Ġtissues":5984,"Ġstabilize":5985,"TAFC":5986,"Ġconverged":5987,"Ġlocation":5988,"effects":5989,"ĠInterleukin":5990,"Ġclose":5991,"Ġdriven":5992,"dinary":5993,"Ġpoly":5994,"Ġconfirmed":5995,"NoG":5996,"visiae":5997,"ĠHeat":5998,"tumour":5999,"Ġlisted":6000,"quantitative":6001,"Ġderegulations":6002,"ĠMetastasis":6003,"grees":6004,"Ġsituation":6005,"Ġchallen":6006,"Ġtechniques":6007,"Ġaperture":6008,"ĠAceticAcid":6009,"Ġcancers":6010,"ULPB":6011,"varez":6012,"ousekeeping":6013,"niversidad":6014,"83":6015,"94":6016,"AIF":6017,"Bi":6018,"Brandon":6019,"CI":6020,"Collective":6021,"Creative":6022,"FADD":6023,"Is":6024,"JUN":6025,"KAkt":6026,"Materials":6027,"NMA":6028,"Ph":6029,"Rg":6030,"RSK":6031,"TOS":6032,"Wh":6033,"bas":6034,"box":6035,"ches":6036,"during":6037,"ean":6038,"fac":6039,"further":6040,"hp":6041,"lt":6042,"lab":6043,"labor":6044,"mong":6045,"max":6046,"method":6047,"power":6048,"pris":6049,"ptc":6050,"tl":6051,"tz":6052,"via":6053,"Âº":6054,"ĠÃ":6055,"Ġten":6056,"Ġtask":6057,"Ġarb":6058,"rez":6059,"reconstruc":6060,"Ġsa":6061,"Ġseed":6062,"Ġside":6063,"aling":6064,"Ġcollective":6065,"Ġcategor":6066,"edge":6067,"estim":6068,"Ġinducing":6069,"Ġinfected":6070,"Ġincomplete":6071,"Ġinherent":6072,"ĠofIBD":6073,"ish":6074,"Ġpi":6075,"Ġptc":6076,"lear":6077,"leading":6078,"itable":6079,"Ġfeed":6080,"Ġfuzzy":6081,"Ġmorph":6082,"Ġbist":6083,"Ġdon":6084,"Ġdif":6085,"Ġdendritic":6086,"ĠAd":6087,"ĠAg":6088,"Ġnor":6089,"Ġnhh":6090,"Ġnatural":6091,"odynam":6092,"Ġec":6093,"ĠTFs":6094,"omas":6095,"stB":6096,"star":6097,"import":6098,"utri":6099,"ĠCI":6100,"ĠCrk":6101,"ĠNR":6102,"ĠNck":6103,"ĠNext":6104,"ĠNevertheless":6105,"unx":6106,"ĠOf":6107,"ĠSidA":6108,"ĠSREBP":6109,"ĠStimuli":6110,"Ġget":6111,"ĠBb":6112,"ĠBl":6113,"idely":6114,"iddle":6115,"Ġproduct":6116,"abs":6117,"otal":6118,"Ġextrac":6119,"ĠPH":6120,"ĠPTC":6121,"0001":6122,"ĠMEKK":6123,"ceed":6124,"oward":6125,"Ġonto":6126,"Ġonco":6127,"Ġonset":6128,"Ġlated":6129,"Ġacting":6130,"Ġaccord":6131,"ĠFile":6132,"ĠFAS":6133,"range":6134,"tex":6135,"applied":6136,"ĠRep":6137,"Ġweak":6138,"Ġattem":6139,"Ġactivities":6140,"ĠGu":6141,"than":6142,"clic":6143,"clonal":6144,"prog":6145,"prostatec":6146,"Ġ31":6147,"forming":6148,"Ġcytoplasm":6149,"ularity":6150,"ĠLet":6151,"ĠLig":6152,"ĠLachnospiraceae":6153,"gest":6154,"Ġnever":6155,"Ġchronic":6156,"Ġabnormal":6157,"APC":6158,"illus":6159,"Ġposition":6160,"ception":6161,"Ġcorrelated":6162,"Ins":6163,"Inter":6164,"Ġscienti":6165,"Ġnoise":6166,"Ġ63":6167,"Ġassoci":6168,"Ġunit":6169,"estine":6170,"enses":6171,"sider":6172,"identify":6173,"ĠKEV":6174,"aging":6175,"10045":6176,"100226":6177,"ounds":6178,"Ġtranscriptionally":6179,"deburg":6180,"Ġmodifications":6181,"Ġforms":6182,"Ġhighligh":6183,"Ġwildtype":6184,"omatic":6185,"Accepted":6186,"Ġtargeting":6187,"ĠStm":6188,"Ġplus":6189,"Ġplant":6190,"Ġplants":6191,"Ġintestine":6192,"similar":6193,"2018":6194,"canalization":6195,"ĠAnother":6196,"ship":6197,"pregu":6198,"standard":6199,"orylated":6200,"CYCD":6201,"ĠAccording":6202,"relationship":6203,"Ġpurchased":6204,"ĠGenomics":6205,"presented":6206,"Ġintegrating":6207,"Ġregions":6208,"Ġconsisting":6209,"Ġmapped":6210,"Ġquanti":6211,"Ġinterests":6212,"Ġmitotic":6213,"Ġpromote":6214,"Ġrelease":6215,"ĠMYC":6216,"Ġcarbon":6217,"Ġhypothetical":6218,"Ġextended":6219,"ĠReceptor":6220,"Ġbelong":6221,"Ġdisruptions":6222,"linear":6223,"ĠSimulations":6224,"combined":6225,"ĠRespon":6226,"Ġpartially":6227,"iii":6228,"Ġincorporate":6229,"Ġincorporating":6230,"Ġdatabase":6231,"idermal":6232,"Ġkinetics":6233,"Ġheterodimers":6234,"Ġcaptured":6235,"Competing":6236,"Ġgrant":6237,"Ġclusters":6238,"Ġclustering":6239,"780":6240,"Ġdemonstrate":6241,"Ġdifferentiate":6242,"stood":6243,"Ġenzyme":6244,"brid":6245,"ientific":6246,"ductase":6247,"Ġbuilding":6248,"Ġexamined":6249,"Ġconsensus":6250,"Ġstrategy":6251,"Ġreplicates":6252,"Gene":6253,"ginning":6254,"Ġemergent":6255,"variables":6256,"Ġendoreduplication":6257,"Ġchemical":6258,"Ġbinds":6259,"affold":6260,"Ġemployed":6261,"Ġcreate":6262,"Ġneighbour":6263,"Ġtrajectories":6264,"Ġlys":6265,"Ġtypically":6266,"studies":6267,"diï¬Ģerentiation":6268,"Ġstrength":6269,"Ġadjac":6270,"resulting":6271,"Ġkeratinocyte":6272,"Ġrestric":6273,"redundancy":6274,"Ġultimately":6275,"original":6276,"Ġbalance":6277,"Ġopposite":6278,"Ġdrawn":6279,"nologies":6280,"Rodrig":6281,"cipal":6282,"toli":6283,"ĠCellNetAnalyzer":6284,"several":6285,"simonious":6286,"1004571":6287,"1002267":6288,"++":6289,"Cebpa":6290,"Dyn":6291,"Each":6292,"FAK":6293,"GA":6294,"HGF":6295,"HOG":6296,"IKB":6297,"LF":6298,"LG":6299,"Mig":6300,"MCD":6301,"MEKK":6302,"Nrf":6303,"OL":6304,"Pax":6305,"PTEN":6306,"RS":6307,"RIA":6308,"SH":6309,"Sil":6310,"Systems":6311,"TS":6312,"Tbet":6313,"VH":6314,"WT":6315,"^:":6316,"bp":6317,"bacter":6318,"bortezomib":6319,"cient":6320,"fied":6321,"lig":6322,"lam":6323,"late":6324,"last":6325,"laboratory":6326,"may":6327,"na":6328,"rgt":6329,"size":6330,"tC":6331,"tbiomed":6332,"vol":6333,"will":6334,"Â°":6335,"âĺ":6336,"interest":6337,"Ġaber":6338,"reports":6339,"Ġspl":6340,"Ġsex":6341,"Ġsys":6342,"ĠsreA":6343,"Ġsatis":6344,"erate":6345,"enef":6346,"ality":6347,"Ġofp":6348,"ano":6349,"isto":6350,"round":6351,"leukem":6352,"Ġmach":6353,"Ġmaster":6354,"Ġbran":6355,"Ġdensity":6356,"Ġdamag":6357,"ĠARF":6358,"eter":6359,"Ġname":6360,"arb":6361,"Ġrepe":6362,"Ġreductase":6363,"actose":6364,"ulates":6365,"odimer":6366,"Ġearl":6367,"ĠTechnology":6368,"loss":6369,"ĠCsk":6370,"ĠNacional":6371,"ĠIS":6372,"ĠIKB":6373,"ĠST":6374,"Ġhomeost":6375,"Ġgray":6376,"ĠBe":6377,"ĠBach":6378,"ĠBacter":6379,"about":6380,"above":6381,"otted":6382,"Ġexhaus":6383,"olic":6384,"ĠPl":6385,"ĠMat":6386,"ĠMirB":6387,"ĠManuscript":6388,"Ġaswell":6389,"ĠEN":6390,"Ġactin":6391,"Ġacquisition":6392,"ĠThen":6393,"ured":6394,"upling":6395,"ques":6396,"anded":6397,"Ġcompar":6398,"Ġatten":6399,"undance":6400,"ept":6401,"ĠHH":6402,"ĠHom":6403,"ĠHahn":6404,"ĠHousekeeping":6405,"1010":6406,"iza":6407,"prote":6408,"proper":6409,"ĠThiel":6410,"ococ":6411,"Ġsimplicity":6412,"Ġdefec":6413,"Ġrise":6414,"Ġ38":6415,"Ġenrichment":6416,"âĢĻ.":6417,"Ġchrom":6418,"Ġchose":6419,"astatic":6420,"Ġsimula":6421,"Ġsimulating":6422,"Ġinhibitions":6423,"Ġparasegment":6424,"Ġournal":6425,"herin":6426,"Ġnovo":6427,"isms":6428,"ï¬ģrm":6429,"compared":6430,"Ġunrestricted":6431,"turbation":6432,"Ġyield":6433,"Ġdiamond":6434,"45780":6435,"indle":6436,"Ġmode":6437,"2086":6438,"ĠComput":6439,"ckp":6440,"Actin":6441,"Ġtargeted":6442,"Ġproviding":6443,"Ġsynthes":6444,"translational":6445,"2011":6446,"ï£¯":6447,"vention":6448,"overex":6449,"new":6450,"ĠoftheSASP":6451,"adeh":6452,"Ġrank":6453,"âĪĴ]":6454,"iRNA":6455,"ĠYap":6456,"Ġfragment":6457,"licenses":6458,"obser":6459,"Ġmaps":6460,"ĠMedicine":6461,"arcin":6462,"ĠSPHK":6463,"criptome":6464,"Ġindividuals":6465,"Ġremained":6466,"Stress":6467,"corporating":6468,"Ġlymphocytes":6469,"experiments":6470,"ĠOnce":6471,"Ġextend":6472,"phosphorylation":6473,"Ġuncover":6474,"combinations":6475,"Although":6476,"Ġtransiently":6477,"Ġratio":6478,"Ġtaking":6479,"ĠJAKi":6480,"Ġpossibly":6481,"Ġprecise":6482,"generated":6483,"ĠNotice":6484,"Ġapplications":6485,"Ġefï¬Ĥux":6486,"Ġencoded":6487,"receptors":6488,"Ġfibre":6489,"igmoid":6490,"Ġdivided":6491,"Ġactual":6492,"Sridharan":6493,"ĠDynamics":6494,"Bioinformatics":6495,"increase":6496,"ÎĶsnf":6497,"ĠSpecifically":6498,"Ġbiosynthesis":6499,"ĠIKKi":6500,"Ġcolored":6501,"Ġseems":6502,"ickly":6503,"Ġnumerical":6504,"consistent":6505,"Ġestablishment":6506,"Ġfacilitate":6507,"Ġlearning":6508,"Ġviability":6509,"Ġprogenitor":6510,"Ġpersistence":6511,"ĠSertoli":6512,"Ġtimescales":6513,"Ġidentiï¬ģed":6514,"parameters":6515,"ĠQu":6516,"ĠBAX":6517,"âī¤":6518,"ulosa":6519,"Ġversus":6520,"Ġnecessarily":6521,"imension":6522,"Ġcommitment":6523,"Ġhepatocytes":6524,"oposide":6525,"Immuno":6526,"Ġarbitrary":6527,"Rodriguez":6528,"âĺ¯":6529,"ĠThiele":6530,"/âĪŀ":6531,"03":6532,"AM":6533,"CE":6534,"EE":6535,"FRA":6536,"Iron":6537,"IkB":6538,"ION":6539,"OUT":6540,"PIP":6541,"QU":6542,"Ras":6543,"SN":6544,"Sp":6545,"STE":6546,"SMAD":6547,"Trans":6548,"Time":6549,"Un":6550,"VF":6551,"bed":6552,"bes":6553,"cad":6554,"cdc":6555,"da":6556,"eff":6557,"even":6558,"gF":6559,"hn":6560,"ively":6561,"ligand":6562,"lvarez":6563,"ma":6564,"mx":6565,"major":6566,"molecular":6567,"nents":6568,"oclonal":6569,"pens":6570,"pNFkB":6571,"scription":6572,"xon":6573,"xample":6574,"ygen":6575,"yeast":6576,"zadeh":6577,"Ã¡":6578,"Ã¼":6579,"ÆĴ":6580,"ËĨ":6581,"Ā/Ā":6582,"Ġ#":6583,"ĠÃ¾":6584,"Ġï¬Ĥ":6585,"Ġubiquit":6586,"ģlvarez":6587,"Ġtend":6588,"Ġtechnology":6589,"induction":6590,"Ġthemodel":6591,"Ġsl":6592,"Ġsigmoid":6593,"err":6594,"orb":6595,"Ġcdc":6596,"Ġcreated":6597,"Ġcrosstalk":6598,"Ġinte":6599,"Ġinform":6600,"Ġincoming":6601,"ists":6602,"Ġpy":6603,"Ġpulse":6604,"Ġmerg":6605,"Ġdose":6606,"Ġdual":6607,"asome":6608,"acity":6609,"Ġeo":6610,"ĠTAK":6611,"ective":6612,"stochastic":6613,"NDI":6614,"ĠCal":6615,"ĠCar":6616,"ĠChem":6617,"ĠCIA":6618,"ĠCebpb":6619,"ĠNon":6620,"usch":6621,"result":6622,"Ġstatic":6623,"ĠOr":6624,"ĠID":6625,"ĠIAP":6626,"ĠSub":6627,"ĠSNF":6628,"ĠSeveral":6629,"ĠSets":6630,"ĠSRY":6631,"terior":6632,"terococ":6633,"amp":6634,"Ġgre":6635,"osing":6636,"Ġconven":6637,"Ġconclude":6638,"ĠBlood":6639,"ilding":6640,"Ġprot":6641,"Ġproduces":6642,"ĠMek":6643,"ĠMDP":6644,"ĠMIG":6645,"emzadeh":6646,"ĠFGFR":6647,"random":6648,"aps":6649,"Ġcompo":6650,"ĠRIA":6651,"ĠRAC":6652,"ĠDue":6653,"ignaling":6654,"Ġattrac":6655,"Ġactiva":6656,"ĠGSD":6657,"Ġuser":6658,"ĠIni":6659,"clase":6660,"106":6661,"proposed":6662,"teins":6663,"ublish":6664,"Ġ34":6665,"Ġperspective":6666,"0123":6667,"0163":6668,"porter":6669,"ĠWil":6670,"ĠLIH":6671,"condition":6672,"constitu":6673,"Ġinteracting":6674,"137":6675,"taining":6676,"Ġ446":6677,"unders":6678,"itional":6679,"Ġparsimonious":6680,"Ġundergo":6681,"Ġunderstood":6682,"erminal":6683,"NFAT":6684,"cepts":6685,"ails":6686,"âĪĳ":6687,"Ġcorre":6688,"Ġcorrob":6689,"munication":6690,"Ġdetection":6691,"Ġ2017":6692,"Ġassign":6693,"Ġunchanged":6694,"turbations":6695,"Ġsubstan":6696,"escribes":6697,"lasts":6698,"Ġarray":6699,"Ġindex":6700,"regulate":6701,"Ġ2001":6702,"ternatively":6703,"agdeburg":6704,"Ġdiverse":6705,"ĠFigures":6706,"2164":6707,"Ġmodelled":6708,"Ġforming":6709,"double":6710,"uke":6711,"Ġgeneration":6712,"Ġredescribe":6713,"plication":6714,"whose":6715,"Thus":6716,"REL":6717,"RESEARCH":6718,"Ġantioxidant":6719,"Ġsigns":6720,"Ġintes":6721,"Ġfeedbacks":6722,"âĢĻâĢĻ,":6723,"simulated":6724,"ï£«":6725,"ï£Ń":6726,"Ġmater":6727,"Ġmaintenance":6728,"ĠAnd":6729,"ĠMCS":6730,"Ġbasic":6731,"163":6732,"ogenesis":6733,"Ġemer":6734,"inhibit":6735,"Ġdepict":6736,"cussed":6737,"Ġcapable":6738,"Ġmemory":6739,"Ġintegrate":6740,"Ġmapping":6741,"Ġinfluences":6742,"Ġverified":6743,"topic":6744,"ĠSOX":6745,"Ġphosphorylated":6746,"Ġaddressed":6747,"Ġneeds":6748,"Ġcontradic":6749,"Ġoscillatory":6750,"TICL":6751,"Ġserve":6752,"Ġserum":6753,"Ġsimplest":6754,"Ġsimplification":6755,"established":6756,"representing":6757,"ĠCYCA":6758,"evation":6759,"event":6760,"ĠUnder":6761,"ccA":6762,"SAgF":6763,"Ġunclear":6764,"ochondria":6765,"ochondrial":6766,"MYB":6767,"Ġlinking":6768,"ĠResults":6769,"Ġsummarized":6770,"SCAP":6771,"Ġstabilized":6772,"Ġblocks":6773,"Ġblocking":6774,"automata":6775,"automaton":6776,"Ġindependently":6777,"Ġhelminths":6778,"9262":6779,"Models":6780,"Ġturned":6781,"antigen":6782,"Ġgranular":6783,"Ġamounts":6784,"Ġcomputer":6785,"component":6786,"ĠInterests":6787,"Ġlimitations":6788,"additional":6789,"Ġexplored":6790,"ĠDiscrete":6791,"Ġmaintaining":6792,"Ġmitochondrial":6793,"portantly":6794,"processes":6795,"ÎĶmig":6796,"respective":6797,"ĠScience":6798,"determined":6799,"primary":6800,"Ġconstitutive":6801,"Ġdiscrepancy":6802,"Ġexpansion":6803,"provides":6804,"marked":6805,"selves":6806,"Ġhomolog":6807,"Ġchoice":6808,"intestinal":6809,"measured":6810,"allows":6811,"Therefore":6812,"maps":6813,"ĠÏĦ":6814,"enputs":6815,"orrespondence":6816,"Ġexpressing":6817,"phenotype":6818,"ĠARTICL":6819,"Ġrecognition":6820,"junction":6821,"azemzadeh":6822,"sthat":6823,"chestr":6824,"membrane":6825,"patterns":6826,"Ġintuitive":6827,"Ġexplanation":6828,"configurations":6829,"loops":6830,"ĠIGVH":6831,"Ġefforts":6832,"Ġradical":6833,"Ġdisplayed":6834,"Ġprinciple":6835,"ucleotide":6836,"Ġcerevisiae":6837,"Ġbistability":6838,"importance":6839,"ĠGuard":6840,"FRAG":6841,"Ġcorrobor":6842,".(":6843,"91":6844,"95":6845,"Ak":6846,"ARE":6847,"BS":6848,"BT":6849,"BIR":6850,"DH":6851,"EP":6852,"FLIP":6853,"HMG":6854,"Kazemzadeh":6855,"Mo":6856,"MAP":6857,"MIS":6858,"OU":6859,"Or":6860,"Os":6861,"Other":6862,"Phi":6863,"Sh":6864,"Ser":6865,"Syn":6866,"Since":6867,"SPC":6868,"UK":6869,"With":6870,"Xi":6871,"arom":6872,"bound":6873,"cis":6874,"diff":6875,"dered":6876,"eg":6877,"early":6878,"flow":6879,"face":6880,"family":6881,"folding":6882,"gely":6883,"kz":6884,"likely":6885,"men":6886,"mutation":6887,"many":6888,"mentioned":6889,"nce":6890,"ners":6891,"nai":6892,"pop":6893,"part":6894,"pRB":6895,"rays":6896,"silico":6897,"sensitive":6898,"tag":6899,"tual":6900,"treated":6901,"vasion":6902,"whether":6903,"yond":6904,"yces":6905,"Ã¶":6906,"Ġ000":6907,"Ġtreat":6908,"review":6909,"ones":6910,"onthe":6911,"tities":6912,"alf":6913,"Ġcard":6914,"Ġcurv":6915,"Ġcode":6916,"Ġceramide":6917,"Ġinfec":6918,"Ġintrinsic":6919,"another":6920,"istry":6921,"Ġpass":6922,"eles":6923,"role":6924,"Ġwide":6925,"itec":6926,"ingh":6927,"Ġfit":6928,"Ġbit":6929,"Ġdocumented":6930,"ĠAv":6931,"ĠAICD":6932,"aries":6933,"asynchronous":6934,"asites":6935,"Ġreaches":6936,"ody":6937,"ĠTreg":6938,"imp":6939,"lop":6940,"ĠCur":6941,"ĠCentral":6942,"Ġstem":6943,"Ġstuck":6944,"vere":6945,"ĠOut":6946,"ĠIka":6947,"ĠSAPK":6948,"ĠSDM":6949,"Ġgate":6950,"ĠBar":6951,"ĠBortezomib":6952,"idel":6953,"Ġproto":6954,"otent":6955,"Ġalmost":6956,"Ġexec":6957,"Ġexcluded":6958,"Ġexclusive":6959,"olation":6960,"ĠPCR":6961,"006":6962,"ĠMa":6963,"ĠMc":6964,"ĠMar":6965,"Ġassemb":6966,"ĠEM":6967,"ĠEGR":6968,"ĠEquation":6969,"Ġbeginning":6970,"tives":6971,"emat":6972,"empl":6973,"ĠFe":6974,"ĠFr":6975,"ĠFFA":6976,"presence":6977,"urer":6978,"appe":6979,"Ġorchestr":6980,"Ġcompeting":6981,"ĠRal":6982,"ĠRap":6983,"ĠRef":6984,"ĠDM":6985,"ĠDrug":6986,"ĠDSB":6987,"athrin":6988,"Ġrespiratory":6989,"together":6990,"ducer":6991,"clb":6992,"Ġtransdifferentiation":6993,"105":6994,"phas":6995,"phot":6996,"phys":6997,"uby":6998,"Ġ36":6999,"ĠWnt":7000,"exist":7001,"Ġcytoch":7002,"continuous":7003,"gray":7004,"131":7005,"Ġneuro":7006,"understanding":7007,"Ġabbre":7008,"123":7009,"Ġparadigm":7010,"Ġobvious":7011,"Ġphag":7012,"ificance":7013,"binary":7014,"Ġlost":7015,"ĠUniversidad":7016,"ĠUpregu":7017,"Ġ68":7018,"activates":7019,"coxon":7020,"identified":7021,"Ġgrow":7022,"Ġoutgoing":7023,"regulates":7024,"Ġ2002":7025,"Ġ2004":7026,"oxin":7027,"structure":7028,"Ġ/âĪŀ":7029,"Ġqualitatively":7030,"Ġformer":7031,"ieve":7032,"ieved":7033,"Ġstimulates":7034,"without":7035,"Ġchanging":7036,"Ġchanged":7037,"Ġconsideration":7038,"CAG":7039,"ï£¶":7040,"ï£¸":7041,"Ã¾ATPase":7042,"ĠProcess":7043,"Ġavailability":7044,"levels":7045,"Ġadditionally":7046,"Ġminutes":7047,"Ġminimum":7048,"Ġbaseline":7049,"Ġlineage":7050,"Ġsmallest":7051,"Ġstructures":7052,"ĠTNFa":7053,"Ġsuitable":7054,"plosbiology":7055,"feron":7056,"ĠClindamycin":7057,"Ġoccurring":7058,"DPI":7059,"body":7060,"Ġmanip":7061,"helminth":7062,"ĠDCII":7063,"Ġ000000":7064,"Ġcontributions":7065,"Ġaffects":7066,"ĠUncertain":7067,"Research":7068,"Cycle":7069,"Ġfaulty":7070,"Ġoperator":7071,"ĠÎ²e":7072,"ĠArabidopsis":7073,"Ġsolely":7074,"SCF":7075,"Ġdiscussion":7076,"Ġfewer":7077,"Ġappears":7078,"Ġstatins":7079,"Ġapply":7080,"targets":7081,"Ġfibres":7082,"Ġmarked":7083,"shows":7084,"matrix":7085,"wildcard":7086,"limp":7087,"Ġexamine":7088,"Â§Â§":7089,"primed":7090,"Ġmaximal":7091,"defined":7092,"Ġendocycle":7093,"selected":7094,"tumor":7095,"Ġtriggering":7096,"Ġpeaks":7097,"Percentage":7098,"Ġresting":7099,"Ġexhibited":7100,"11032":7101,"Ġlists":7102,"ĠDepartment":7103,"DeP":7104,"phenotypes":7105,"Ġprogenitors":7106,"Ġdatasets":7107,"âĢł,":7108,"educed":7109,"ĠShc":7110,"Ġexactly":7111,"GDI":7112,"Ġreceived":7113,"PEST":7114,"Ġcataly":7115,"ĠGaq":7116,"ĠGroup":7117,"Ġenabling":7118,"ĠActivation":7119,"Ġdigital":7120,"Ġfixing":7121,"Ġcorrelation":7122,"Ġproducts":7123,"Ġholds":7124,"Ġdeclared":7125,"Ġï¬ģndings":7126,"contrast":7127,"Ġneighbouring":7128,"Silva":7129,"lamt":7130,"Ġearlier":7131,"Ġintestin":7132,"aromyces":7133,"kzf":7134,"Ġcurves":7135,"Ġcytochrome":7136,"ĠUncertainty":7137,"84":7138,"Analysis":7139,"Bl":7140,"Cat":7141,"Cas":7142,"CHK":7143,"Equation":7144,"From":7145,"GP":7146,"GAL":7147,"He":7148,"HCC":7149,"IKK":7150,"KE":7151,"Key":7152,"Micro":7153,"Next":7154,"One":7155,"Se":7156,"SMP":7157,"SLT":7158,"TRA":7159,"Using":7160,"average":7161,"cation":7162,"cand":7163,"cPARP":7164,"dt":7165,"due":7166,"dress":7167,"decrease":7168,"gL":7169,"ga":7170,"glucose":7171,"ht":7172,"itis":7173,"jaT":7174,"kx":7175,"lay":7176,"miR":7177,"mice":7178,"motic":7179,"mission":7180,"oR":7181,"rr":7182,"sre":7183,"survival":7184,"tack":7185,"ufact":7186,"yet":7187,"ze":7188,"Ä±":7189,"Ġund":7190,"Ġ**":7191,"Ġta":7192,"Ġtight":7193,"Ġaf":7194,"ref":7195,"athe":7196,"atch":7197,"Ġthes":7198,"Ġtheore":7199,"Ġsk":7200,"Ġsus":7201,"Ġsem":7202,"ĠsiRNA":7203,"ery":7204,"erior":7205,"Ġci":7206,"Ġcredited":7207,"edical":7208,"Ġpure":7209,"ele":7210,"elan":7211,"Ġfiring":7212,"ĠmTOR":7213,"Ġdby":7214,"Ġandrogen":7215,"Ġnine":7216,"ĠnWG":7217,"Ġnutri":7218,"asive":7219,"Ġrect":7220,"Ġreorgan":7221,"Ġrepair":7222,"aced":7223,"actin":7224,"acetyl":7225,"Ġtoler":7226,"igures":7227,"ĠTP":7228,"ĠTpl":7229,"ecu":7230,"utations":7231,"local":7232,"ĠNf":7233,"ĠNIH":7234,"usion":7235,"ĠOST":7236,"ĠII":7237,"ĠIGF":7238,"ĠSmad":7239,"them":7240,"Ġge":7241,"uccess":7242,"Ġconsequences":7243,"ĠBID":7244,"ĠBoolNet":7245,"ĠBlimp":7246,"ili":7247,"idates":7248,"Ġproven":7249,"Ġexamples":7250,"olip":7251,"ĠPE":7252,"ĠPredic":7253,"ĠMem":7254,"ĠMesp":7255,"ĠEL":7256,"ĠEd":7257,"ĠEven":7258,"ĠESCR":7259,"ifi":7260,"ift":7261,"version":7262,"versible":7263,"ements":7264,"Ġarea":7265,"iored":7266,"adder":7267,"tract":7268,"upstream":7269,"qual":7270,"andM":7271,"Ġview":7272,"Ġvacu":7273,"ĠDataset":7274,"tool":7275,"Ġactivations":7276,"ĠGal":7277,"ĠGPA":7278,"Ġkeep":7279,"epti":7280,"ĠHSP":7281,"ĠInstead":7282,"force":7283,"Ġtransformation":7284,"1038":7285,"ocomp":7286,"Ġsimply":7287,"Ġnoted":7288,"ples":7289,"plas":7290,"ourse":7291,"Ġ39":7292,"Ġperipheral":7293,"ATM":7294,"Ġetal":7295,"Ġimod":7296,"ĠLM":7297,"ĠLGL":7298,"ĠLIP":7299,"strong":7300,"astro":7301,"Ġ45":7302,"Ġtimep":7303,"Ġrepresses":7304,"Ġ54":7305,"Ġexpressions":7306,"114":7307,"11001":7308,"1186":7309,"Ġobjec":7310,"NAS":7311,"Ġaddi":7312,"Ġmetastatic":7313,"Ġiis":7314,"NFBK":7315,"igner":7316,"Institute":7317,"echnologies":7318,"covery":7319,"coupled":7320,"Ġunre":7321,"Ġgrown":7322,"ĠKit":7323,"lasmin":7324,"Ġarise":7325,"Ġpointing":7326,"Ġheart":7327,"again":7328,"velopment":7329,"Ġstrain":7330,"ultane":7331,"Ġinitially":7332,"Ġmodularity":7333,"Ġprocessing":7334,"scientific":7335,"ymedi":7336,"cession":7337,"Ġformally":7338,"Ġgenerally":7339,"Ġsupports":7340,"Ġeluc":7341,"amma":7342,"amming":7343,"Ġmutualism":7344,"sets":7345,"allel":7346,"2014":7347,"Ġspe":7348,"Ġprobably":7349,"Ġprobabilistic":7350,"should":7351,"minimal":7352,"interpre":7353,"7082":7354,"Ġrefers":7355,"Ġcirc":7356,"partial":7357,"992":7358,"CYCA":7359,"CYCB":7360,"ĠuPA":7361,"inhibiting":7362,"ĠGenes":7363,"Ġregu":7364,"MAC":7365,"ĠkBa":7366,"ï¬ģcation":7367,"riched":7368,"discussed":7369,"efï¬Ĥux":7370,"ophil":7371,"graphs":7372,"lymphocytes":7373,"Ġquantified":7374,"State":7375,"noP":7376,"analyses":7377,"Ġrelevance":7378,"ĠâĢĿ,":7379,"Ġfinally":7380,"Ġoscillate":7381,"Ġlymphocyte":7382,"Ġprogress":7383,"Ġsucrose":7384,"Ġexplained":7385,"Ġthresholds":7386,"Ġalgorithms":7387,"Proliferation":7388,"MIDE":7389,"ĠDecision":7390,"zyme":7391,"Ġpropensity":7392,"DEL":7393,"Ġdirection":7394,"ĠGenetics":7395,"Asystems":7396,"IGH":7397,"Ġhosts":7398,"Ġdetermining":7399,"Modeling":7400,"Ġprofile":7401,"Ġlocated":7402,"Ġlocations":7403,"Ġgranulosa":7404,"Ġcluster":7405,"Ġgood":7406,"depicted":7407,"Ġcorrectly":7408,"Ġdifferentiated":7409,"Ġhypergraphs":7410,"Ġmarkers":7411,"Ġdominant":7412,"Ġinvestigated":7413,"ĠqRT":7414,"Ġphysical":7415,"1004131":7416,"Ġfrequencies":7417,"ĠDynamic":7418,"integrated":7419,"Ġsettings":7420,"roblasts":7421,"Foxo":7422,"ginia":7423,"lauti":7424,"Ġconcerning":7425,"measurements":7426,"Regul":7427,"0030163":7428,"Ġcounter":7429,"significant":7430,"ĠÏī":7431,"Ġgoverning":7432,"converted":7433,"ĠÎĶmig":7434,"therapy":7435,"therapeutic":7436,"ĠTAFC":7437,"Ġtrajectory":7438,"Ġregardless":7439,"ĠPathway":7440,"Ġtimescale":7441,"parameter":7442,"required":7443,"Ġpolarity":7444,"ĠStructural":7445,"Ġconstraint":7446,"Ġconstraints":7447,"CXCL":7448,"Ġeukaryotes":7449,"ĠDifferentiation":7450,"Ġiterations":7451,"Ã³noma":7452,"Ġcomposed":7453,"Ġimprove":7454,"Ġaccessible":7455,"Ġelectro":7456,"words":7457,"Scientific":7458,"Ġfungal":7459,"ERAMIDE":7460,"accharomyces":7461,"loaded":7462,"ĠRELAp":7463,"Ġsubconstraint":7464,"Ġdefinition":7465,"Logical":7466,"inï¬Ĥammatory":7467,"Ġsquares":7468,"ĠOverall":7469,"riefly":7470,"While":7471,"Ġcomparable":7472,"cadherin":7473,"ĠWilcoxon":7474,"ĠARTICLE":7475,"Synthase":7476,"itecture":7477,"ĠIkaros":7478,"ufacturer":7479,"ĠESCRT":7480,"lautia":7481,"500":7482,"654":7483,"Ag":7484,"Bo":7485,"By":7486,"Bcell":7487,"Bmp":7488,"CN":7489,"CIR":7490,"Cbl":7491,"DV":7492,"EG":7493,"FOS":7494,"GK":7495,"Gan":7496,"HE":7497,"HIGH":7498,"IB":7499,"Ig":7500,"IND":7501,"KIP":7502,"LA":7503,"LS":7504,"Lg":7505,"Let":7506,"Lachnospiraceae":7507,"MK":7508,"Met":7509,"MEC":7510,"OM":7511,"Off":7512,"PTC":7513,"Ruby":7514,"Spi":7515,"SidA":7516,"Smad":7517,"USP":7518,"Yap":7519,"ZD":7520,"bits":7521,"ca":7522,"cing":7523,"however":7524,"iti":7525,"iability":7526,"kap":7527,"must":7528,"migration":7529,"pin":7530,"pared":7531,"pbio":7532,"syn":7533,"summ":7534,"uable":7535,"uores":7536,"vitro":7537,"xf":7538,"xidative":7539,"yrate":7540,"zeles":7541,"}.":7542,"Âª":7543,"Ãģlvarez":7544,"Ġtion":7545,"hey":7546,"read":7547,"atabase":7548,"Ġ()":7549,"Ġsay":7550,"Ġsug":7551,"enj":7552,"enberg":7553,"ora":7554,"orders":7555,"alm":7556,"alone":7557,"Ġinoc":7558,"Ġinstruc":7559,"Ġinï¬Ĥ":7560,"ana":7561,"isenberg":7562,"ĠpI":7563,"Ġphe":7564,"Ġpic":7565,"Ġpatient":7566,"rog":7567,"lege":7568,"itud":7569,"Ġft":7570,"Ġfre":7571,"Ġfall":7572,"Ġfunders":7573,"Ġmuc":7574,"Ġmaking":7575,"Ġmissing":7576,"Ġbud":7577,"Ġbone":7578,"Ġdimer":7579,"ĠAtrboh":7580,"ĠAmong":7581,"eto":7582,"ethel":7583,"Ġnic":7584,"Ġnone":7585,"ationary":7586,"Ġrely":7587,"acts":7588,"igg":7589,"ĠTWIST":7590,"omer":7591,"econ":7592,"ects":7593,"ĠCanalization":7594,"ells":7595,"unknown":7596,"ĠSE":7597,"ĠSo":7598,"ĠSip":7599,"ĠSaez":7600,"amin":7601,"they":7602,"ĠhapX":7603,"Ġconclusion":7604,"Ġconï¬ģrm":7605,"ĠBo":7606,"ĠBut":7607,"ĠBesides":7608,"abases":7609,"abundance":7610,"otin":7611,"Ġexpon":7612,"ĠPRK":7613,"ĠPhenot":7614,"ĠPrevious":7615,"0040":7616,"ĠMM":7617,"ĠMP":7618,"âĢ¡":7619,"Ġland":7620,"Ġlip":7621,"Ġlife":7622,"ĠFyn":7623,"ĠFgf":7624,"naling":7625,"uregul":7626,"triv":7627,"quiring":7628,"qualitatively":7629,"Ġcomplic":7630,"ĠRKIP":7631,"perg":7632,"Ġvav":7633,"ĠDet":7634,"tothe":7635,"ĠGC":7636,"ĠGP":7637,"ĠGas":7638,"ĠGreen":7639,"ĠIncorporating":7640,"class":7641,"Ġtransit":7642,"Ġtransformed":7643,"103":7644,"fect":7645,"Ġsimu":7646,"Ġrare":7647,"Ġshape":7648,"ATEN":7649,"Ġentities":7650,"Ġimmediate":7651,"grr":7652,"Ġcology":7653,"vidually":7654,"pose":7655,"115":7656,"every":7657,"ermann":7658,"Ġhasbeen":7659,"Ġcomb":7660,"Ġpharma":7661,"aken":7662,"Ġloci":7663,"Input":7664,"arent":7665,"ĠUpon":7666,"Ġscales":7667,"Ġscaffold":7668,"Ġunfolding":7669,"ensities":7670,"trolled":7671,"Ġpresents":7672,"regulators":7673,"Ġinitiation":7674,"correct":7675,"Ġwherein":7676,"Ġyears":7677,"Ġyields":7678,"Ġtrad":7679,"Ġmodified":7680,"206":7681,"2010":7682,"00002":7683,"Ġformed":7684,"dozeles":7685,"Ġauto":7686,"Ġautom":7687,"Ġsuppression":7688,"Ġovercome":7689,"inality":7690,"valid":7691,"Ġlargely":7692,"Ġknocked":7693,"Ġvariant":7694,"derived":7695,"2005":7696,"RBR":7697,"MCs":7698,"Ġplace":7699,"RAC":7700,"RAN":7701,"istics":7702,"Ġequally":7703,"transitions":7704,"Ġspur":7705,"canWnt":7706,"arkers":7707,"Ġagree":7708,"adeo":7709,"Ġcircle":7710,"ĠuPAR":7711,"TPase":7712,"afs":7713,"EMT":7714,"inhibited":7715,"Ġdelays":7716,"Ġcapabilities":7717,"ING":7718,"Ġrecovery":7719,"Ġintegration":7720,"chemistry":7721,"ruption":7722,"Ġoxid":7723,"Ġjus":7724,"Ġverify":7725,"Ġhypos":7726,"arcs":7727,"Ġanalyzing":7728,"ĠÂ¬":7729,"Ġmitogen":7730,"CYTC":7731,"Ġreprogramming":7732,"Ġpromising":7733,"metabol":7734,"Ġoscillator":7735,"clinical":7736,"TNFÎ±":7737,"ĠBiological":7738,"Ġorgans":7739,"Continuous":7740,"Conclusion":7741,"clusively":7742,"ĠÎ³t":7743,"Ġdenotes":7744,"iï¬ģcation":7745,"Ġintroducing":7746,"Ġfunctionality":7747,"influence":7748,"ancers":7749,"Cells":7750,"combinatorial":7751,"Ġlayout":7752,"channels":7753,"PKA":7754,"Ġaltering":7755,"ĠWhi":7756,"Ġincorporates":7757,"tireo":7758,"Ġsuccessor":7759,"Ġcommonly":7760,"ĠPharmac":7761,"Ġdeterministic":7762,"Ġpopulations":7763,"drugs":7764,"Ġreflecting":7765,"Ġstatistically":7766,"Ġsecrete":7767,"homodimers":7768,"rightbig":7769,"ĠInteraction":7770,"ĠTrafs":7771,"Cln":7772,"Experimental":7773,"microenvironment":7774,"treatments":7775,"Ġirrelevant":7776,"Ġdrive":7777,"rgodic":7778,"Ġreaching":7779,"mathematical":7780,"ĠPTPPEST":7781,"developed":7782,"Simulations":7783,"ĠSciences":7784,"indicated":7785,"Ġimplementation":7786,"Ġreplication":7787,"ĠRhoGDI":7788,"provided":7789,"Ġsiderophores":7790,"ĠCXCL":7791,"Ġtriggered":7792,"Ġexhibit":7793,"rence":7794,"110210":7795,"Ġlabeled":7796,"Ġapproximation":7797,"ï£·ï£·ï£·ï£·":7798,"ĠDepolar":7799,"Ġgoverned":7800,"orresponding":7801,"ĠSKI":7802,"Ġchalleng":7803,"Ġplotted":7804,"Ġaccuracy":7805,"ĠDespite":7806,"####":7807,"Ġcharacteristics":7808,"easible":7809,"Ġeukaryotic":7810,"ĠAttractors":7811,"parenleft":7812,"ĠNaive":7813,"ĠMKPs":7814,"ĠâĪŀ/âĪŀâĪŀ":7815,"Ġfundamental":7816,"Ġsampled":7817,"experimentally":7818,"robustness":7819,"ĠMitochondrial":7820,"Ġidea":7821,"Ġpromoter":7822,"Ġanalog":7823,"Moreover":7824,"driven":7825,"multiple":7826,"tization":7827,"Ġintermediary":7828,"ĠDOi":7829,"Ġcoefficient":7830,"hpk":7831,"absence":7832,"owards":7833,"Ġaccordance":7834,"ĠRepoR":7835,"prostatecancer":7836,"Ġscientists":7837,"Ġaberrant":7838,"Ġhomeostasis":7839,"20862":7840,"terococcus":7841,"Ġemerge":7842,"impact":7843,"idelberg":7844,"ĠEMSA":7845,"srep":7846,"astrointestinal":7847,"scientificreports":7848,"ymedium":7849,"Offermann":7850,"etheless":7851,"0040312":7852,"trivial":7853,"ATENIN":7854,"dozelesin":7855,"ĠRepoRts":7856,"()":7857,"(+":7858,")/":7859,")).":7860,"+=":7861,"07":7862,"92":7863,"=(":7864,"After":7865,"Bach":7866,"BEGF":7867,"Busch":7868,"DA":7869,"DO":7870,"DR":7871,"Differen":7872,"DISC":7873,"Egr":7874,"Finally":7875,"Given":7876,"GRP":7877,"Germany":7878,"Guti":7879,"HapX":7880,"Helikar":7881,"Le":7882,"Loc":7883,"Ma":7884,"Migration":7885,"Mekk":7886,"MBF":7887,"Node":7888,"PAK":7889,"PCA":7890,"POR":7891,"Red":7892,"Rac":7893,"Raf":7894,"Sm":7895,"Sch":7896,"Src":7897,"SreA":7898,"SVF":7899,"TO":7900,"Txf":7901,"XP":7902,"XX":7903,"aight":7904,"block":7905,"cr":7906,"crib":7907,"collec":7908,"eper":7909,"fa":7910,"file":7911,"hl":7912,"hand":7913,"ire":7914,"iï¬ģ":7915,"jÃ°":7916,"kr":7917,"lin":7918,"mi":7919,"ming":7920,"mRNA":7921,"myeloid":7922,"mTOR":7923,"ored":7924,"pH":7925,"ptim":7926,"pag":7927,"si":7928,"sust":7929,"synchronous":7930,"symmet":7931,"td":7932,"uu":7933,"yo":7934,"Ïī":7935,"Ġlog":7936,"Ġtables":7937,"inity":7938,"inary":7939,"inistic":7940,"Ġage":7941,"Ġaround":7942,"reaction":7943,"onad":7944,"Ġtheory":7945,"erno":7946,"erately":7947,"ena":7948,"enarios":7949,"orly":7950,"alactose":7951,"Ġcc":7952,"Ġcent":7953,"Ġcall":7954,"Ġcdk":7955,"Ġinn":7956,"Ġinspec":7957,"ĠofDNA":7958,"ises":7959,"isting":7960,"Ġpip":7961,"ĠpStat":7962,"elay":7963,"leads":7964,"itment":7965,"icas":7966,"Ġfates":7967,"Ġfaster":7968,"Ġml":7969,"Ġmarrow":7970,"ĠAG":7971,"ĠATR":7972,"arv":7973,"Ġretr":7974,"acting":7975,"ĠTH":7976,"ĠType":7977,"ecting":7978,"strip":7979,"stabil":7980,"stomatal":7981,"stuck":7982,"implement":7983,"ĠCU":7984,"ĠCIS":7985,"ĠCdh":7986,"ĠCGC":7987,"ĠCERAMIDE":7988,"ĠNE":7989,"ĠNat":7990,"ĠNHK":7991,"ĠNew":7992,"ĠOF":7993,"ĠIF":7994,"ĠICL":7995,"ĠICP":7996,"ĠIrf":7997,"Ġisactivated":7998,"Ġisolated":7999,"ĠSic":8000,"ĠSTE":8001,"ama":8002,"Ġhap":8003,"Ġgrad":8004,"Ġcont":8005,"Ġconstitute":8006,"Ġconcepts":8007,"ĠBad":8008,"ĠBAD":8009,"iled":8010,"ilities":8011,"ĠNOS":8012,"Ġproved":8013,"Ġ101":8014,"Ġ122":8015,"ĠPrim":8016,"ĠPublished":8017,"ĠPNAS":8018,"ĠMol":8019,"ĠEps":8020,"ĠEisenberg":8021,"ibr":8022,"ĠlM":8023,"ĠFactor":8024,"ĠFYN":8025,"umor":8026,"pressing":8027,"tep":8028,"trastuzumab":8029,"Ġcompart":8030,"Ġcanal":8031,"ĠRT":8032,"ĠRGT":8033,"ĠROP":8034,"ĠRAF":8035,"ĠDuring":8036,"Ġresid":8037,"ĠGRB":8038,"Ġkeeping":8039,"Ġkept":8040,"Ġwhy":8041,"ĠHyp":8042,"ĠHers":8043,"forthe":8044,"Ġtransform":8045,"Ġtranslation":8046,"izon":8047,"phing":8048,"ĠThomas":8049,"sistent":8050,"Ġdeal":8051,"Ġdegrees":8052,"Ġapop":8053,"ubs":8054,"Ġshare":8055,"Ġshared":8056,"Ġ35":8057,"ĠWG":8058,"ATL":8059,"expl":8060,"exogen":8061,"extracellular":8062,"genomic":8063,"ĠLight":8064,"contrib":8065,"Ġanalysed":8066,"criptions":8067,"Ġ46":8068,"Ġcoinc":8069,"pository":8070,"Ġrespond":8071,"Ġvaluable":8072,"oints":8073,"Ġourmodel":8074,"responses":8075,"illin":8076,"Institut":8077,"arest":8078,"Ġsci":8079,"Ġscal":8080,"ĠVav":8081,"Ġcompleted":8082,"Ġ66":8083,"coun":8084,"Ġunless":8085,"Ġunexpressed":8086,"ĠKAP":8087,"Ġarch":8088,"regulations":8089,"Ġ2000":8090,"Ġseven":8091,"Ġsevere":8092,"ternational":8093,"ffry":8094,"agement":8095,"Ġquickly":8096,"Ġrelies":8097,"death":8098,"Ġinclusion":8099,"Ġinitialized":8100,"Ġ72":8101,"Ġcombina":8102,"ieffry":8103,"Ġampl":8104,"Ġvariations":8105,"what":8106,"RESS":8107,"Ġremark":8108,"Ġthroughout":8109,"âĢĻâĢĻ)":8110,"âĢĻâĢĻ.":8111,"RPPA":8112,"Ġmostly":8113,"previously":8114,"mones":8115,"axis":8116,"intervention":8117,"rimental":8118,"parasite":8119,"Ġspecificity":8120,"tality":8121,"Ġ&(":8122,"Ġlineages":8123,"ĠAccepted":8124,"ĠConversely":8125,"Ġhypersensitivity":8126,"ĠYes":8127,"Ġï¬ģnd":8128,"Ġcaptures":8129,"Ġcapacity":8130,"Ġorigin":8131,"Ġfeas":8132,"ĠkBi":8133,"Ġoxygen":8134,"terms":8135,"distribution":8136,"Ġterminal":8137,"ĠÂ©":8138,"Ġoccurred":8139,"IFNG":8140,"Ġbladder":8141,"invol":8142,"Ġderive":8143,"Ġcorrespondence":8144,"branes":8145,"ique":8146,"Ġprime":8147,"ONd":8148,"Ġdecreases":8149,"Ġdecreasing":8150,"Ġlimitation":8151,"TNFSF":8152,"graduate":8153,"Ġpowerful":8154,"ensively":8155,"mitochondria":8156,"iï¬ģcally":8157,"Ġtumours":8158,"Ġcontribut":8159,"ĠOnly":8160,"ĠChange":8161,"Ġdisrupt":8162,"Ġbuff":8163,"viated":8164,"Ġepidermal":8165,"Ġdecisions":8166,"Ġsolution":8167,"ski":8168,"Ġevident":8169,"ngineering":8170,"Ġstabilised":8171,"Ġshortest":8172,"Another":8173,"tifying":8174,"witched":8175,"Ġdifferentially":8176,"Ġlacking":8177,"echnical":8178,"general":8179,"Ġreflected":8180,"Computational":8181,"yeloma":8182,"Ġpriori":8183,"Ġperforming":8184,"ecretion":8185,"nosis":8186,"Ġdiagrams":8187,"biguous":8188,"depn":8189,"approaches":8190,"Ġencoding":8191,"aturally":8192,"Ġmarker":8193,"Ġ1998":8194,"Ġneutrophil":8195,"brac":8196,"Â¼1":8197,"increased":8198,"ĠSpecies":8199,"steps":8200,"Ġexpanded":8201,"Ġtriggers":8202,"Discrete":8203,"Ġseparate":8204,"Ġindirectly":8205,"OPEN":8206,"dkf":8207,"Ġthought":8208,"consisten":8209,"ï£¬ï£¬ï£¬ï£¬":8210,"ĠAnionEM":8211,"characterized":8212,"pyrophosphate":8213,"Ġsymmetric":8214,"casc":8215,"cgi":8216,"ĠMOMP":8217,"Ġsupplemented":8218,"GEF":8219,"Ġannotations":8220,"ĠNotch":8221,"Ġengineering":8222,"Ġmotifs":8223,"enchmark":8224,"Ġenabled":8225,"Ġfunded":8226,"schemata":8227,"decision":8228,"ĠIsl":8229,"Ġaccumulation":8230,"contains":8231,"Ġincubated":8232,"celevation":8233,"Ġdepicts":8234,"Ġuncertainties":8235,"RIPK":8236,"Ġphenomenon":8237,"molecules":8238,"ĠInhibition":8239,"ĠValues":8240,"Ġheterogeneity":8241,"clusters":8242,"Ġchallenge":8243,"tluu":8244,"ĠÃĤ":8245,"sideroph":8246,"Ġhighlighted":8247,"Ġrepeated":8248,"properties":8249,"Ġdefects":8250,"Ġdiamonds":8251,"ï£¯ï£¯":8252,"QUAD":8253,"01234":8254,"ĠMCSs":8255,"Ġhomologues":8256,"Ġcorroborated":8257,"reviewed":8258,"loppy":8259,"clbtluu":8260,"Ġneurode":8261,"Keywords":8262,"html":8263,"Ġreorganization":8264,"ioredoxin":8265,"TxfHed":8266,"(âĪĴ":8267,")(":8268,"..,":8269,"/)":8270,"113":8271,"2206":8272,"328":8273,"87":8274,":(":8275,"Ass":8276,"BB":8277,"BoolNet":8278,"CO":8279,"Can":8280,"CEBP":8281,"Center":8282,"Correspondence":8283,"DC":8284,"EA":8285,"ESS":8286,"First":8287,"GAT":8288,"High":8289,"HepG":8290,"HXT":8291,"INK":8292,"Kn":8293,"KAP":8294,"Mex":8295,"MDFs":8296,"NI":8297,"Note":8298,"Rest":8299,"Rgt":8300,"Str":8301,"SOS":8302,"SNAI":8303,"Two":8304,"Ub":8305,"Up":8306,"USA":8307,"]:":8308,"]),":8309,"aure":8310,"aRg":8311,"aONd":8312,"bility":8313,"bry":8314,"cen":8315,"car":8316,"cam":8317,"cial":8318,"credited":8319,"ein":8320,"etic":8321,"fill":8322,"faults":8323,"gover":8324,"iL":8325,"iy":8326,"iable":8327,"jS":8328,"mits":8329,"methods":8330,"obust":8331,"pts":8332,"rist":8333,"rule":8334,"sL":8335,"son":8336,"sized":8337,"senescence":8338,"tu":8339,"tase":8340,"tailed":8341,"vations":8342,"xj":8343,"zone":8344,"Â¤":8345,"Â½":8346,"Ġ'":8347,"Ġ*":8348,"Ġ?":8349,"ĠGF":8350,"Ġtre":8351,"inding":8352,"inases":8353,"internal":8354,"ĠaBoolean":8355,"head":8356,"heidelberg":8357,"reib":8358,"reported":8359,"reveal":8360,"onents":8361,"ontrolled":8362,"ato":8363,"ather":8364,"ĠtheSASP":8365,"Ġsenescence":8366,"Ġsomatic":8367,"Ġsloppy":8368,"erk":8369,"erbb":8370,"tissue":8371,"orth":8372,"ortality":8373,"alse":8374,"although":8375,"Ġcave":8376,"Ġcues":8377,"Ġinside":8378,"isic":8379,"Ġpom":8380,"ĠpJNK":8381,"Ġpublish":8382,"Ġwet":8383,"Ġwidely":8384,"itts":8385,"itten":8386,"Ġfast":8387,"Ġfav":8388,"Ġmigr":8389,"Ġbr":8390,"Ġbudding":8391,"Ġbody":8392,"Ġdim":8393,"Ġduplic":8394,"ĠACC":8395,"ĠAIF":8396,"eted":8397,"ĠandC":8398,"Ġns":8399,"ara":8400,"arran":8401,"arge":8402,"arrest":8403,"arves":8404,"article":8405,"Ġreducing":8406,"Ġreports":8407,"acillus":8408,"ulatory":8409,"ulators":8410,"tionally":8411,"Ġei":8412,"omal":8413,"stress":8414,"Ġthous":8415,"Ġthink":8416,"ĠCL":8417,"ĠCP":8418,"ĠCan":8419,"ĠCAT":8420,"urs":8421,"urrent":8422,"ĠITT":8423,"Ġisactivate":8424,"ĠSC":8425,"ĠSOS":8426,"ĠSCC":8427,"ĠSLT":8428,"thetic":8429,"Ġhitting":8430,"Ġhalf":8431,"osine":8432,"osci":8433,"ĠBase":8434,"ids":8435,"Ġprov":8436,"Ġprolif":8437,"abnormal":8438,"otrop":8439,"Ġexpec":8440,"Ġexempl":8441,"Ġ111":8442,"olistic":8443,"0010":8444,"ĠMod":8445,"ĠMap":8446,"ĠMulti":8447,"ĠMendoza":8448,"Ġasyn":8449,"ĠEP":8450,"ĠEp":8451,"ĠERA":8452,"ĠEstB":8453,"Ġbeyond":8454,"emia":8455,"ĠFos":8456,"ĠFADD":8457,"oprob":8458,"apse":8459,"Ġordinary":8460,"upon":8461,"Ġcompetent":8462,"ĠRD":8463,"ĠRP":8464,"ĠRole":8465,"ĠRPM":8466,"ĠRLM":8467,"ĠDros":8468,"Ġattain":8469,"Ġattained":8470,"Ġattributed":8471,"Ġattack":8472,"ĠGAP":8473,"ĠGsk":8474,"Ġkit":8475,"ĠHT":8476,"ĠHill":8477,"ĠHuman":8478,"ching":8479,"Ġtransloc":8480,"107":8481,"109":8482,"Ġinterp":8483,"Ġinterrup":8484,"ĠThat":8485,"ocal":8486,"iesis":8487,"anta":8488,"Ġ|(":8489,"Ġdevi":8490,"Ġrational":8491,"Ġenriched":8492,"genus":8493,"âĢĻ,":8494,"ĠLPL":8495,"Ġinteractive":8496,"strate":8497,"134":8498,"TheAuthor":8499,"Ġ42":8500,"Ġhavebeen":8501,"Ġrepress":8502,"Ġrepressed":8503,"Ġrepressing":8504,"malignant":8505,"Ġ52":8506,"Ġ57":8507,"Ġparasites":8508,"Ġparallel":8509,"avid":8510,"acking":8511,"Ġcoupling":8512,"vidence":8513,"Ġaden":8514,"ĠupZ":8515,"cellcycle":8516,"Integr":8517,"Invasion":8518,"eedS":8519,"Ġdetect":8520,"ï¬ģned":8521,"computation":8522,"computational":8523,"Ġsubunit":8524,"sidering":8525,"CDKB":8526,"ĠKOUT":8527,"Ġ...,":8528,"Ġhealth":8529,"agents":8530,"ylated":8531,"PLD":8532,"portun":8533,"CCS":8534,"Ġinvasion":8535,"Ġstrains":8536,"Ġstraight":8537,"Ġidentity":8538,"Ġ75":8539,"scisic":8540,"Ġ105":8541,"Ġhighlight":8542,"ĠComparison":8543,"CREB":8544,"Ġidentifies":8545,"190":8546,"Acetyl":8547,"Ġdecided":8548,"Ġvariability":8549,"whole":8550,"ĠAKAP":8551,"Ġdetermines":8552,"transfer":8553,"Ġspent":8554,"cannot":8555,"iseases":8556,"tokine":8557,"overed":8558,"sequent":8559,"ISA":8560,"Ġmediate":8561,"Ġupdates":8562,"hematics":8563,"Ġnonfunctional":8564,"Ġmeasurement":8565,"ĠAcad":8566,"highly":8567,"ĠYet":8568,"ĠMAPKs":8569,"Ġpurple":8570,"ĠGenus":8571,"Ġsimilarity":8572,"Ġassuming":8573,"Ġï¬ģxed":8574,"domain":8575,"ummy":8576,"complement":8577,"Ġdependencies":8578,"eft":8579,"Ġworking":8580,"Ġvertical":8581,"biotic":8582,"Ġquantification":8583,"pointing":8584,"ĠÂ¨":8585,"ĠÂ±":8586,"ĠÂ´":8587,"ĠClathrin":8588,"Ġ207":8589,"ECM":8590,"Ġinteresting":8591,"BRCA":8592,"Ġreproduced":8593,"Ġreproduces":8594,"analyzed":8595,"Ġdermal":8596,"Ġcaspase":8597,"Ġabsol":8598,"Ġhumans":8599,"TION":8600,"Ġorganism":8601,"Cool":8602,"detailed":8603,"Ġfocusing":8604,"ĠÎ³Î³Î³":8605,"hood":8606,"mitted":8607,"Ġaffecting":8608,"phosphat":8609,"Ġdisrupted":8610,"Ġpartners":8611,"genesis":8612,"olarization":8613,"lineage":8614,"ĠSimulation":8615,"Ġlinks":8616,"Protein":8617,"Ġoperations":8618,"Ġcheckpoints":8619,"ĠAutÃ³noma":8620,"complexity":8621,"Ġsolutions":8622,"Ġvectors":8623,"Ġdatabases":8624,"opoiesis":8625,"Ġenvironments":8626,"Ġdiscuss":8627,"ĠPhosph":8628,"generative":8629,"Ġdiï¬Ģerent":8630,"Ġreflects":8631,"ologies":8632,"therefore":8633,"Ġaccounts":8634,"111111":8635,"1111111111":8636,"Supple":8637,"Ġapparent":8638,"correspond":8639,"ĠTrx":8640,"Ġeasy":8641,"Ġencodes":8642,"targeted":8643,"mainly":8644,"space":8645,"ĠBiot":8646,"Ġreasonable":8647,"Ġmonoclonal":8648,"Similar":8649,"Simulation":8650,"indicates":8651,"inhibitory":8652,"Ġprincipal":8653,"Ġendocyt":8654,"Ġendocytosis":8655,"Ġhomo":8656,"ĠHealth":8657,"Perturbation":8658,"Ġcandidates":8659,"Ġantigens":8660,"Ġvisualize":8661,"burgh":8662,"confirm":8663,"ormally":8664,"atistical":8665,"Ġquestions":8666,"HHt":8667,"ĠMTH":8668,"Ġtypical":8669,"Ġrapidly":8670,"Ġpharmacological":8671,"studied":8672,"assump":8673,"Ġtranscripts":8674,"RhoGAP":8675,"Ġmimic":8676,"Ġmimics":8677,"linked":8678,"Ġslowly":8679,"namely":8680,"Ġsampling":8681,"Ġpublications":8682,"Ġincubation":8683,"reproduction":8684,"ĠPhysiology":8685,"Ġwritten":8686,"Ġefficacy":8687,"Ġefficiency":8688,"Ġlooking":8689,"ĠKnowledge":8690,"ĠTNFRSF":8691,"Ġosmotic":8692,"Ġclosely":8693,"Ġhormones":8694,"ydro":8695,"Ġpermanent":8696,"ĠLiu":8697,"directed":8698,"Ġrabbits":8699,"ĠVirginia":8700,"Ġresembles":8701,"progression":8702,"ĠAccordingly":8703,"Ġadjacent":8704,"bacterial":8705,"Ġsatisfied":8706,"imensional":8707,"âĺ¯,":8708,"efflux":8709,"Ġsubstantial":8710,"ï£Ńï£¬":8711,"population":8712,"Ġprotocol":8713,"appear":8714,"Ġphagocy":8715,"ï£¸ï£·":8716,"Ġintestinal":8717,"tools":8718,"HEJ":8719,"enjes":8720,"Ġlandscape":8721,"ĠHershey":8722,"reiburg":8723,"ĠACCESS":8724,"Ġthousands":8725,"oprobacillus":8726,"ĠDrosophil":8727,"\".":8728,"%,":8729,")-":8730,")=":8731,"-,":8732,".).":8733,"010":8734,"415":8735,"501":8736,"And":8737,"Cul":8738,"Commons":8739,"DNF":8740,"DRE":8741,"DAC":8742,"DAG":8743,"EMC":8744,"FIS":8745,"GRB":8746,"Gfi":8747,"GINsim":8748,"HRR":8749,"Ikzf":8750,"KG":8751,"Ki":8752,"KRP":8753,"Keap":8754,"MB":8755,"Man":8756,"MDM":8757,"MirB":8758,"NP":8759,"Out":8760,"Reduc":8761,"SY":8762,"Sub":8763,"SCC":8764,"SNO":8765,"SDP":8766,"SRO":8767,"Salt":8768,"Tel":8769,"Text":8770,"Xg":8771,"bra":8772,"clo":8773,"cence":8774,"collective":8775,"check":8776,"course":8777,"dem":8778,"fit":8779,"gran":8780,"gments":8781,"ients":8782,"jPGN":8783,"lf":8784,"li":8785,"lat":8786,"lom":8787,"lut":8788,"lations":8789,"latter":8790,"nk":8791,"net":8792,"nom":8793,"need":8794,"pr":8795,"pases":8796,"patients":8797,"public":8798,"ruz":8799,"rastic":8800,"typ":8801,"tail":8802,"uPA":8803,"vir":8804,"vanced":8805,"vulnerability":8806,"xl":8807,"xx":8808,"Ã¤":8809,"Ã±":8810,"Ġith":8811,"Ġions":8812,"Ġâī¤":8813,"Ġter":8814,"Ġted":8815,"Ġtax":8816,"Ġteach":8817,"inferred":8818,"inery":8819,"heter":8820,"hesion":8821,"reme":8822,"remain":8823,"reclbtluu":8824,"ons":8825,"Ġtheexpression":8826,"Ġsam":8827,"Ġsizes":8828,"Ġslight":8829,"Ġsphing":8830,"era":8831,"ervo":8832,"ensee":8833,"ordin":8834,"along":8835,"always":8836,"Ġcd":8837,"Ġcited":8838,"Ġcoding":8839,"Ġcarcin":8840,"ederal":8841,"Ġinactivated":8842,"ĠinMMPs":8843,"anyl":8844,"isk":8845,"isolated":8846,"room":8847,"learly":8848,"Ġwaves":8849,"Ġfash":8850,"Ġmature":8851,"Ġbring":8852,"Ġbenef":8853,"Ġddepn":8854,"ĠAA":8855,"ĠADP":8856,"ĠAZD":8857,"etes":8858,"Ġren":8859,"Ġrevers":8860,"Ġrepre":8861,"Ġreactive":8862,"Ġrequiring":8863,"according":8864,"ĠTRN":8865,"ĠTSC":8866,"omain":8867,"ster":8868,"stants":8869,"loid":8870,"lored":8871,"loch":8872,"lostr":8873,"ĠCam":8874,"ĠCLP":8875,"ĠCulture":8876,"ĠNA":8877,"ĠNMA":8878,"ĠNkx":8879,"resses":8880,"resolved":8881,"Ġstores":8882,"Ġstationary":8883,"lys":8884,"uni":8885,"unam":8886,"ĠOb":8887,"ĠODE":8888,"ĠIron":8889,"ĠIkB":8890,"Ġisnot":8891,"ĠSph":8892,"ĠSASP":8893,"ĠSUC":8894,"ĠSection":8895,"ĠSMO":8896,"amine":8897,"Ġhubs":8898,"Ġgets":8899,"Ġgastrointestinal":8900,"Ġgalactose":8901,"osit":8902,"Ġconsequently":8903,"Ġconsequence":8904,"Ġconclusions":8905,"Ġconstitutes":8906,"Ġconjunction":8907,"ĠBay":8908,"ĠBMI":8909,"ĠBuff":8910,"ilib":8911,"ilari":8912,"idium":8913,"Ġproducing":8914,"Ġ=(":8915,"Ġexit":8916,"Ġextra":8917,"Ġexception":8918,"ĠPU":8919,"ĠPar":8920,"ĠPitts":8921,"ĠMac":8922,"ĠMth":8923,"ĠMcl":8924,"ĠMacro":8925,"ĠMadeo":8926,"ĠEngineering":8927,"search":8928,"ĠFour":8929,"ĠFunc":8930,"Ġarecredited":8931,"ĠThef":8932,"apes":8933,"Ġorth":8934,"Ġordered":8935,"gebra":8936,"ĠcanWnt":8937,"ĠRel":8938,"ĠRem":8939,"ĠRunx":8940,"perman":8941,"pertuzumab":8942,"Ġweb":8943,"Ġweights":8944,"Ġvs":8945,"Ġvice":8946,"ĠDen":8947,"ĠDKK":8948,"ĠDef":8949,"ĠDGK":8950,"athway":8951,"ynetwork":8952,"ĠGA":8953,"ĠGRK":8954,"Ġkill":8955,"Ġwhite":8956,"atives":8957,"ĠHow":8958,"ĠHsp":8959,"ĠHRG":8960,"ĠHelikar":8961,"ĠHXT":8962,"chall":8963,"ĠInc":8964,"ĠInstitut":8965,"ĠInvestig":8966,"1073":8967,"Ġinterleukin":8968,"produce":8969,"ĠThrough":8970,"orexample":8971,"plays":8972,"Ġdev":8973,"Ġdeactivation":8974,"Ġdeeper":8975,"Ġapplies":8976,"Ġrt":8977,"Ġral":8978,"forms":8979,"formal":8980,"lower":8981,"Ġdistributions":8982,"015":8983,"ifferent":8984,"ĠWild":8985,"ĠWang":8986,"ATF":8987,"ATION":8988,"Ġending":8989,"Ġencomp":8990,"genous":8991,"ĠLAT":8992,"cons":8993,"contribution":8994,"concept":8995,"Ġinteracts":8996,"udents":8997,"TheCell":8998,"Ġneither":8999,"Ġnearest":9000,"Ġchar":9001,"herence":9002,"tosome":9003,"toskeleton":9004,"129":9005,"avage":9006,"Ġexperimen":9007,"possib":9008,"Ġresponding":9009,"erman":9010,"bial":9011,"cycl":9012,"cytokines":9013,"Ġupregulated":9014,"ignificant":9015,"tinued":9016,"Inthe":9017,"Infection":9018,"ĠUlm":9019,"Ġnotice":9020,"compute":9021,"comprehensive":9022,"Ġunable":9023,"Ġunlike":9024,"Ġunperturbed":9025,"Ġsubnetwork":9026,"Ġsubsystems":9027,"ausible":9028,"sided":9029,"escribing":9030,"identification":9031,"ĠKeap":9032,"Ġpointed":9033,"oxidative":9034,"Ġinfil":9035,"agAM":9036,"having":9037,"ylate":9038,"oundation":9039,"modeled":9040,"ĠÎµ":9041,"BAX":9042,"Ġmoderate":9043,"Ġprocessed":9044,"ymet":9045,"Ġperturba":9046,"Ġformula":9047,"withthe":9048,"iki":9049,"Ġgeneric":9050,"Ġconsiders":9051,"ckr":9052,"Ġmicroen":9053,"1997":9054,"Ġ95":9055,"CAV":9056,"CAMP":9057,"Ġlargest":9058,"Ġimmunological":9059,"Ġsections":9060,"Ġvariants":9061,"2001":9062,"beit":9063,"ĠStat":9064,"ĠCaIM":9065,"Ġconfidence":9066,"Ġremove":9067,"Ġplcg":9068,"Ġsignificance":9069,"Ġnegation":9070,"Ġopportun":9071,"iteria":9072,"transcriptome":9073,"otherap":9074,"ĠProb":9075,"ĠProCASP":9076,"genetic":9077,"PAI":9078,"shp":9079,"prevent":9080,"Ġclar":9081,"Ġclonal":9082,"bbre":9083,"Ġrefined":9084,"parasegment":9085,"âĪĴ+":9086,"Ġgrouped":9087,"Ġemphas":9088,"inhibits":9089,"Ġimportantly":9090,"oids":9091,"wards":9092,"umably":9093,"ĠBNM":9094,"encoded":9095,"ĠTNFSF":9096,"ï¬ģcient":9097,"discre":9098,"display":9099,"Ġjoint":9100,"anger":9101,"Ġworks":9102,"Ġveriï¬ģed":9103,"Ġhyph":9104,"grams":9105,"arched":9106,"Ġvalidations":9107,"blp":9108,"blast":9109,"ĠCytC":9110,"NOCM":9111,"ĠCDKs":9112,"analyze":9113,"rows":9114,"Ġmanually":9115,"Ġoscillation":9116,"Ġoffers":9117,"Ġcollabor":9118,"Ġstronger":9119,"Conclusions":9120,"Ġsimplify":9121,"Ġevaluating":9122,"Ġcontributing":9123,"whereas":9124,"phosphorylated":9125,"pressor":9126,"Ġtriangles":9127,"wnreclbtluu":9128,"zymes":9129,"Ġreality":9130,"Ġrealistic":9131,"495":9132,"CTL":9133,"Ġdirectional":9134,"stimulus":9135,"Ġstarts":9136,"Ġstarted":9137,"Ġblocked":9138,"author":9139,"authors":9140,"TAG":9141,"Ġmalate":9142,"Ġpermutation":9143,"ĠImmunity":9144,"ĠImportantly":9145,"ĠBMCBioinformatics":9146,"ĠRegulation":9147,"Ġcytoskeleton":9148,"MLK":9149,"Ġheterodimer":9150,"Ġplayers":9151,"denotes":9152,"Ġclustered":9153,"Ġcomputa":9154,"Ġflows":9155,"ecreased":9156,"transcriptional":9157,"release":9158,"corresponds":9159,"Ġstands":9160,"Clb":9161,"Ġreadily":9162,"Ġreadouts":9163,"Ġestimate":9164,"Example":9165,"Ġfibroblasts":9166,"Ġdriving":9167,"igma":9168,"Ġdomains":9169,"Ġdelayed":9170,"wildtype":9171,"Ġreasonably":9172,"ĠDynamical":9173,"follows":9174,"MEKi":9175,"indicate":9176,"deterministic":9177,"controlled":9178,"dinburgh":9179,"Ġpolym":9180,"provide":9181,"Ġchoose":9182,"nique":9183,"Ġemergence":9184,"SBML":9185,"mechanism":9186,"Ġseparately":9187,"enescent":9188,"Ġflux":9189,"Ġbounded":9190,"groups":9191,"Ġvisualized":9192,"UNX":9193,"rends":9194,"Ġendogenous":9195,"Ġcounted":9196,"Ġsurpris":9197,"Ġcomputationally":9198,"ĠÎĶrgt":9199,"promoting":9200,"ĠSchool":9201,"Ġenhance":9202,"Ġimplicated":9203,"Ġinitiate":9204,"Ġinitiated":9205,"sufficient":9206,"dependencies":9207,"Ġpolarizing":9208,"oscillation":9209,"ĠBAY":9210,"CyclinC":9211,"Ġtechnique":9212,"Ġpools":9213,"Ġiteratively":9214,"parenrightbig":9215,"Ġswitching":9216,"Ġvirtual":9217,"ĠGrowth":9218,"ĠâĪ§":9219,"ĠâĪ¨":9220,"remely":9221,"Ġreturn":9222,"schema":9223,"configuration":9224,":::":9225,"considered":9226,"Ġpreserves":9227,"ĠImmunol":9228,"becomes":9229,"Ġuncertainty":9230,"Ġissue":9231,"Ġissues":9232,"ĠLeukem":9233,"Ġrecruited":9234,"Species":9235,"affected":9236,"sponding":9237,"igenetic":9238,"resistant":9239,"resistance":9240,"ĠBCATENIN":9241,"directly":9242,"Ġpermanently":9243,"Ġpractice":9244,"eliE":9245,"Ġsaid":9246,"estimate":9247,"starting":9248,"Ġoncogenic":9249,"Ġattempt":9250,"Ġabnormalities":9251,"ĠResponse":9252,"bridge":9253,"OLOG":9254,"leukemia":9255,"Ġdamaged":9256,"ĠISGF":9257,"Ġexhaustive":9258,"Ġsynthesized":9259,"overexpression":9260,"Ġinforma":9261,"ĠNonetheless":9262,"Ġradicals":9263,"ĠRalBP":9264,"Ġabbreviated":9265,"Ġtightly":9266,"Ġtheoretically":9267,"Ġsuscep":9268,"Ġsemi":9269,"Ġtolerance":9270,"ecutive":9271,"almers":9272,"Ġexponential":9273,"ĠPRKCA":9274,"uregulin":9275,"Ġrarely":9276,"Ġtraditional":9277,"ĠÂ¬(":9278,"Ġchallenging":9279,"parenleftbig":9280,"ernoull":9281,"CanWnt":9282,"Mexico":9283,"obustness":9284,"Ġpombe":9285,"arvested":9286,"osciences":9287,"Ġabsolute":9288,"ĠDrosophila":9289,"Culloch":9290,"Reductase":9291,"Ġteaching":9292,"ervoir":9293,"Ġfashion":9294,"ilibri":9295,"ilarities":9296,"Ġortholog":9297,",:::":9298,"-?":9299,"/âĪŀâĪŀ":9300,"223":9301,"4002":9302,"925":9303,"=.":9304,"={":9305,"Adozelesin":9306,"BO":9307,"Bortezomib":9308,"Because":9309,"Closure":9310,"CPC":9311,"Cebpb":9312,"Current":9313,"DCM":9314,"Ergodic":9315,"Fixed":9316,"FVY":9317,"GPA":9318,"GMP":9319,"GRF":9320,"Gbg":9321,"HC":9322,"HOS":9323,"Hhn":9324,"If":9325,"Lck":9326,"Mc":9327,"My":9328,"MET":9329,"Molecular":9330,"Markov":9331,"NR":9332,"NIH":9333,"ODE":9334,"Open":9335,"OBL":9336,"Palpha":9337,"Rel":9338,"RLM":9339,"Runx":9340,"Sc":9341,"SEM":9342,"SDM":9343,"Snf":9344,"SKBR":9345,"Ta":9346,"Ty":9347,"Tat":9348,"TAK":9349,"TSS":9350,"Western":9351,"Yi":9352,"ZAP":9353,"aud":9354,"augh":9355,"bph":9356,"cases":9357,"critical":9358,"dat":9359,"dimers":9360,"drich":9361,"dashed":9362,"dimensional":9363,"ee":9364,"ference":9365,"hour":9366,"hosph":9367,"hapX":9368,"haps":9369,"iis":9370,"jX":9371,"kp":9372,"kines":9373,"mation":9374,"media":9375,"mRuby":9376,"nib":9377,"night":9378,"nuclear":9379,"overs":9380,"pet":9381,"pend":9382,"pNF":9383,"package":9384,"qL":9385,"qs":9386,"run":9387,"rsk":9388,"rmo":9389,"rather":9390,"sw":9391,"sent":9392,"samples":9393,"tD":9394,"tre":9395,"tus":9396,"uB":9397,"uity":9398,"uge":9399,"uage":9400,"ufficient":9401,"vents":9402,"ware":9403,"xI":9404,"ymal":9405,"ybrid":9406,"zing":9407,"Â´":9408,"ÏĪ":9409,"Ġ>":9410,"Ġ~":9411,"Ġte":9412,"Ġti":9413,"Ġtrends":9414,"includ":9415,"investig":9416,"Ġaid":9417,"Ġaff":9418,"hea":9419,"real":9420,"reed":9421,"reec":9422,"reach":9423,"reduced":9424,"ats":9425,"atethe":9426,"Ġtheactivation":9427,"Ġthenodes":9428,"Ġthedynamics":9429,"Ġov":9430,"Ġsid":9431,"Ġsatur":9432,"erve":9433,"errez":9434,"enzymes":9435,"orage":9436,"algorithm":9437,"altered":9438,"Ġcum":9439,"Ġcare":9440,"Ġ);":9441,"esench":9442,"ĠinFigure":9443,"Ġinconsisten":9444,"Ġofdifferent":9445,"annot":9446,"isch":9447,"isely":9448,"Ġpor":9449,"Ġple":9450,"Ġpap":9451,"Ġpdk":9452,"roy":9453,"Ġwater":9454,"itely":9455,"ittle":9456,"ington":9457,"icial":9458,"icient":9459,"icillin":9460,"Ġfa":9461,"Ġfo":9462,"Ġfam":9463,"Ġfem":9464,"Ġface":9465,"Ġmy":9466,"Ġmen":9467,"Ġmess":9468,"Ġmixed":9469,"Ġmutational":9470,"Ġmove":9471,"Ġmale":9472,"Ġmkk":9473,"Ġmiddle":9474,"Ġmortality":9475,"Ġdil":9476,"Ġdotted":9477,"Ġdrastic":9478,"ĠAD":9479,"etting":9480,"etry":9481,"etoposide":9482,"ĠnD":9483,"arg":9484,"arti":9485,"arrays":9486,"Ġreduc":9487,"Ġrepl":9488,"Ġrelying":9489,"Ġrestricted":9490,"Ġrecord":9491,"aces":9492,"acomp":9493,"ulin":9494,"Ġea":9495,"Ġever":9496,"Ġeff":9497,"igher":9498,"ĠTi":9499,"ĠTarget":9500,"ĠTTSS":9501,"omology":9502,"ecess":9503,"stance":9504,"imens":9505,"imulations":9506,"ĠCom":9507,"ĠCPC":9508,"ĠCeramide":9509,"ĠCsf":9510,"ĠCccA":9511,"ĠCoprobacillus":9512,"ĠClearly":9513,"ĠNC":9514,"ĠNP":9515,"ĠNIK":9516,"ĠNRG":9517,"ĠNADP":9518,"ĠNHEJ":9519,"resent":9520,"Ġsta":9521,"Ġster":9522,"Ġstorage":9523,"urk":9524,"urations":9525,"unting":9526,"vext":9527,"ĠIon":9528,"ĠIll":9529,"ĠSS":9530,"ĠSm":9531,"ĠSTG":9532,"ĠSaccharomyces":9533,"ĠSQUAD":9534,"thel":9535,"Ġhis":9536,"Ġholistic":9537,"Ġgonad":9538,"osa":9539,"Ġcondi":9540,"Ġconser":9541,"Ġcontent":9542,"Ġconcurrent":9543,"Ġconcaten":9544,"odels":9545,"ĠBax":9546,"ĠBudding":9547,"ĠBlautia":9548,"iding":9549,"idic":9550,"Ġprove":9551,"Ġprobe":9552,"Ġpromin":9553,"Ġexper":9554,"Ġexplicit":9555,"Ġexclusively":9556,"Ġ114":9557,"Ġ150":9558,"oll":9559,"olution":9560,"Ġforward":9561,"ĠPa":9562,"ĠPix":9563,"0034":9564,"ĠMe":9565,"ĠMal":9566,"ĠMef":9567,"ĠEqu":9568,"ĠEffec":9569,"ĠESP":9570,"ceived":9571,"owel":9572,"Ġons":9573,"tivated":9574,"separ":9575,"sewhere":9576,"Ġli":9577,"Ġlic":9578,"Ġlig":9579,"Ġlik":9580,"Ġliving":9581,"Ġlckp":9582,"Ġacute":9583,"Ġaccepted":9584,"emerg":9585,"ĠFLIP":9586,"ĠFoundation":9587,"Ġbyp":9588,"umin":9589,"uming":9590,"opro":9591,"optim":9592,"ircuit":9593,"irrelevant":9594,"iotic":9595,"added":9596,"ticip":9597,"upregulation":9598,"Ġcompact":9599,"Ġcompounds":9600,"ĠRG":9601,"ĠRL":9602,"ĠRR":9603,"percentage":9604,"romised":9605,"Ġvast":9606,"Ġvital":9607,"ĠDE":9608,"ĠDo":9609,"ĠDia":9610,"ĠDNF":9611,"ĠDij":9612,"ĠDROS":9613,"ĠDisease":9614,"ĠDUSP":9615,"ĠGSE":9616,"ĠGraf":9617,"ĠGTPase":9618,"redescribes":9619,"Ġwho":9620,"ĠHamming":9621,"ĠHenjes":9622,"Ġ02":9623,"Ġ01010":9624,"clature":9625,"Ġtransduc":9626,"104":9627,"108":9628,"1089":9629,"Ġiteration":9630,"Ġiterative":9631,"pharmac":9632,"Ġinterconnected":9633,"produc":9634,"produced":9635,"production":9636,"product":9637,"propag":9638,"ĠThieffry":9639,"Ġsignalin":9640,"Ġsimilarities":9641,"antly":9642,"Ġleuk":9643,"often":9644,"plcg":9645,"Ġras":9646,"ives":9647,"pleen":9648,"Ġdisjunc":9649,"Ġenumer":9650,"except":9651,"generation":9652,"ĠLck":9653,"ĠLough":9654,"ĠLtd":9655,"Ġnear":9656,"Ġneut":9657,"Ġ47":9658,"Ġabi":9659,"Ġabscisic":9660,"Ġ500":9661,"endall":9662,"enddouble":9663,"cesses":9664,"cessive":9665,"NAR":9666,"Ġundergraduate":9667,"turn":9668,"turing":9669,"rected":9670,"Ġiin":9671,"bind":9672,"Ġlocus":9673,"Ġloading":9674,"Indeed":9675,"ĠUl":9676,"Ġnotion":9677,"Ġpredicting":9678,"Ġ65":9679,"activator":9680,"activities":9681,"computed":9682,"comparison":9683,"cover":9684,"count":9685,"Ġunstable":9686,"Ġsubsystem":9687,"Ġsubtypes":9688,"Ġsubsection":9689,"CDH":9690,"ĠKv":9691,"ĠKlamt":9692,"ĠKendall":9693,"Ġarg":9694,"Ġarising":9695,"Ġoutside":9696,"regulating":9697,"oxins":9698,"Ġ...":9699,"Ġmekk":9700,"AST":9701,"ffymet":9702,"Ġhex":9703,"100328":9704,"Ġreliability":9705,"CCB":9706,"Ġinvasive":9707,"Ġerk":9708,"common":9709,"community":9710,"deg":9711,"Ġcombining":9712,"Ġ80":9713,"00003":9714,"ollowing":9715,"Ġeduc":9716,"Figures":9717,"forementioned":9718,"Ġgenerating":9719,"Ġovernight":9720,"ĠCompared":9721,"Ġ92":9722,"Ġ94":9723,"180":9724,"Ġknocking":9725,"Ġdecay":9726,"plications":9727,"Ġmecha":9728,"ĠStable":9729,"389":9730,"ThP":9731,"quired":9732,"REG":9733,"Ġantibiotic":9734,"tending":9735,"Ġplates":9736,"Ġsigned":9737,"Ġsignature":9738,"Ġintensities":9739,"simulate":9740,"transient":9741,"transformed":9742,"ĠCCL":9743,"ĠCCS":9744,"Ġspeed":9745,"Ġspindle":9746,"ï£§":9747,"canbe":9748,"Ġprobiotic":9749,"Ġdefining":9750,"Ġdiscretization":9751,"ĠDNAD":9752,"ĠXg":9753,"short":9754,"Ġdownloaded":9755,"ĠExp":9756,"ĠExt":9757,"ĠExperimental":9758,"mona":9759,"Ġagg":9760,"Ġconverting":9761,"ORF":9762,"Ġindividually":9763,"ĠTogether":9764,"cium":9765,"ebru":9766,"hematic":9767,"Ġminor":9768,"full":9769,"Ġbasal":9770,"Ġ&!":9771,"CLIND":9772,"ĠAcid":9773,"ĠActivity":9774,"Ġnormalized":9775,"Ġembry":9776,"ĠConnec":9777,"ĠContinuous":9778,"ĠConsequently":9779,"ĠConsidering":9780,"Ġhyperactive":9781,"Ġhypersensitive":9782,"TED":9783,"ĠGenome":9784,"Ġsimilarly":9785,"Ġassumes":9786,"Ġï¬ģt":9787,"Ġï¬ģnal":9788,"Ġdeline":9789,"across":9790,"licutes":9791,"Ġcapability":9792,"Ġmembranes":9793,"INOU":9794,"tested":9795,"encoding":9796,"ÂĨÂĨ&!":9797,"ï¬ģcult":9798,"rices":9799,"terminal":9800,"ĠPLA":9801,"anguage":9802,"Ġtermin":9803,"zerland":9804,"ophosph":9805,"ergodic":9806,"Ġfourth":9807,"calc":9808,"untreated":9809,"Ġbacterium":9810,"ĠCytokines":9811,"Ġphosphorylates":9812,"Start":9813,"ĠReg":9814,"IFNg":9815,"Ġselection":9816,"ĠâĢĿ.":9817,"Ġmanif":9818,"Ġmanufacturer":9819,"Ġprimarily":9820,"Ġoscillating":9821,"8888":9822,"ĠMYD":9823,"Ġcausing":9824,"Ġcertainly":9825,"TIF":9826,"ĠBioMed":9827,"Contr":9828,"CDKA":9829,"downs":9830,"Ġguide":9831,"raw":9832,"iï¬ģcance":9833,"Ġcarry":9834,"ĠRecently":9835,"ijSrcybHed":9836,"ĠChrist":9837,"Ġclassified":9838,"predict":9839,"Alternative":9840,"ProCASP":9841,"Ġtriplic":9842,"Ġchecked":9843,"Ġalteration":9844,"Ġfacts":9845,"arnesyl":9846,"opoulos":9847,"Ġsuccessful":9848,"TAH":9849,"Ġmaltose":9850,"Ġpermutations":9851,"witzerland":9852,"connectivity":9853,"Ġdiffers":9854,"Ġlacks":9855,"denoted":9856,"normalTel":9857,"Ġuniquely":9858,"capture":9859,"Ġgoes":9860,"Ġappeared":9861,"Ġposterior":9862,"Ġfulfill":9863,"Ġdegraded":9864,"Ġevolves":9865,"Ġsecretory":9866,"relevance":9867,"mutations":9868,"mutants":9869,"Ġtimestep":9870,"indirect":9871,"Ġwildcards":9872,"Ġversions":9873,"Ġentirely":9874,"period":9875,"showing":9876,"Ġreachable":9877,"mpg":9878,"Ġfrequently":9879,"BioMed":9880,"limited":9881,"increasing":9882,"probabilities":9883,"Ġoptimized":9884,"Ġformalisms":9885,"Ġpoorly":9886,"Ġreplicate":9887,"ĠRhoK":9888,"ĠTranscription":9889,"ĠTransduction":9890,"Ġgiving":9891,"Ġchoosing":9892,"Ġcoloured":9893,"ĠCaMK":9894,"Ġfluores":9895,"omenclature":9896,"Ġadaptor":9897,"Ġadapted":9898,"Ġcriteria":9899,"Ġnumerically":9900,"grammed":9901,"Ġapproximately":9902,"ï£¬ï£¬ï£¶":9903,"Ġpheno":9904,"Ġpathogens":9905,"Ġfacilitates":9906,"Degree":9907,"Enterococcus":9908,"Ġderegulated":9909,"Ġproteasome":9910,"Ġruns":9911,"constraints":9912,"Junb":9913,"Ġsituations":9914,"Ġefficiently":9915,"Ġcontinues":9916,"Ġcontinued":9917,"Ġimplicants":9918,"Ġheatmaps":9919,"Ġregarded":9920,"Ġmeaningful":9921,"caspase":9922,"suited":9923,"Ġillustrate":9924,"Ġillustrated":9925,"ĠPeripheral":9926,"ĠFOXL":9927,"ROTOS":9928,"dependency":9929,"requires":9930,"oscillations":9931,"ĠMOCK":9932,"Ġaccurately":9933,"Ġutilized":9934,"Ġutilizing":9935,"ierarchical":9936,"urope":9937,"assumed":9938,"Once":9939,"hypergraph":9940,"Ġstream":9941,"tochastic":9942,"ĠKÃ¾channels":9943,"Ġcatal":9944,"Ġbiomedical":9945,"Ġbiomarkers":9946,"ĠCMs":9947,"Ġvirus":9948,"Ġimproved":9949,"landscape":9950,"Ġcultured":9951,"Ġeffort":9952,"Ġrecapitulates":9953,"building":9954,"caused":9955,"causes":9956,"arrows":9957,"updating":9958,"0192949":9959,"Ġeliminated":9960,"Designer":9961,"evaluation":9962,"ĠnaÄ±":9963,"ĠDevelopment":9964,"Ġirreducible":9965,"columns":9966,"ĠSwed":9967,"ï¬ĥcient":9968,"Ġsummarize":9969,"Ġphenomena":9970,"hypothesis":9971,"kinetics":9972,"Ġsensor":9973,"Ġpinpointing":9974,"Ġferri":9975,"Ġintervals":9976,"ferent":9977,"Î¼g":9978,"Ġpractical":9979,"Ġhierarchical":9980,"ĠInsP":9981,"assessed":9982,"Ġcategories":9983,"Ġdonors":9984,"ĠAgain":9985,"odynamics":9986,"Ġextracted":9987,"ships":9988,"ĠResponses":9989,"Ġmachinery":9990,"ĠSTM":9991,"ĠHoming":9992,"Ġchromosome":9993,"Ġyielded":9994,"ActinDyn":9995,"observations":9996,"Under":9997,"Ã¡n":9998,"Ġï¬Ĥow":9999,"Ġpyrophosphate":10000,"ĠCalzone":10001,"constitutive":10002,"RELB":10003,"Ġmaterial":10004,"ĠÏĦestimate":10005,"MoT":10006,"MISs":10007,"Ġcardinality":10008,"Ġinfective":10009,"Ġexecution":10010,"Ġassembly":10011,"TRADD":10012,"Ġnutrient":10013,"Ġvacuole":10014,"eptides":10015,"Ġunrepaired":10016,"ultaneously":10017,"Ġelucidate":10018,"Metastasis":10019,"kappa":10020,"Ġinstructions":10021,"Ġfreely":10022,"amino":10023,"Ġcomplicated":10024,"Ġspurious":10025,"Gutierrez":10026,"Ġinspection":10027,"ibrary":10028,"ATLAB":10029,"counter":10030,"Ġarchitecture":10031,"Ġfeasible":10032,"dkfz":10033,"siderophore":10034,"Ġstraightforward":10035,"ĠÎ³Î³Î³Î³":10036,"demonstr":10037,"lombet":10038,"Ġtaxa":10039,"lostridium":10040,"ĠBayes":10041,"Ġsurprising":10042,"OLOGY":10043,"ernoulli":10044,"bphomology":10045,"nibus":10046,"esenchymal":10047,"ĠNADPH":10048,"vextenddouble":10049,"Ġprominent":10050,"ĠLoughran":10051,"ffymetrix":10052,"1003286":10053,"ebruary":10054,"normalTelomer":10055,"ROTOSOM":10056,"(/":10057,"+,":10058,".;":10059,"/),":10060,"08":10061,"410":10062,"613":10063,"Acetic":10064,"BH":10065,"Big":10066,"CU":10067,"Cub":10068,"Cellular":10069,"Csf":10070,"Drug":10071,"ESP":10072,"Ft":10073,"Fyn":10074,"Full":10075,"Gal":10076,"Graph":10077,"GSK":10078,"HRG":10079,"HSPC":10080,"Il":10081,"IBR":10082,"KA":10083,"KTS":10084,"LIH":10085,"Mar":10086,"Most":10087,"Mendoza":10088,"NU":10089,"NIK":10090,"OD":10091,"Om":10092,"PH":10093,"PRK":10094,"PBCN":10095,"Qu":10096,"Some":10097,"SUC":10098,"Several":10099,"Stimuli":10100,"Singh":10101,"TF":10102,"TSC":10103,"Total":10104,"Val":10105,"Whi":10106,"XA":10107,"YCC":10108,"ZB":10109,"ZH":10110,"^(":10111,"ao":10112,"bro":10113,"bar":10114,"bere":10115,"bts":10116,"bottom":10117,"blood":10118,"cd":10119,"cole":10120,"cally":10121,"did":10122,"done":10123,"dummy":10124,"effic":10125,"fib":10126,"four":10127,"figur":10128,"gle":10129,"gap":10130,"guez":10131,"glut":10132,"him":10133,"ham":10134,"hard":10135,"hours":10136,"higher":10137,"iaceae":10138,"iÃ³n":10139,"jected":10140,"jSLP":10141,"ktr":10142,"kdeg":10143,"lac":10144,"lers":10145,"lating":10146,"lckp":10147,"med":10148,"might":10149,"made":10150,"modelling":10151,"mpi":10152,"mkk":10153,"makes":10154,"magdeburg":10155,"nity":10156,"nous":10157,"next":10158,"oly":10159,"pur":10160,"phen":10161,"post":10162,"pip":10163,"pty":10164,"paper":10165,"rink":10166,"rÃŃ":10167,"sess":10168,"sample":10169,"software":10170,"success":10171,"tally":10172,"towards":10173,"uo":10174,"uel":10175,"uated":10176,"uilding":10177,"vav":10178,"vial":10179,"vision":10180,"wTP":10181,"whel":10182,"xn":10183,"zal":10184,"zap":10185,"ÃĪ":10186,"Î»":10187,"ĉĠ":10188,"Ġve":10189,"Ġign":10190,"ĠâĪĴâĪĴ":10191,"ĠNDI":10192,"Ġtt":10193,"Ġtar":10194,"inactivation":10195,"incorpor":10196,"inducing":10197,"ĠaE":10198,"Ġation":10199,"healthy":10200,"remo":10201,"repository":10202,"oni":10203,"onset":10204,"Ġ(âĢĺâĢĺ":10205,"Ġthea":10206,"Ġtheinformation":10207,"Ġtheoriginal":10208,"Ġoi":10209,"Ġom":10210,"Ġorange":10211,"Ġolig":10212,"Ġsen":10213,"Ġsor":10214,"Ġsil":10215,"Ġsure":10216,"Ġsaf":10217,"Ġsensi":10218,"tio":10219,"tiï¬ģed":10220,"tized":10221,"ene":10222,"enh":10223,"enyl":10224,"entiation":10225,"orf":10226,"orough":10227,"ordet":10228,"allo":10229,"Ġcs":10230,"Ġcul":10231,"Ġcav":10232,"Ġcust":10233,"ĠcDNA":10234,"Ġcdh":10235,"Ġcope":10236,"ĠcJUN":10237,"edication":10238,"ĠinS":10239,"Ġing":10240,"Ġintr":10241,"Ġofboth":10242,"antitative":10243,"Ġpa":10244,"Ġpr":10245,"Ġpat":10246,"ĠpAKT":10247,"Ġpolic":10248,"Ġpotent":10249,"eld":10250,"element":10251,"elements":10252,"Ġanterior":10253,"Ġanymedium":10254,"Ġansw":10255,"rounding":10256,"ley":10257,"lement":10258,"ito":10259,"itat":10260,"itative":10261,"itric":10262,"ingen":10263,"ingless":10264,"ices":10265,"iciency":10266,"Ġfil":10267,"Ġfresh":10268,"Ġmlk":10269,"Ġmelan":10270,"Ġmyeloma":10271,"Ġbir":10272,"Ġbold":10273,"Ġbtc":10274,"Ġdt":10275,"Ġdy":10276,"Ġdot":10277,"Ġdeduced":10278,"ĠAM":10279,"ĠAN":10280,"ĠAand":10281,"ĠAnaly":10282,"ĠALL":10283,"Ġnitro":10284,"Ġnomenclature":10285,"arting":10286,"aspec":10287,"asses":10288,"Ġrecon":10289,"Ġretain":10290,"aco":10291,"aciÃ³n":10292,"ulties":10293,"odd":10294,"Ġtoan":10295,"Ġtostudy":10296,"ento":10297,"entre":10298,"Ġeï¬Ģ":10299,"ĠTOR":10300,"ĠTables":10301,"ĠTREG":10302,"sthe":10303,"stat":10304,"static":10305,"Ġthioredoxin":10306,"lots":10307,"ĠCB":10308,"ĠCNA":10309,"ĠCorresponding":10310,"ĠNode":10311,"usp":10312,"Ġstated":10313,"Ġstron":10314,"Ġstead":10315,"unexpressed":10316,"unique":10317,"ĠOxidative":10318,"ĠIC":10319,"ĠIts":10320,"ĠSY":10321,"ĠSa":10322,"ĠSc":10323,"ĠSur":10324,"ĠSFF":10325,"ĠSurvival":10326,"ĠSchem":10327,"ĠSnai":10328,"ĠSingh":10329,"ĠSanta":10330,"ĠSwitzerland":10331,"terob":10332,"Ġha":10333,"Ġhour":10334,"Ġhard":10335,"Ġhisto":10336,"Ġharvested":10337,"Ġgp":10338,"Ġgathe":10339,"osition":10340,"osited":10341,"Ġcontribution":10342,"Ġconcluded":10343,"Ġconstants":10344,"ĠBel":10345,"ĠBool":10346,"ĠBmp":10347,"ĠBlock":10348,"ĠBriefly":10349,"ĠBYCC":10350,"ille":10351,"ilst":10352,"ilies":10353,"idi":10354,"Ġproï¬ģ":10355,"Ġproject":10356,"Ġproliferative":10357,"otype":10358,"Ġalternatively":10359,"Ġ120":10360,"Ġ173":10361,"ĠPos":10362,"ĠPublic":10363,"007":10364,"0045780":10365,"ĠMur":10366,"ĠMay":10367,"ĠMech":10368,"ĠMCD":10369,"ĠMany":10370,"ĠMPs":10371,"ĠMSN":10372,"Ġasperg":10373,"ĠElk":10374,"ĠEED":10375,"ĠEXP":10376,"ĠECCB":10377,"ĠEurope":10378,"iform":10379,"Ġonline":10380,"âĢĥ":10381,"segment":10382,"Ġlat":10383,"Ġlive":10384,"Ġlie":10385,"Ġlaw":10386,"ĠFis":10387,"ĠFate":10388,"ĠFull":10389,"ĠFuture":10390,"ĠFederal":10391,"ĠForexample":10392,"ĠFebruary":10393,"Ġbystand":10394,"umb":10395,"uments":10396,"umina":10397,"Ġareas":10398,"Ġarethe":10399,"presses":10400,"ayek":10401,"teady":10402,"optosome":10403,"adding":10404,"advant":10405,"ticles":10406,"trajector":10407,"api":10408,"upto":10409,"quist":10410,"andthe":10411,"androgen":10412,"Ġcompound":10413,"ĠRA":10414,"ĠRUNX":10415,"permits":10416,"rie":10417,"Ġweek":10418,"Ġvulnerability":10419,"ĠDendritic":10420,"ductor":10421,"Ġattr":10422,"ĠGCR":10423,"ĠGCSF":10424,"Ġkr":10425,"Ġks":10426,"Ġwhom":10427,"thism":10428,"ĠHIST":10429,"ĠHBEGF":10430,"Ġusage":10431,"Ġusers":10432,"ĠIncre":10433,"ĠInfl":10434,"ĠInaddition":10435,"ĠInstitutes":10436,"clindamycin":10437,"Ġfromthe":10438,"Ġtransported":10439,"Ġtransfected":10440,"Ġtranslocation":10441,"Ġtransmission":10442,"102":10443,"izations":10444,"plant":10445,"plines":10446,"plex":10447,"Ġdisorders":10448,"porated":10449,"porters":10450,"ĠWhere":10451,"Ġentity":10452,"expos":10453,"explicitly":10454,"existing":10455,"Ġetoposide":10456,"Ġcyto":10457,"gend":10458,"Ġimpor":10459,"Ġimmedi":10460,"Ġimpossible":10461,"ĠLin":10462,"ĠLife":10463,"ĠLaure":10464,"ĠLayek":10465,"context":10466,"conductor":10467,"strateg":10468,"Thermo":10469,"Ġneur":10470,"timesc":10471,"cripts":10472,"periments":10473,"Ġchains":10474,"astly":10475,"iagen":10476,"malate":10477,"Ġ59":10478,"Ġ599":10479,"Ġcost":10480,"116":10481,"Ġunderpin":10482,"bian":10483,"Ġadults":10484,"Ġadecrease":10485,"Ġadhesion":10486,"recombin":10487,"Ġcomes":10488,"Ġcoming":10489,"Ġcommunication":10490,"Ġiexp":10491,"cytos":10492,"cytokine":10493,"ĠPIC":10494,"Ġrepresentations":10495,"akar":10496,"cellline":10497,"cellcollective":10498,"âĪ¨":10499,"ĠJr":10500,"Interest":10501,"ardless":10502,"Ġeffectors":10503,"ĠUGR":10504,"Ġsched":10505,"Ġdeter":10506,"compare":10507,"Ġassays":10508,"colo":10509,"Ġunam":10510,"Ġunexpected":10511,"acteriaceae":10512,"timulation":10513,"ĠKr":10514,"Ġarri":10515,"Ġartif":10516,"Ġpresumably":10517,"ixing":10518,"regula":10519,"Ġbutyrate":10520,"oxia":10521,"ffen":10522,"haves":10523,"structed":10524,"ylin":10525,"ylation":10526,"Ġquite":10527,"Ġqualit":10528,"Ġrela":10529,"Ġrelate":10530,"ĠyEd":10531,"Ġfunctioning":10532,"Ġfunctionally":10533,"ulty":10534,"Ġpreferred":10535,"Ġprepared":10536,"deh":10537,"rought":10538,"BAD":10539,"Ġmodulating":10540,"scienti":10541,"Ġapproved":10542,"Ġ85":10543,"Ġ89":10544,"ĠCellular":10545,"ĠCellDesigner":10546,"00005":10547,"Ġautomat":10548,"Ġstimulate":10549,"foreach":10550,"Ġstudent":10551,"Ġgenerates":10552,"versibility":10553,"lected":10554,"itself":10555,"Ġwhenever":10556,"ĠComplex":10557,"Ġelic":10558,"Ġredescribes":10559,"Ġmicrosc":10560,"Ġmicrobes":10561,"Ġambig":10562,"Ġgraphically":10563,"Ġimmuno":10564,"Ġimmunos":10565,"Ġimmunity":10566,"Ġimmunocomp":10567,"Acore":10568,"Active":10569,"According":10570,"Ġmutually":10571,"Ġvariation":10572,"dering":10573,"ĠStd":10574,"ĠStomatal":10575,"Through":10576,"Ġconfer":10577,"chronic":10578,"Ġintended":10579,"Ġsynthetic":10580,"Ġnegated":10581,"Ġequilibri":10582,"Ġphosphor":10583,"Ġprobable":10584,"Ġdeficiency":10585,"ĠAnn":10586,"RPD":10587,"RPS":10588,"neutroph":10589,"ĠDNAdamage":10590,"Ġschematic":10591,"ĠXIAP":10592,"ĠXenarios":10593,"âĢĺ~":10594,"preparation":10595,"pathogen":10596,"assing":10597,"Ġclin":10598,"Ġsometimes":10599,"Ġofthenetwork":10600,"interacting":10601,"ameter":10602,"Ġmediates":10603,"aceu":10604,"Ġranging":10605,"Ġdescriptions":10606,"parts":10607,"ĠMCL":10608,"talk":10609,"999":10610,"ogaster":10611,"Ġcleavage":10612,"ĠAcetyl":10613,"Ġconfigura":10614,"construction":10615,"constructed":10616,"cuits":10617,"highligh":10618,"iang":10619,"ĠConroy":10620,"inhibitors":10621,"Ġdepri":10622,"ĠYCA":10623,"better":10624,"relatively":10625,"ĠGeneral":10626,"Ġï¬ģg":10627,"RFOR":10628,"Ġcapturing":10629,"Ġintegrates":10630,"Ġregion":10631,"Ġconsist":10632,"Ġconsisted":10633,"othen":10634,"obtain":10635,"ruptions":10636,"Ġoxide":10637,"ĠjB":10638,"Ġvertex":10639,"Ġconstructing":10640,"Ġamongst":10641,"bolic":10642,"ĠÂ§":10643,"ĠSOP":10644,"Ġoccurrence":10645,"Ġpromoting":10646,"IFNGR":10647,"DPK":10648,"Ġcontrary":10649,"Ġcaspases":10650,"ĠSignalling":10651,"ĠMYL":10652,"Ġcolitis":10653,"Ġhumanized":10654,"Ġaccordingly":10655,"ĠBioModels":10656,"CDKs":10657,"issue":10658,"Ġdenoting":10659,"Ġprognosis":10660,"Ġrevealing":10661,"Ġhypothesized":10662,"Ġenter":10663,"Ġextensively":10664,"ofthese":10665,"ijTI":10666,"Ã°t":10667,"evated":10668,"Respon":10669,"Ã©d":10670,"RNAs":10671,"ools":10672,"Ġuncontrolled":10673,"olarity":10674,"Ġclassical":10675,"systemic":10676,"rkA":10677,"ĠIgE":10678,"Ġlayers":10679,"Ġabundant":10680,"Cyclase":10681,"Aldrich":10682,"equal":10683,"ĠÎ²and":10684,"Ġepr":10685,"Ġframeworks":10686,"Ġtrivial":10687,"Ġtothevector":10688,"Ġconsiderable":10689,"Ġstabilizes":10690,"Receptor":10691,"Ġmalign":10692,"Ġdiag":10693,"ĠImage":10694,"Ġimply":10695,"aiver":10696,"Ġstochasticity":10697,"connection":10698,"576":10699,"Ġpossibilities":10700,"Ġtherapeutics":10701,"Ġprecisely":10702,"Ġdidnot":10703,"Chains":10704,"generate":10705,"denote":10706,"denylate":10707,"ĠNoG":10708,"Ġapplicable":10709,"superoxide":10710,"yellow":10711,"mercial":10712,"Ġsecreted":10713,"Ġreferred":10714,"Ġdeletions":10715,"Supporting":10716,"mutated":10717,"Ġdistinc":10718,"ĠFAHRR":10719,"CHUK":10720,"Ġencode":10721,"Ġestimation":10722,"numberof":10723,"Ġtempor":10724,"Expression":10725,"coli":10726,"Ġplasmid":10727,"Ġ1997":10728,"Ġ1999":10729,"Ġcomparisons":10730,"ĠDiscussion":10731,"Ġenzymatic":10732,"Ġmaintains":10733,"Ġinvestigation":10734,"framework":10735,"fragment":10736,"spatial":10737,"Ġoverexpressed":10738,"ĠEnzyme":10739,"followed":10740,"Â¼2":10741,"increases":10742,"integrin":10743,"Ġmonot":10744,"ĠATF":10745,"ÎĶrgt":10746,"Ġsustain":10747,"lexopoulos":10748,"Ġfailed":10749,"Ġfailures":10750,"ĠĠĠĠĠĠĠĠĠĠ":10751,"defy":10752,"ĠStatement":10753,"Ġphosphatases":10754,"visual":10755,"Ġdifficulties":10756,"Ġcolour":10757,"valuation":10758,"ELISA":10759,"PDF":10760,"psu":10761,"Ġproportional":10762,"Ġemerging":10763,"Ġorganization":10764,"Ġseparation":10765,"Ġflip":10766,"Ġflora":10767,"ĠFirstly":10768,"ĠCyclinD":10769,"OPTOS":10770,"variable":10771,"itrate":10772,"Ġcomprised":10773,"Ġcomprising":10774,"Ġadaptive":10775,"design":10776,"Ġeosinophil":10777,"Ġapproximated":10778,"Edited":10779,"faulty":10780,"Ġdistant":10781,"Ġsurface":10782,"ĠMetabolic":10783,"Ġrunning":10784,"convergence":10785,"knockouts":10786,"promo":10787,"Ġenhanced":10788,"âĪĪ{":10789,"Ġappearance":10790,"ogeneous":10791,"Ġaimed":10792,"Ġimplications":10793,"Ġadvantages":10794,"MODEL":10795,"Ġmetagenomic":10796,"Ġrecognized":10797,"require":10798,"Ġdysfunction":10799,"Ġaccurate":10800,"Ġsupplementary":10801,"BclxL":10802,"ĠCollege":10803,"ĠOmnibus":10804,"ĠRORgt":10805,"ĠRORGT":10806,"Ġspecialized":10807,"CXCR":10808,"Oncogene":10809,"easily":10810,"macrophages":10811,"ĠSupporting":10812,"ĠDifferent":10813,"Ġadjust":10814,"ĠKÃ¾efï¬Ĥux":10815,"RhoGEF":10816,"resulted":10817,"degradation":10818,"Ġparticipation":10819,"Ġparticipate":10820,"Ġparticipates":10821,"Ġrestrict":10822,"Ġreturns":10823,"redundant":10824,"ÂĨÂĨÂĨ&!":10825,"ITF":10826,"ĠOtherwise":10827,"containing":10828,"Ġpreserve":10829,"Ġrecapitulate":10830,"Ġasthe":10831,"update":10832,"ĠPhysics":10833,"Attractors":10834,"DesCyclinC":10835,"evaluated":10836,"world":10837,"etermine":10838,"Ġcomplementary":10839,"ĠKnock":10840,"Ġpromoters":10841,"Address":10842,"Ġmultic":10843,"Ġhorizon":10844,"particularly":10845,"Ġsummarizes":10846,"Ġrecruitment":10847,"TrcybHed":10848,"molecule":10849,"ramatically":10850,"Ġpinpoint":10851,"Ġpredom":10852,"ĠRedActinDyn":10853,"Ġtraits":10854,"below":10855,"elihood":10856,"Ġhierarchy":10857,"Ġexert":10858,"Ġrabbit":10859,"Ġsynchronization":10860,"Ġpolynom":10861,"Ġchallenges":10862,"facilit":10863,"Ġdifï¬ģcult":10864,"odynamic":10865,"Ġectopic":10866,"Ġattempts":10867,"Ġnevertheless":10868,"Ġlysates":10869,"Ġadjacency":10870,"RSL":10871,"SHP":10872,"leukemic":10873,"Ġmachine":10874,"ĠBacteria":10875,"Ġexhaustively":10876,"Ġattention":10877,"indleCP":10878,"Ġuncovering":10879,"bedded":10880,"ligands":10881,"Ġmerged":10882,"Ġmerging":10883,"ĠCarmona":10884,"Ġgrey":10885,"Aktp":10886,"ciso":10887,"ĠAvailability":10888,"ĠMcCulloch":10889,"CycleArrest":10890,"Heat":10891,"layer":10892,"Ġrectangles":10893,"ĠNfkB":10894,"plasma":10895,"Ġtimepoint":10896,"Ġobjective":10897,"interpreted":10898,"Ġelectroph":10899,"IgG":10900,"Ġsugars":10901,"Ġinï¬Ĥuence":10902,"Ġpicture":10903,"Ġconï¬ģrmed":10904,"ĠMPT":10905,"Ġcombine":10906,"RANZB":10907,"Ġanalogous":10908,"(+)":10909,"cribed":10910,"sustained":10911,"Ġinnate":10912,"ĠCUL":10913,"ĠPrimary":10914,"ĠMollicutes":10915,"Ġcompartments":10916,"cascades":10917,"Ġneurodegenerative":10918,"Ġmigrate":10919,"Ġprolifer":10920,"ĠRPPA":10921,"publicdomain":10922,"ĠSphK":10923,"ositol":10924,"bbreviations":10925,"Ġsuscepti":10926,",:::,":10927,"Tyr":10928,"Yiexp":10929,"Ġinconsistencies":10930,"Ġportion":10931,"Ġpapers":10932,"Ġrecorded":10933,"Ġlicensee":10934,"ĠRRM":10935,"Ġembryonic":10936,"ĠBayesian":10937,"IBROBL":10938,"rÃŃguez":10939,"wTPM":10940,"whelming":10941,"Ġcavity":10942,"Ġcustom":10943,"Ġsteadyst":10944,"terobacteriaceae":10945,"Ġgathered":10946,"Ġimmediately":10947,"Interestingly":10948,"denylateCyclase":10949,"OPTOSIS":10950,"\",":10951,"%.":10952,")),":10953,"+ï£«":10954,",*,":10955,"112":10956,"3389":10957,"624":10958,"Atrboh":10959,"Band":10960,"Bra":10961,"Cd":10962,"Chem":10963,"CIS":10964,"CIA":10965,"Ceramide":10966,"Def":10967,"Elk":10968,"EstB":10969,"FTa":10970,"Ga":10971,"HO":10972,"HS":10973,"Hides":10974,"ICP":10975,"Iden":10976,"Lk":10977,"Lip":10978,"LSS":10979,"MR":10980,"MS":10981,"Me":10982,"Mal":10983,"MMP":10984,"MMI":10985,"Mmp":10986,"MSN":10987,"MDV":10988,"Non":10989,"Nod":10990,"NOS":10991,"Nature":10992,"NICD":10993,"NLk":10994,"Over":10995,"OCCS":10996,"Path":10997,"PAP":10998,"Predic":10999,"Previous":11000,"Parv":11001,"Qiagen":11002,"Ral":11003,"RGT":11004,"SR":11005,"Such":11006,"SER":11007,"Signaling":11008,"SagAM":11009,"TH":11010,"TPL":11011,"Tbx":11012,"Tfh":11013,"TBK":11014,"TWIST":11015,"Upon":11016,"Ulm":11017,"VCP":11018,"VAC":11019,"VCAM":11020,"ZEB":11021,"ZMB":11022,"aR":11023,"auff":11024,"ba":11025,"bone":11026,"bronchiseptica":11027,"benef":11028,"cb":11029,"cul":11030,"cut":11031,"cated":11032,"cross":11033,"cFos":11034,"dx":11035,"dÃ°":11036,"description":11037,"deregul":11038,"damag":11039,"delay":11040,"diseases":11041,"ez":11042,"evidence":11043,"fy":11044,"files":11045,"few":11046,"fï¬ģcient":11047,"gut":11048,"gab":11049,"gous":11050,"hI":11051,"ha":11052,"his":11053,"hic":11054,"hind":11055,"iu":11056,"iol":11057,"iregul":11058,"iTreg":11059,"jF":11060,"kd":11061,"ko":11062,"lan":11063,"lular":11064,"lack":11065,"lik":11066,"lived":11067,"mm":11068,"ms":11069,"my":11070,"mic":11071,"murine":11072,"middle":11073,"nel":11074,"nation":11075,"nith":11076,"nWG":11077,"nucleotide":11078,"ook":11079,"pour":11080,"plying":11081,"pERK":11082,"prior":11083,"ptom":11084,"qPCR":11085,"rp":11086,"rations":11087,"sen":11088,"sur":11089,"tod":11090,"tto":11091,"tary":11092,"tech":11093,"uer":11094,"uiz":11095,"uyl":11096,"util":11097,"vate":11098,"vated":11099,"vating":11100,"vances":11101,"vacu":11102,"vcontribution":11103,"want":11104,"widely":11105,"xk":11106,"yth":11107,"yclase":11108,"zn":11109,"zeb":11110,"Â«":11111,"Ġut":11112,"Ġell":11113,"Ġri":11114,"Ġess":11115,"Ġesc":11116,"Ġâī":11117,"Ġtc":11118,"Ġts":11119,"Ġtgf":11120,"ĠtBID":11121,"instance":11122,"Ġares":11123,"Ġair":11124,"Ġaand":11125,"Ġakt":11126,"ĠaRg":11127,"Ġaware":11128,"hepat":11129,"reactions":11130,"repe":11131,"once":11132,"onym":11133,"onstruction":11134,"atal":11135,"atthe":11136,"atible":11137,"atpour":11138,"Ġ(+":11139,"Ġthelogical":11140,"ĠtheBoolean":11141,"Ġomitted":11142,"Ġses":11143,"Ġsion":11144,"Ġsom":11145,"Ġsole":11146,"ĠsidA":11147,"Ġspleen":11148,"erv":11149,"eric":11150,"eries":11151,"eright":11152,"erlotinib":11153,"erries":11154,"tiated":11155,"enetwork":11156,"enable":11157,"enger":11158,"orn":11159,"oration":11160,"aldi":11161,"almost":11162,"already":11163,"Ġce":11164,"Ġcis":11165,"Ġcam":11166,"Ġcopy":11167,"ĠcJun":11168,"ĠcFos":11169,"Ġ):":11170,"eda":11171,"edited":11172,"ested":11173,"Ġinal":11174,"Ġinduc":11175,"Ġinfor":11176,"ĠinTable":11177,"Ġinwhich":11178,"Ġinthis":11179,"Ġinactivate":11180,"Ġinducer":11181,"ĠofNF":11182,"Ġofall":11183,"ĠofSASP":11184,"ĠofCre":11185,"anted":11186,"anne":11187,"ison":11188,"Ġpak":11189,"eleft":11190,"Ġana":11191,"Ġanemia":11192,"roblast":11193,"least":11194,"Ġwant":11195,"Ġwiring":11196,"Ġwarran":11197,"Ġwanted":11198,"itt":11199,"itations":11200,"icon":11201,"ican":11202,"Ġfx":11203,"Ġfis":11204,"Ġflex":11205,"Ġfields":11206,"Ġfalse":11207,"Ġfocal":11208,"Ġmere":11209,"ĠmSREBP":11210,"Ġbed":11211,"Ġbar":11212,"Ġborder":11213,"Ġbenchmark":11214,"Ġda":11215,"Ġds":11216,"Ġdate":11217,"ĠAC":11218,"ĠAUC":11219,"ĠAEBP":11220,"ĠADM":11221,"ĠABH":11222,"etts":11223,"Ġandin":11224,"ĠandIL":11225,"Ġnetw":11226,"Ġnormally":11227,"ationar":11228,"ationale":11229,"arce":11230,"arse":11231,"ardi":11232,"arious":11233,"aride":11234,"asingly":11235,"Ġrep":11236,"Ġreport":11237,"Ġreact":11238,"Ġreduces":11239,"Ġrecurrent":11240,"Ġrecessive":11241,"ulum":11242,"ulative":11243,"ulae":11244,"ulocyte":11245,"odon":11246,"Ġtook":11247,"Ġtoll":11248,"Ġtoidentify":11249,"entenyl":11250,"Ġeti":11251,"Ġeast":11252,"Ġegf":11253,"igor":11254,"ĠTec":11255,"ĠTPL":11256,"ĠTRA":11257,"ĠTechnologies":11258,"ĠTLS":11259,"ectively":11260,"start":11261,"stationar":11262,"imulation":11263,"NDOG":11264,"utamide":11265,"loxed":11266,"ĠChen":11267,"ĠClosure":11268,"ĠCEBP":11269,"ĠCSD":11270,"ĠClostridium":11271,"ĠNet":11272,"ĠNaldi":11273,"usetts":11274,"Ġste":11275,"Ġstables":11276,"Ġstaining":11277,"ĠOwn":11278,"ĠOptim":11279,"ĠOdefy":11280,"Ġisthe":11281,"Ġisogenic":11282,"ĠStein":11283,"ĠSIN":11284,"ĠSDP":11285,"ĠSequ":11286,"ĠSTR":11287,"ĠSupplemental":11288,"ĠSDS":11289,"ĠSMAC":11290,"tering":11291,"terol":11292,"Ġhin":11293,"Ġhund":11294,"Ġhuge":11295,"Ġgly":11296,"osh":11297,"osomes":11298,"ĠBI":11299,"ĠBM":11300,"ĠBal":11301,"ĠBas":11302,"ĠBetween":11303,"ĠBuilding":11304,"ĠBordet":11305,"illo":11306,"ilumin":11307,"ĠNOD":11308,"idation":11309,"abl":11310,"Ġalgebra":11311,"Ġexchange":11312,"Ġexclude":11313,"Ġ1100":11314,"olin":11315,"Ġforcing":11316,"ĠPan":11317,"008":11318,"ĠMigration":11319,"ĠMEC":11320,"ĠMinis":11321,"ĠMagdeburg":11322,"ĠMATLAB":11323,"ereceptor":11324,"Ġasym":11325,"ĠEss":11326,"ĠETS":11327,"tivities":11328,"âĢ¢":11329,"âĢ¦":11330,"seud":11331,"Ġlies":11332,"vergence":11333,"Ġacy":11334,"Ġaccession":11335,"ĠFP":11336,"ĠFac":11337,"ĠFGF":11338,"ĠFRK":11339,"ĠFAcore":11340,"ĠFIBROBL":11341,"nals":11342,"nalog":11343,"Ġbya":11344,"ump":11345,"ĠnetworkFigure":11346,"tebr":11347,"oplastic":11348,"opentenyl":11349,"ira":11350,"tionship":11351,"add":11352,"adatpour":11353,"trig":11354,"trials":11355,"apatin":11356,"application":11357,"ĠorIL":11358,"Ġornith":11359,"uple":11360,"upper":11361,"upregulated":11362,"andG":11363,"andn":11364,"ander":11365,"Ġcomputes":11366,"Ġcompiled":11367,"ĠRo":11368,"perature":11369,"Ġweigh":11370,"Ġweight":11371,"Ġwealth":11372,"Ġvulner":11373,"ĠDH":11374,"ĠDkk":11375,"ĠDSD":11376,"ĠDeterm":11377,"ĠDuke":11378,"ĠDomain":11379,"athan":11380,"Ġresources":11381,"Ġresili":11382,"Ġreservoir":11383,"Ġactivat":11384,"dia":11385,"ĠGri":11386,"ĠGAK":11387,"ĠGalpha":11388,"ĠGMPs":11389,"ĠHor":11390,"ĠHDAC":11391,"cho":11392,"chro":11393,"cholesterol":11394,"forth":11395,"Ġtransi":11396,"Ġtranscribed":11397,"1011":11398,"izer":11399,"Ġitwould":11400,"phy":11401,"Ġintertw":11402,"Ġinterferon":11403,"ĠThP":11404,"ĠThree":11405,"achieve":11406,"achusetts":11407,"puts":11408,"Ġlegend":11409,"Ġwasused":11410,"Ġwasperformed":11411,"pli":11412,"platform":11413,"inez":11414,"Ġdeï¬ģ":11415,"Ġdeactivated":11416,"Ġapart":11417,"ubic":11418,"ubation":11419,"ubious":11420,"Ġra":11421,"Ġrg":11422,"Ġrib":11423,"Ġrich":11424,"Ġrisk":11425,"Ġshor":11426,"Ġshock":11427,"Ġshift":11428,"Ġpertur":11429,"Ġperox":11430,"Ġperoxid":11431,"Ġperhaps":11432,"hibition":11433,"exin":11434,"Ġspecify":11435,"genome":11436,"ĠLY":11437,"ĠLong":11438,"ĠList":11439,"ĠLower":11440,"ĠLuis":11441,"coni":11442,"strates":11443,"ude":11444,"udent":11445,"grp":11446,"Ġneuregulin":11447,"Ġchance":11448,"astuck":11449,"Ġdynamically":11450,"toscap":11451,"Ġrepressor":11452,".,[":11453,"Ġ58":11454,"Ġinhibi":11455,"126":11456,"avas":11457,"acket":11458,"Ġcovers":11459,"Ġcoordin":11460,"vides":11461,"position":11462,"117":11463,"NAL":11464,"NADP":11465,"Ġadop":11466,"Ġadvanced":11467,"recent":11468,"recru":11469,"respond":11470,"Ġii":11471,"Ġij":11472,"Ġitis":11473,"Ġupregulation":11474,"OST":11475,"Ġpossess":11476,"celllines":11477,"series":11478,"Ġlose":11479,"ĠJUN":11480,"ĠJaco":11481,"International":11482,"Ġroot":11483,"Ġrough":11484,"Ġroutes":11485,"ĠUK":11486,"ĠUnivers":11487,"Ġdetrimental":11488,"ï¬ģrst":11489,"ĠVLA":11490,"Ġ64":11491,"Ġ69":11492,"compartment":11493,"compris":11494,"cores":11495,"Ġuniform":11496,"ensed":11497,"Ġsubstrate":11498,"clear":11499,"auses":11500,"sidered":11501,"cerning":11502,"Ġground":11503,"ĠKey":11504,"Ġarrays":11505,"Ġarises":11506,"Ġarticles":11507,"Ġouter":11508,"Ġoutward":11509,"regulator":11510,"Ġinfeasible":11511,"hedge":11512,"Ġhead":11513,"ager":11514,"aged":11515,"agreement":11516,"10046":11517,"Ġqual":11518,"Ġinvari":11519,"tribute":11520,"oneofthe":11521,"Ġprevents":11522,"degrees":11523,"nected":11524,"Ġ79":11525,"Ġmodification":11526,"Ġmodulate":11527,"Ġmoderately":11528,"Ġmodulators":11529,"Ġcontrollers":11530,"202":11531,"scal":11532,"Ġ81":11533,"00004":11534,"Ġ109":11535,"Ġformulae":11536,"IRAP":11537,"Ġeditor":11538,"istance":11539,"Ġstimulating":11540,"ikingly":11541,"1757":11542,"Ġsuper":11543,"artam":11544,"ĠCompetition":11545,"ĠComponents":11546,"validate":11547,"nodrug":11548,"note":11549,"notation":11550,"Ġimmunology":11551,"ammary":11552,"life":11553,"Ġmutual":11554,"Ġdecide":11555,"Ġdecades":11556,"2000":11557,"2003":11558,"begf":11559,"tency":11560,"1411":11561,"Ġplausible":11562,"Ġsignifi":11563,"setting":11564,"Ġsynapse":11565,"streptom":11566,"iterature":11567,"ĠAltered":11568,"IPT":11569,"simulating":11570,"Ġxis":11571,"Ġcycling":11572,"Ġspores":11573,"5363":11574,"udies":11575,"ĠSTATES":11576,"streams":11577,"ĠProgram":11578,"Ġmatch":11579,"Ġmatrices":11580,"Ġphosphate":11581,"Ġprobes":11582,"Ġdefines":11583,"Ġavail":11584,"extended":11585,"Ġ!(":11586,"Ġconnect":11587,"Ġdownregulated":11588,"ĠExpl":11589,"assachusetts":11590,"Ġclause":11591,"ollection":11592,"specified":11593,"Ġagent":11594,"Ġsomewhat":11595,"Ġofthese":11596,"Ġconvert":11597,"702":11598,"ORY":11599,"Ġmedian":11600,"Ġmediating":11601,"talks":11602,"âĪĴ/":11603,"cially":11604,"hematopoietic":11605,"Ġgrouping":11606,"ogy":11607,"ogers":11608,"Ġminim":11609,"Ġnontrivial":11610,"Ġcleared":11611,"medium":11612,"Ġ&Â¬":11613,"UCTION":11614,"Ġembedded":11615,"CSS":11616,"Ġdepolarization":11617,"Ġdephosph":11618,"ĠYeast":11619,"ĠYang":11620,"LPS":11621,"Ġfrag":11622,"Ġframe":11623,"ethodology":11624,"relative":11625,"ĠTGFbeta":11626,"Ġcharacterization":11627,"Ġcharacterised":11628,"fromthe":11629,"encodes":11630,"Ġsequester":11631,"Ġsequencing":11632,"Ġdiseased":11633,"oblot":11634,"ĠTNFA":11635,"rupted":11636,"ullen":11637,"Ġthemselves":11638,"disruption":11639,"Ġworkflow":11640,"zeros":11641,"ĠZeb":11642,"ĠZisch":11643,"Ġsuff":11644,"Ġhypered":11645,"archer":11646,"ovic":11647,"ĠÂµ":11648,"Ġreconstruct":11649,"difference":11650,"ĠClust":11651,"manip":11652,"Ġcalcium":11653,"IFNÎ³":11654,"noise":11655,"Ġreleased":11656,"arises":11657,"ĠâĢĿ)":11658,"helper":11659,"ĠDCI":11660,"IAH":11661,"temporal":11662,"Ġcolors":11663,"Ġinsensitivity":11664,"Ġinsufficient":11665,"armaceu":11666,"Ġ0000100":11667,"Ġserves":11668,"ĠBiochemistry":11669,"details":11670,"Ġsimpler":11671,"iomÃ©d":11672,"Ġhypothesize":11673,"ĠCYCLIND":11674,"ĠOncogene":11675,"Ġextreme":11676,"Ġextremely":11677,"Ġexploring":11678,"ijTAG":11679,"phospho":11680,"ĠFoxc":11681,"events":11682,"Ġinstability":11683,"Ġinstances":11684,"ĠCha":11685,"SPHK":11686,"Ġclassiï¬ģed":11687,"STEM":11688,"ĠProteins":11689,"prediction":11690,"Albert":11691,"ahin":11692,"Ġepigenetic":11693,"ĠRasGAP":11694,"ĠRasGRF":11695,"Ġbehaviours":11696,"rincipal":11697,"Ġnamed":11698,"complexes":11699,"Ġsolve":11700,"Ġsoluble":11701,"ĠCOX":11702,"Ġconsiderations":11703,"Ġconsistently":11704,"JNKi":11705,"SCs":11706,"Ġblockage":11707,"autocrine":11708,"ĠAPP":11709,"ĠAPOPTOSIS":11710,"Ġpermute":11711,"Anion":11712,"Ġimped":11713,"Ġimplying":11714,"Ġconverging":11715,"invariance":11716,"ï£¬ï£¶":11717,"tcrb":11718,"Ġprecision":11719,"Ġlocalization":11720,"drugtreatments":11721,"Ġconstantly":11722,"Ġdiï¬Ģerences":11723,"denoting":11724,"Ġperformance":11725,"Ġarrowhead":11726,"ĠPLCg":11727,"AbnormalTelomer":11728,"homolog":11729,"ĠÎ±induction":11730,"ĠCTLA":11731,"LLIP":11732,"nostic":11733,"tometry":11734,"Ġworld":11735,"ictly":11736,"Ġstandardi":11737,"depending":11738,"larger":11739,"ĠTrastuzumab":11740,"ĠTrFoxp":11741,"Ġlimiting":11742,"Ġreads":11743,"Ġsearching":11744,"Ġestimates":11745,"Ġirrespective":11746,"Ġdrives":11747,"stored":11748,"locations":11749,"ĠDiscovery":11750,"independently":11751,"bracket":11752,"modules":11753,"modelled":11754,"Ġqi":11755,"ĠEnrichment":11756,"Ġreasons":11757,"Ġreasoning":11758,"ĠDynamin":11759,"Ġinternalization":11760,"integration":11761,"ĠATL":11762,"processing":11763,"1000702":11764,"FAF":11765,"ĠScientific":11766,"indicating":11767,"Ġcalculating":11768,"determine":11769,"Ġtumourigen":11770,"Ġperiodicity":11771,"ĠMANU":11772,"Ġconfirms":11773,"ĠĠĠĠĠĠĠĠĠĠĠĠ":11774,"deficient":11775,"guarante":11776,"Ġstatuses":11777,"Ġhomodimers":11778,"Ġpropagating":11779,"ELK":11780,"ĠLUTs":11781,"witching":11782,"law":11783,"icked":11784,"Ġrestore":11785,"ĠIFNgI":11786,"polym":11787,"Reg":11788,"iredoxins":11789,"Ġnumerous":11790,"Ġlabel":11791,"Ġregulatorynetwork":11792,"Ġestablishing":11793,"eworth":11794,"ksyn":11795,"parent":11796,"Ġfacilitating":11797,"Ġevolutionary":11798,"BNE":11799,"NGFstimulation":11800,"atecyclase":11801,"Ġgovern":11802,"Ġprotease":11803,"characteristic":11804,"characteristics":11805,"ĠÎĶgrr":11806,"LMNA":11807,"affinity":11808,"eratinocyte":11809,"Ġenhances":11810,"behaviour":11811,"grey":11812,"Ġaims":11813,"ĠmRNAs":11814,"ĠTAO":11815,"ĠCaspase":11816,"ĠCREM":11817,"Ġpersistent":11818,"Ġneighboring":11819,"Ġrows":11820,"MOMP":11821,"breast":11822,"Ġlysed":11823,"Ġillustrates":11824,"orphisms":11825,"amaga":11826,"Ġprograms":11827,"Ġidentiï¬ģcation":11828,"ĠQual":11829,"oscillatory":11830,"ĠMODEL":11831,"GEO":11832,"annis":11833,"Ġformats":11834,"Ġproblems":11835,"assume":11836,"Copyedited":11837,"hyperarc":11838,"literal":11839,"Ġannotation":11840,"Ġannotated":11841,"Ġexogenous":11842,"Ġknowing":11843,"Ġapertures":11844,"Ġbiomass":11845,"Ġdurations":11846,"Ġcomposition":11847,"Ġkeratinocytes":11848,"Ġsuppressive":11849,"Ġavoided":11850,"jects":11851,"zygous":11852,"Ġversa":11853,"Ġultimate":11854,"ĠIGOs":11855,"consider":11856,"Ġinvolvement":11857,"Ġopposing":11858,"ĠImmunology":11859,"build":11860,"earson":11861,"reproduce":11862,"operator":11863,"Ġelimination":11864,"Ġdepiction":11865,"SCRIPT":11866,"ĠERa":11867,"Ġprinciples":11868,"Ġcloseness":11869,"Ġstopped":11870,"ĠSwi":11871,"ĠDirect":11872,"ĠAntigen":11873,"hypotheses":11874,"affecting":11875,"ydrogen":11876,"Ġpredecess":11877,"accharide":11878,"ĠCHUK":11879,"ĠSteady":11880,"ĠUpregula":11881,"Ġsubconstraints":11882,"Ġsigniï¬ģcantly":11883,"Ġbreakdown":11884,"ADPR":11885,"suggested":11886,"Ġexerted":11887,"opening":11888,"ĠDOCK":11889,"Ġbiologists":11890,"Biot":11891,"basin":11892,"maximum":11893,"reconstructed":11894,"ceeded":11895,"Insig":11896,"Interaction":11897,"Ġassociate":11898,"Ġhighlighting":11899,"relationships":11900,"Ġstrengths":11901,"GANLk":11902,"Ġbranches":11903,"ĠBacterial":11904,"questions":11905,"proteomic":11906,"Ġfragmentation":11907,"ÆĴk":11908,"Ġubiquitin":11909,"ĠSubsequently":11910,"Ġconvenient":11911,"ĠInitial":11912,"ĠInitially":11913,"Ġmaterials":11914,"Ġcontradictory":11915,"tagon":11916,"Ġfitted":11917,"ĠCurie":11918,"ematopoietic":11919,"Ġmanipulation":11920,"Ġ***":11921,"Ġpurely":11922,"Ġandrogens":11923,"acetyltransfer":11924,"olipid":11925,"olipase":11926,"ĠPredicted":11927,"ĠEditor":11928,"tractable":11929,"strongly":11930,"Ġtimepoints":11931,"Ġobjectives":11932,"Ġadditive":11933,"lasminogen":11934,"BoSS":11935,"EGORY":11936,"itude":11937,"itudinal":11938,"Ġmucus":11939,"Ġniches":11940,"otinylated":11941,"ĠPhenotypes":11942,"âĢ¡,":11943,"Ġautomated":11944,"Ġhyposensitivity":11945,"Ġhyposensitive":11946,"metabolites":11947,"ĠPharmacology":11948,"DAXX":11949,"symmetric":11950,"Ġretrieved":11951,"stripes":11952,"Ġhappen":11953,"Ġcontact":11954,"Ġcanalized":11955,"Instituto":11956,"RPPAdata":11957,"involving":11958,"Ġcontributors":11959,"Ġbuffer":11960,"braceleft":11961,"CEBPbe":11962,"revealed":11963,"Ġdiminis":11964,"ĠCPR":11965,"ĠCanalizing":11966,"ĠCATEGORY":11967,"Ġprovok":11968,"otropic":11969,"Ġexpect":11970,"Ġexemplify":11971,"eedSet":11972,"phosphatase":11973,"assumptions":11974,"Output":11975,"closed":11976,"remaining":11977,"Ġslightly":11978,"ĠCambridge":11979,"ĠCLPs":11980,"ĠFunction":11981,"ĠThefigures":11982,"challen":11983,"formalism":11984,"TheCellCollective":11985,"possibly":11986,"Ġopportunity":11987,"otherapy":11988,"Ġhyphae":11989,"Ġpolymer":11990,"BOOL":11991,"includes":11992,"Ġovaries":11993,"Ġcumulative":11994,"Ġfamilies":11995,"Ġfemale":11996,"Ġdrastically":11997,"ĠIllumina":11998,"Ġliver":11999,"Ġlikelihood":12000,"ĠRGS":12001,"products":12002,"propagation":12003,"Ġleukocytes":12004,"Ġneutral":12005,"calculated":12006,"Ġcatalases":12007,"Understanding":12008,"hima":12009,"zalutamide":12010,"Ġoligon":12011,"Ġanswer":12012,"Ġmelanogaster":12013,"ĠCBX":12014,"ĠSaadatpour":12015,"ĠEuropean":12016,"Ġbystander":12017,"ĠInfluence":12018,"exposure":12019,"Ġunderpinning":12020,"Ġschedule":12021,"Ġqualita":12022,"Ġimmunosup":12023,"Ġequilibrium":12024,"highlighted":12025,"Response":12026,"Ġpredominant":12027,"6244":12028,"Braun":12029,"FTaGANLk":12030,"Hideshima":12031,"Parvin":12032,"auffman":12033,"hicle":12034,"iregulin":12035,"uylla":12036,"Ġtgfa":12037,"ĠSTRING":12038,"Ġhundred":12039,"iluminesc":12040,"ĠMinistry":12041,"ĠEssential":12042,"nalogously":12043,"apatinib":12044,"Ġornithine":12045,"Ġresilience":12046,"toscape":12047,"NADPH":12048,"1004696":12049,"streptomycin":12050,"ĠZischka":12051,"iomÃ©dicas":12052,"Ġtumourigenesis":12053,"ĠMANUSCRIPT":12054,"eworthy":12055,"ĠIGOsZ":12056,"Ġpredecessor":12057,"acetyltransferase":12058,"'t":12059,")[":12060,",:":12061,"-)":12062,".-":12063,"473":12064,"817":12065,"=[":12066,"Av":12067,"Aran":12068,"AUC":12069,"ABI":12070,"Amer":12071,"Additionally":12072,"Among":12073,"Affymetrix":12074,"BM":12075,"Bn":12076,"Bt":12077,"Both":12078,"BMP":12079,"Blood":12080,"Budding":12081,"Blautia":12082,"Bernoulli":12083,"CG":12084,"Ci":12085,"Cer":12086,"Cal":12087,"Cancer":12088,"CccA":12089,"DKK":12090,"Database":12091,"David":12092,"Decreased":12093,"Eis":12094,"Ets":12095,"Equ":12096,"Email":12097,"Ecole":12098,"Evaluation":12099,"FP":12100,"Func":12101,"File":12102,"Fors":12103,"FYN":12104,"FOX":12105,"Fgf":12106,"Freiburg":12107,"Gab":12108,"Grb":12109,"Galpha":12110,"GPCR":12111,"Gamma":12112,"German":12113,"HP":12114,"Ha":12115,"Heu":12116,"HSP":12117,"HIST":12118,"Hamming":12119,"Id":12120,"IGF":12121,"ICA":12122,"IHed":12123,"IÎºB":12124,"ICAM":12125,"ITT":12126,"Jan":12127,"June":12128,"Kinase":12129,"KLF":12130,"KOUT":12131,"Klf":12132,"Lo":12133,"LAT":12134,"Lys":12135,"LAR":12136,"Luis":12137,"License":12138,"Mg":12139,"Mat":12140,"Mcl":12141,"Mating":12142,"Mef":12143,"MFt":12144,"NC":12145,"NE":12146,"Not":12147,"NCD":12148,"Normal":12149,"NIA":12150,"Nodes":12151,"Oa":12152,"Oxidative":12153,"Optim":12154,"PRF":12155,"PGE":12156,"PROTOSOM":12157,"QGAP":12158,"Rab":12159,"Rad":12160,"Rail":12161,"RMA":12162,"Robustness":12163,"SM":12164,"Sos":12165,"Ste":12166,"SNF":12167,"SRF":12168,"Section":12169,"SHF":12170,"Saez":12171,"Swnreclbtluu":12172,"Sigma":12173,"Top":12174,"Target":12175,"Tables":12176,"Tah":12177,"TCH":12178,"TBET":12179,"TIRAP":12180,"Uni":12181,"Vel":12182,"Wild":12183,"Xp":12184,"YY":12185,"Zh":12186,"[(":12187,"](":12188,"aur":12189,"bad":12190,"bcl":12191,"cos":12192,"cause":12193,"cJun":12194,"cAMP":12195,"dB":12196,"dent":12197,"dex":12198,"dose":12199,"dict":12200,"duodenum":12201,"draw":12202,"densed":12203,"ej":12204,"ear":12205,"efficient":12206,"eoni":12207,"fe":12208,"fn":12209,"fp":12210,"fx":12211,"fin":12212,"fum":12213,"fav":12214,"firm":12215,"feasible":12216,"gk":12217,"gm":12218,"gel":12219,"gate":12220,"great":12221,"gatus":12222,"gov":12223,"hing":12224,"hown":12225,"host":12226,"hog":12227,"harti":12228,"iotropic":12229,"kg":12230,"ken":12231,"kinases":12232,"latory":12233,"lined":12234,"lckr":12235,"mM":12236,"mel":12237,"mul":12238,"mol":12239,"mone":12240,"mass":12241,"mekk":12242,"mammal":12243,"morph":12244,"mKTS":12245,"nn":12246,"nov":12247,"numer":12248,"norm":12249,"oï¬Ģ":12250,"oupling":12251,"oforms":12252,"ozygous":12253,"pan":12254,"qi":12255,"rs":12256,"rur":12257,"rab":12258,"rithm":12259,"sos":12260,"suc":12261,"six":12262,"still":12263,"signed":12264,"secre":12265,"self":12266,"sources":12267,"synthesis":12268,"switched":12269,"tant":12270,"tage":12271,"tles":12272,"tner":12273,"taken":12274,"uang":12275,"uÃĪ":12276,"vinc":12277,"various":12278,"wa":12279,"zle":12280,"zation":12281,"zun":12282,"zng":12283,"{(":12284,"{}":12285,"¸i":12286,"ºB":12287,"Ã»":12288,"ÃĤ":12289,"ÃĬ":12290,"Î¾":12291,"ÏĨ":12292,"âĹ":12293,"Ġ]":12294,"Ġur":12295,"Ġzeros":12296,"Ġtb":12297,"Ġtab":12298,"Ġtail":12299,"Ġtens":12300,"Ġtworks":12301,"Ġtells":12302,"inan":12303,"infec":12304,"inition":12305,"intro":12306,"induce":12307,"intracellular":12308,"Ġaver":12309,"Ġaï¬ĥ":12310,"heat":12311,"heres":12312,"repression":12313,"refer":12314,"reaches":12315,"reduces":12316,"reason":12317,"reversible":12318,"repressor":12319,"received":12320,"onza":12321,"oncogene":12322,"atten":12323,"atric":12324,"Ġ(.":12325,"Ġ(=":12326,"Ġther":12327,"Ġthecell":12328,"Ġtheinput":12329,"Ġthesystem":12330,"Ġtheanti":12331,"Ġtheresults":12332,"Ġtheimmune":12333,"Ġthesame":12334,"Ġtheeffect":12335,"ĠtheCreative":12336,"Ġtheresulting":12337,"Ġtheidentification":12338,"Ġsn":12339,"Ġss":12340,"Ġsw":12341,"Ġsal":12342,"Ġsos":12343,"Ġstim":12344,"Ġsized":12345,"Ġswitched":12346,"Ġsenescent":12347,"erol":12348,"erated":12349,"erally":12350,"erved":12351,"eranyl":12352,"tian":12353,"tiate":12354,"tise":12355,"tious":12356,"tiss":12357,"tiï¬ģc":12358,"enk":12359,"enop":12360,"enables":12361,"enci":12362,"entire":12363,"ordinary":12364,"ordered":12365,"alternative":12366,"Ġcf":12367,"Ġcock":12368,"Ġcult":12369,"Ġcritic":12370,"Ġcrop":12371,"ĠcMYC":12372,"Ġcodon":12373,"edicine":12374,"esting":12375,"especially":12376,"Ġinan":12377,"Ġinac":12378,"ĠinIL":12379,"Ġincor":12380,"Ġintrac":12381,"Ġinner":12382,"Ġineach":12383,"Ġinconsistent":12384,"Ġinactivates":12385,"Ġofpro":12386,"ĠofBoolean":12387,"Ġofsignaling":12388,"Ġofeach":12389,"ĠofUlm":12390,"anis":12391,"ished":12392,"isual":12393,"isphosphate":12394,"Ġpp":12395,"Ġpen":12396,"Ġpri":12397,"ĠpSTAT":12398,"Ġpkb":12399,"ĠpCAG":12400,"Ġploid":12401,"Ġpseud":12402,"elec":12403,"elyn":12404,"elimin":12405,"Ġantim":12406,"Ġantagon":12407,"rolim":12408,"leum":12409,"leted":12410,"lease":12411,"Ġwave":12412,"Ġwestern":12413,"itz":12414,"icity":12415,"icles":12416,"Ġfus":12417,"Ġfly":12418,"Ġfun":12419,"Ġfol":12420,"Ġfused":12421,"Ġfission":12422,"Ġfigures":12423,"Ġfarnesyl":12424,"Ġmer":12425,"Ġmes":12426,"Ġmid":12427,"Ġmtor":12428,"Ġmix":12429,"Ġmag":12430,"Ġbits":12431,"Ġbatch":12432,"Ġbowel":12433,"Ġdraf":12434,"Ġdimension":12435,"Ġdanger":12436,"Ġdramatically":12437,"Ġdubious":12438,"ĠAFF":12439,"Ġandp":12440,"ĠandBarnesiella":12441,"ĠandEnterococcus":12442,"Ġnd":12443,"Ġni":12444,"Ġnr":12445,"Ġnas":12446,"arin":12447,"aram":12448,"aria":12449,"arra":12450,"asc":12451,"asi":12452,"asthe":12453,"asse":12454,"ashi":12455,"asks":12456,"asama":12457,"Ġrein":12458,"Ġretained":12459,"Ġrecombin":12460,"Ġrecycl":12461,"Ġreinterpreted":12462,"acs":12463,"ache":12464,"acyl":12465,"accum":12466,"ulat":12467,"ulio":12468,"ulator":12469,"ulence":12470,"tionDyn":12471,"oderm":12472,"odium":12473,"Ġtox":12474,"Ġtoinhibit":12475,"Ġtosimulate":12476,"enty":12477,"entries":12478,"Ġease":12479,"iga":12480,"igital":12481,"ĠTe":12482,"ĠTw":12483,"ĠTest":12484,"ĠTCF":12485,"ĠTumor":12486,"ĠTechnical":12487,"ĠTrkA":12488,"omb":12489,"omate":12490,"ece":12491,"ecomp":12492,"stage":12493,"stomata":12494,"stages":12495,"stances":12496,"stein":12497,"Ġthorough":12498,"implic":12499,"utuc":12500,"ĠCF":12501,"ĠCK":12502,"ĠCor":12503,"ĠClos":12504,"ĠCIN":12505,"ĠCON":12506,"ĠCorrespondence":12507,"ĠCruz":12508,"ĠNe":12509,"ĠNumber":12510,"ĠNik":12511,"ĠNET":12512,"users":12513,"research":12514,"Ġstained":12515,"uration":12516,"lysis":12517,"univ":12518,"until":12519,"unchanged":12520,"vex":12521,"ĠOda":12522,"ĠIII":12523,"ĠION":12524,"ĠIkzf":12525,"Ġisin":12526,"Ġisshown":12527,"Ġisolation":12528,"ĠSD":12529,"ĠSM":12530,"ĠSystem":12531,"ĠSIL":12532,"ĠSIP":12533,"ĠSwe":12534,"ĠSBF":12535,"ĠSalt":12536,"ĠSlt":12537,"ĠSee":12538,"ĠSkp":12539,"ĠSIAH":12540,"ĠSamaga":12541,"amo":12542,"amber":12543,"amined":12544,"theoretical":12545,"thecellcollective":12546,"Ġhall":12547,"Ġhope":12548,"ĠhMEC":12549,"Ġhybrid":12550,"Ġhbegf":12551,"Ġgab":12552,"Ġgrb":12553,"Ġgluc":12554,"oss":12555,"uca":12556,"Ġconversely":12557,"Ġconvex":12558,"ĠBis":12559,"ĠBest":12560,"ĠBinding":12561,"ĠBurk":12562,"ilation":12563,"ilchis":12564,"illot":12565,"ĠNODE":12566,"idated":12567,"idity":12568,"idating":12569,"Ġproof":12570,"abetes":12571,"ota":12572,"otrim":12573,"Ġalign":12574,"Ġaltern":12575,"Ġalbeit":12576,"Ġexcre":12577,"Ġextract":12578,"Ġextending":12579,"Ġ10000":12580,"Ġ118":12581,"oles":12582,"olve":12583,"ĠPet":12584,"ĠPur":12585,"ĠPMC":12586,"ĠPKB":12587,"ĠPDPK":12588,"ĠPyth":12589,"009":12590,"ĠMolec":12591,"ĠMPI":12592,"ĠMMI":12593,"ĠMAC":12594,"ĠMmp":12595,"ĠMBF":12596,"ĠMathematical":12597,"ĠMGAT":12598,"Ġask":12599,"Ġasan":12600,"Ġasub":12601,"Ġasdescribed":12602,"Ġasignificant":12603,"ĠEC":12604,"ĠEq":12605,"ĠEuc":12606,"ĠEarly":12607,"ĠEnd":12608,"ĠEdinburgh":12609,"ĠEZH":12610,"ows":12611,"owski":12612,"tivation":12613,"seem":12614,"seille":12615,"Ġll":12616,"Ġlum":12617,"Ġlibrary":12618,"Ġacquired":12619,"eman":12620,"embrane":12621,"employ":12622,"ĠFi":12623,"ĠFib":12624,"ĠFlux":12625,"ĠFlt":12626,"ĠFBS":12627,"ĠFollowing":12628,"ĠFixing":12629,"nalling":12630,"Ġbyany":12631,"Ġarenot":12632,"Ġareknown":12633,"tee":12634,"logÃŃa":12635,"aded":12636,"address":12637,"ticoster":12638,"tri":12639,"trary":12640,"trigg":12641,"apit":12642,"Ġors":12643,"Ġorient":12644,"ups":12645,"quickly":12646,"andp":12647,"andx":12648,"andard":12649,"andrelated":12650,"Ġcomprehen":12651,"Ġcompatible":12652,"gulatory":12653,"ĠRoc":12654,"ĠRSK":12655,"ĠRob":12656,"ĠRFC":12657,"ĠRPD":12658,"ĠRIC":12659,"ĠRlm":12660,"ĠReduced":12661,"persis":12662,"percent":12663,"permutation":12664,"romone":12665,"Ġvan":12666,"ĠDMT":12667,"ĠDYCA":12668,"ĠDSLT":12669,"ĠDedication":12670,"Ġresolved":12671,"toster":12672,"ducation":12673,"ignalling":12674,"Ġatthe":12675,"undamental":12676,"ĠGe":12677,"ĠGr":12678,"ĠGraph":12679,"ĠGPCR":12680,"ĠGRR":12681,"ĠGrr":12682,"ĠGothen":12683,"redit":12684,"redescribe":12685,"Ġkras":12686,"Ġgenomic":12687,"epen":12688,"epoints":12689,"ĠHOS":12690,"ĠHTG":12691,"ĠHRR":12692,"ĠHSPC":12693,"ĠHarv":12694,"ĠHxk":12695,"Ġ01111":12696,"chrom":12697,"ĠInt":12698,"clam":12699,"Ġtransitory":12700,"Ġtransforming":12701,"Ġtranslate":12702,"phasis":12703,"Ġinterdependencies":12704,"propor":12705,"progen":12706,"procedure":12707,"project":12708,"ĠThough":12709,"ĠThird":12710,"ĠThakar":12711,"Ġsignaltransduction":12712,"Ġpathological":12713,"erences":12714,"Ġnoteworthy":12715,"Ġleth":12716,"Ġleave":12717,"ofprostatecancer":12718,"plate":12719,"plified":12720,"ourses":12721,"Ġdeactivate":12722,"Ġappar":12723,"ubMed":12724,"Ġry":12725,"Ġrin":12726,"ivision":12727,"Ġshapes":12728,"uncover":12729,"Ġperme":12730,"Ġpertaining":12731,"Ġdiss":12732,"Ġdisjunction":12733,"Ġdisplays":12734,"011":12735,"016":12736,"ĠWIT":12737,"ĠWEE":12738,"extrinsic":12739,"exception":12740,"expressing":12741,"examined":12742,"Ġcytometry":12743,"Ġimplied":12744,"Ġimages":12745,"Ġimpaired":12746,"ĠLF":12747,"ĠLarge":12748,"concerning":12749,"ĠBooleannetwork":12750,"ĠBooleanNet":12751,"udasama":12752,"They":12753,"Thedifferent":12754,"Themeasurements":12755,"timately":12756,"timepoints":12757,"Ġanalyse":12758,"Ġanalytically":12759,"Ġchamber":12760,"tains":12761,"Ġ43":12762,"tosom":12763,"underlying":12764,"ffects":12765,"create":12766,"crease":12767,"creating":12768,"Ġ55":12769,"Ġpara":12770,"avy":12771,"avarra":12772,"trophot":12773,"Ġcount":12774,"Ġcoherent":12775,"posing":12776,"Ġsetof":12777,"Ġsettle":12778,"Ġsettles":12779,"119":12780,"Ġresponds":12781,"reco":12782,"recently":12783,"Ġcombi":12784,"Ġcommun":12785,"responding":12786,"responsible":12787,"Ġiii":12788,"Ġileum":12789,"cyclic":12790,"Ġposi":12791,"Ġrepresenta":12792,"akdown":12793,"serve":12794,"binations":12795,"ĠJun":12796,"Inthis":12797,"Inhibition":12798,"aremarked":12799,"Ġeffectively":12800,"ï¬ģn":12801,"ĠVer":12802,"ĠVilchis":12803,"ront":12804,"comparing":12805,"competent":12806,"rapid":12807,"coated":12808,"covered":12809,"Ġunion":12810,"Ġunra":12811,"Ġunfold":12812,"estate":12813,"Ġsubtype":12814,"Ġsubjected":12815,"ssen":12816,"ssel":12817,"ssplines":12818,"ipses":12819,"ĠKinase":12820,"lass":12821,"Ġindis":12822,"oxifying":12823,"Ġmeval":12824,"Ġseek":12825,"Ġsearched":12826,"ependency":12827,"Ġwhereby":12828,"ASE":12829,"RKL":12830,"structural":12831,"10000":12832,"Ġquality":12833,"CCL":12834,"Ġyi":12835,"Ġthereof":12836,"Ġdiameter":12837,"214":12838,"ĠÎºB":12839,"communication":12840,"dez":12841,"Ġinclinical":12842,"necess":12843,"BAG":12844,"indquist":12845,"Ġmodulated":12846,"Ġmodify":12847,"scaffold":12848,"ressive":12849,"Ġappropri":12850,"organism":12851,"Ġ104":12852,"Ġ1010":12853,"doÃ±":12854,"titatively":12855,"titude":12856,"Figs":12857,"Ġdeveloping":12858,"Ġsuppressed":12859,"Ġsuppresses":12860,"lecting":12861,"CRPC":12862,"Ġele":12863,"Ġelsewhere":12864,"Ġelevated":12865,"architecture":12866,"ĠmicroRNAs":12867,"âĨĳ":12868,"âĨĵ":12869,"EGFand":12870,"1999":12871,"Access":12872,"ActionDyn":12873,"before":12874,"bydifferent":12875,"insights":12876,"ĠApop":12877,"Ġantiapoptotic":12878,"Ġconflic":12879,"tentimepoints":12880,"Ġplur":12881,"Ġplaced":12882,"Ġsigniï¬ģcance":12883,"Ġsynthase":12884,"Ġpresenting":12885,"Ġbecom":12886,"ĠAlternatively":12887,"Ġequa":12888,"curie":12889,"simultaneously":12890,"Ġcyclase":12891,"Ġspot":12892,"canalizing":12893,"Ġincreasingly":12894,"ĠProt":12895,"ĠProMoT":12896,"arkup":12897,"Ġphospholipase":12898,"ĠPKN":12899,"Ġdefense":12900,"Ġdiscretized":12901,"neur":12902,"fficients":12903,"TGFBR":12904,"ĠXi":12905,"ĠXis":12906,"ĠXOR":12907,"PAC":12908,"share":12909,"ĠExample":12910,"Ġclauses":12911,"Ġaging":12912,"minutes":12913,"Ġofthenodes":12914,"overall":12915,"overcome":12916,"sequencing":12917,"Ġrefine":12918,"Ġmultistationar":12919,"particip":12920,"ciency":12921,"FFA":12922,"LRO":12923,"16106":12924,"Ġelemen":12925,"Ġempty":12926,"Ġemphasis":12927,"ĠConsistent":12928,"EMSA":12929,"22114":12930,"ĠYOX":12931,"TES":12932,"ĠGenomic":12933,"Ġï¬ģve":12934,"presenting":12935,"Ġcontinuously":12936,"Ġcharacterizing":12937,"ĠBNs":12938,"Ġintegrative":12939,"Ġintegrins":12940,"Ġregimens":12941,"Ġconsistency":12942,"MACR":12943,"Ġparametri":12944,"Ġoriginally":12945,"MTAk":12946,"obvious":12947,"oblastic":12948,"Ġhelps":12949,"rupt":12950,"Ġrobustly":12951,"Ġthemain":12952,"Ġthemost":12953,"aphase":12954,"Ġterminally":12955,"Ġvertebr":12956,"Ġsuited":12957,"Ġsuffic":12958,"PMV":12959,"biomedcent":12960,"ovine":12961,"ĠÂ½":12962,"differential":12963,"arnaugh":12964,"ĠCyc":12965,"Ġphosphorylate":12966,"Stem":12967,"States":12968,"Ġtopublish":12969,"manner":12970,"manuscript":12971,"Ġreproducing":12972,"Ġpromise":12973,"Ġpromoted":12974,"ĠRev":12975,"ĠReal":12976,"regulationof":12977,"CPR":12978,"Ġselective":12979,"Ġderiv":12980,"III":12981,"bodies":12982,"horts":12983,"iquid":12984,"help":12985,"metric":12986,"Ġinthemodel":12987,"ĠBclxl":12988,"ĠDCs":12989,"Ġgeneralized":12990,"IABL":12991,"olumns":12992,"Ġ00000000":12993,"Ġ0000000":12994,"Ġserine":12995,"arsofthe":12996,"Construction":12997,"detected":12998,"Ġfocuses":12999,"CDKN":13000,"ĠGATAs":13001,"regarding":13002,"Ġtumors":13003,"Ġcontributes":13004,"Ġentering":13005,"ĠCYTC":13006,"ĠChalmers":13007,"ĠChudasama":13008,"ccblp":13009,"pressive":13010,"pressors":13011,"Ġdisrupting":13012,"SPN":13013,"Ġvaries":13014,"Ġclassify":13015,"Ġclassroom":13016,"CellNet":13017,"airly":13018,"Cyt":13019,"Ġtestable":13020,"equivalence":13021,"Prot":13022,"ristian":13023,"Ġessentially":13024,"Ġoperation":13025,"ĠWhite":13026,"ĠWhilst":13027,"Ġmicroenvironments":13028,"Ġsolid":13029,"Ġsolving":13030,"Ġsummarises":13031,"engers":13032,"engineering":13033,"Ġrealized":13034,"ĠCOLL":13035,"...":13036,"Ġresearcher":13037,"mosterol":13038,"stimuli":13039,"stimulated":13040,"Ġpairwise":13041,"opolys":13042,"TROD":13043,"Ġstarvation":13044,"Ġarrested":13045,"stitutive":13046,"RecLig":13047,"Reconstruction":13048,"Ġ001100":13049,"Ġmalfunction":13050,"ectable":13051,"***":13052,"IGOs":13053,"ĠpNFKB":13054,"ailored":13055,"ĠCienci":13056,"connections":13057,"Ġdeterminant":13058,"577":13059,"CaIM":13060,"Departam":13061,"ChIP":13062,"Cholesterol":13063,"drugvector":13064,"drugintervention":13065,"okines":13066,"genera":13067,"Ġheterotrim":13068,"Complex":13069,"havebeen":13070,"ologous":13071,"antibody":13072,"Ġgrants":13073,"Ġapplica":13074,"Dynamics":13075,"Ġcollecting":13076,"Ġcomputations":13077,"Ġpostulated":13078,"Ġvisible":13079,"Ġvisited":13080,"Ġevolve":13081,"transcriptionally":13082,"ĠInteractions":13083,"Ġworth":13084,"Ġtimeseries":13085,"knocked":13086,"Ġmoves":13087,"biologically":13088,"Ġdemonstrates":13089,"Ġcloser":13090,"Ġreadout":13091,"additionally":13092,"Ġrequirement":13093,"Ġtemperature":13094,"Ġdifferentia":13095,"coln":13096,"subtypes":13097,"Ġ1996":13098,"showed":13099,"CKS":13100,"module":13101,"maintain":13102,"ĠBiosciences":13103,"Ġactually":13104,"match":13105,"BioModels":13106,"liminary":13107,"Â¼0":13108,"Ġtransferred":13109,"problem":13110,"butyrate":13111,"Ġconsecutive":13112,"Ġcalculate":13113,"ÃŃos":13114,"Ġsustaining":13115,"Ġsimultaneous":13116,"Ġconfirming":13117,"Ġexpand":13118,"ĠĠĠĠĠĠĠĠĠĠĠ":13119,"define":13120,"Ġphosphatidic":13121,"Ġ294002":13122,"valued":13123,"GAPDH":13124,"hht":13125,"Ġcolony":13126,"Ġorganized":13127,"Î²R":13128,"ĠAfterwards":13129,"ĠCoA":13130,"Ġexhibits":13131,"Ġexhibiting":13132,"henceforth":13133,"ĠÂ¼1":13134,"Ġvisualization":13135,"Importantly":13136,"Itk":13137,"rences":13138,"Ġconcern":13139,"Ġconcerted":13140,"Ġadapt":13141,"ĠâĢĻâĢĻ(":13142,"initially":13143,"motif":13144,"allowing":13145,"Ġcentrality":13146,"Ġcounts":13147,"Ġcounting":13148,"Ġapproximate":13149,"Ġsynergy":13150,"BNs":13151,"Enput":13152,"Enciso":13153,"TTSS":13154,"signiï¬ģcant":13155,"Ġsurrounding":13156,"Ġproteoly":13157,"ĠMeta":13158,"ĠWithout":13159,"useful":13160,"ĠSchmel":13161,"therapies":13162,"Ġenhancer":13163,"concentrations":13164,"Ġemploying":13165,"Ġrecovering":13166,"Ġmammals":13167,"Ġcontinu":13168,"Ġinitiates":13169,"Ġheatmap":13170,"Fragment":13171,"ICO":13172,"castration":13173,"represses":13174,"Ġbackbone":13175,"ĠSerum":13176,"ĠPerturbations":13177,"ĠMETHO":13178,"Ġrecognize":13179,"Ġpolarization":13180,"Ġdysregulation":13181,"Ġdysregulated":13182,"Ġutility":13183,"Ġutilization":13184,"DDR":13185,"Ġaxes":13186,"ĠColmone":13187,"Ġknockdowns":13188,"macrophage":13189,"ĠSuperoxide":13190,"endoreduplication":13191,"TGS":13192,"member":13193,"Ġsinks":13194,"Ġfires":13195,"ĠAbcam":13196,"aciones":13197,"Ġsuppressors":13198,"Fosl":13199,"links":13200,"remains":13201,"Ġslower":13202,"Ġreturned":13203,"Ġpreventing":13204,"Ġintuition":13205,"meaning":13206,"Ġexplanations":13207,"lando":13208,"namic":13209,"ĠINPP":13210,"Ġraccdc":13211,"considering":13212,"Ġtractable":13213,"Ġnecessity":13214,"/Ā,":13215,"become":13216,"causing":13217,"Ġdraw":13218,"ĠSecondary":13219,"operators":13220,"updated":13221,"Ġcommitted":13222,"Ġhepatocyte":13223,"Ġelectr":13224,"Ġdepicting":13225,"Ġhelpful":13226,"Ġwrong":13227,"ethat":13228,"ĠDeath":13229,"Ġirreversible":13230,"Adelyn":13231,"humanized":13232,"Ġfungi":13233,"ĠSwiss":13234,"College":13235,"focuses":13236,"howssplines":13237,"solely":13238,"Ġsensing":13239,"Ġferric":13240,"ombination":13241,"ĠCHST":13242,"ĠPBCNs":13243,"ĠRELA":13244,"Ġletters":13245,"ĠUpregulate":13246,"ĠÎ¼M":13247,"Ġheterogeneous":13248,"Ġbreaks":13249,"belong":13250,"secondary":13251,"Î¼M":13252,"alterations":13253,"Ġinsertion":13254,"Ġinserted":13255,"Ġanimals":13256,"Ġcytotoxicity":13257,"Ġcoefficients":13258,"osterol":13259,"Ġbiologi":13260,"Ġsynchrony":13261,"Ġresembled":13262,"CreativeCommons":13263,"Pharma":13264,"methodology":13265,"prisingly":13266,"reconstruct":13267,"Ġcategory":13268,"Ġdonot":13269,"ĠBlue":13270,"ĠFASLG":13271,"progress":13272,"prostatecancers":13273,"Ġassociation":13274,"standarderr":13275,"Ġrestrictions":13276,"Ġspline":13277,"Ġbranching":13278,"Ġdamaging":13279,"arbor":13280,"ĠIKBKG":13281,"ĠSTRESS":13282,"ĠMathematics":13283,"ĠENV":13284,"Ġattenuated":13285,"ĠQuantitative":13286,"CELL":13287,"RasGAP":13288,"Transcriptome":13289,"pensable":13290,"scriptional":13291,"Ġslp":13292,"orbarsofthe":13293,"ĠChemChains":13294,"Ġgrew":13295,"Ġprotect":13296,"Ġattracting":13297,"constitutively":13298,"RELAp":13299,"eventh":13300,"eventually":13301,"OrdoÃ±":13302,"egative":13303,"ĠMaBoSS":13304,"ĠFramework":13305,"Ġorchestrated":13306,"ĠReference":13307,"existence":13308,"Ġgrowing":13309,"Â§Â§Â§":13310,"Ġcatalyzed":13311,"Caspase":13312,"KEGG":13313,"See":13314,"ĠsiRNAs":13315,"uccessful":13316,"ĠPEPC":13317,"ĠPERFOR":13318,"ĠMember":13319,"ĠLMNA":13320,"against":13321,"ultaneous":13322,"Regulatory":13323,"significantly":13324,"therapeutics":13325,"MKP":13326,"PTCt":13327,"etoacetyl":13328,"ĠButtner":13329,"ĠPhenotype":13330,"ĠDetailed":13331,"Ġautoimmune":13332,"validated":13333,"Ġoxidase":13334,"DOCK":13335,"DOCX":13336,"RedActionDyn":13337,"TOLLIP":13338,"sirolim":13339,"symmetry":13340,"Ġcenters":13341,"implemented":13342,"ĠIFNAR":13343,"Ġhappens":13344,"Ġ1011":13345,"ĠEpsin":13346,"Ġresidual":13347,"ĠHypoxia":13348,"explained":13349,"contribute":13350,"Ġcoincides":13351,"Ġsciences":13352,"biguously":13353,"braceright":13354,"decisions":13355,"TxfHedHeu":13356,"Structural":13357,"iya":13358,"Ġtrend":13359,"Ġbrid":13360,"Ġduplicates":13361,"ĠCLOCCS":13362,"urswith":13363,"ĠEpithelial":13364,"ĠGAPDH":13365,"Ġinterpolated":13366,"Ġdeviation":13367,"Supplemen":13368,"ĠBiotechnology":13369,"confirmed":13370,"ydrocholesterol":13371,"Ġprotocols":13372,"Ġphagocytic":13373,"Ġphagocytosis":13374,"Ġsphingosine":13375,"Ġcarcinoma":13376,"Ġbenefit":13377,"ĠObviously":13378,"permanently":13379,"ĠDenis":13380,"Ġencompassing":13381,"Ġinfiltration":13382,"Ġplcga":13383,"discrep":13384,"ĠLeukemia":13385,"Ġorthologs":13386,"RelA":13387,"jXjÃ°":13388,"Ġcareful":13389,"Ġreplaced":13390,"ĠNCOR":13391,"ĠBuddingCP":13392,"separate":13393,"Ġligase":13394,"emergence":13395,"ĠDiagram":13396,"Ġdisjunctive":13397,"Ġeducation":13398,"Ġaggreg":13399,"Ġdelineate":13400,"Ġmanifest":13401,"indirectly":13402,"Ġfluorescent":13403,"ĠSweden":13404,"demonstrated":13405,"Cuba":13406,"Omaha":13407,"brock":13408,"hardt":13409,"phenomen":13410,"Ġcsrc":13411,"ĠANXA":13412,"Ġnitrogen":13413,"aspects":13414,"Ġstrongest":13415,"ĠSchematic":13416,"ĠMurphy":13417,"ĠEXPRESS":13418,"segmentation":13419,"recombinase":13420,"colourswith":13421,"dehydrocholesterol":13422,"scientists":13423,"Ġambiguity":13424,"Ġclinically":13425,"Ġï¬ģgurations":13426,"Ġdistinction":13427,"Ġmonotonic":13428,"promoter":13429,"DesCyclinCCDK":13430,"Ġmulticellular":13431,"Ġhorizontal":13432,"Ġpolynomial":13433,"facilitate":13434,"Aktpathway":13435,"Ġelectrophiles":13436,"LSSs":13437,"SERM":13438,"damaged":13439,"technique":13440,"vacuolar":13441,"Ġtcrb":13442,"hepatocytes":13443,"Ġsession":13444,"Ġmerely":13445,"ĠTRADD":13446,"ĠCEBPbeta":13447,"ĠCSDA":13448,"Ġstablesteady":13449,"ĠBIOLOGY":13450,"ĠBetweenness":13451,"ĠBordetella":13452,"illosis":13453,"ereceptors":13454,"Ġacyclic":13455,"ĠFIBROBLAST":13456,"trigger":13457,"Ġweighted":13458,"ĠDSDs":13459,"Ġintertwined":13460,"Ġshorter":13461,"avasation":13462,"nodrugtreatment":13463,"141117":13464,"ullenbrock":13465,"armaceutical":13466,"drugtreatmentsaremarked":13467,"denotingnodrugtreatment":13468,"Ġstandardized":13469,"guarantee":13470,"ĠEditorial":13471,"ĠThefigureshowssplines":13472,"Ġunderpinnings":13473,"Arana":13474,"Cerda":13475,"ICAL":13476,"Lysosome":13477,"MFtMTAk":13478,"OaMFtMTAk":13479,"fumigatus":13480,"rurzun":13481,"vincing":13482,"ÃĬC":13483,"enopus":13484,"Ġcocktail":13485,"Ġcritically":13486,"Ġploidy":13487,"Ġnasal":13488,"utucache":13489,"ĠCloseness":13490,"ĠSILICO":13491,"ĠPython":13492,"andrelatedstandarderr":13493,"ĠGothenburg":13494,"ĠHarvard":13495,"progenitor":13496,"Ġapparatus":13497,"ĠWITH":13498,"Thedifferentdrugtreatmentsaremarked":13499,"Themeasurementsincluded":13500,"trophotom":13501,"Ġunravel":13502,"bydifferentcolourswith":13503,"1610622114":13504,"IABLO":13505,"Ġresearchers":13506,"opolysaccharide":13507,"TRODUCTION":13508,"ĠCiencias":13509,"Ġheterotrimeric":13510,"ĠSchmelzle":13511,"ĠMETHODS":13512,"Adelynatecyclase":13513,"OrdoÃ±ez":13514,"sirolimus":13515,"ĠThefigureshowssplinesandrelatedstandarderr":13516,"Thedifferentdrugtreatmentsaremarkedbydifferentcolourswith":13517,"ĠThefigureshowssplinesandrelatedstandarderrorbarsofthe":13518,"%).":13519,"*.":13520,"+/":13521,"-(":13522,"-/":13523,"-=":13524,".);":13525,"300":13526,"416":13527,"600":13528,"619":13529,"61757":13530,"7105":13531,"949":13532,"AAT":13533,"ACD":13534,"ABoolean":13535,"ANB":13536,"AICD":13537,"Alexopoulos":13538,"Abbreviations":13539,"AdenylateCyclase":13540,"Bre":13541,"Bar":13542,"Bas":13543,"Bgene":13544,"BEC":13545,"Buylla":13546,"BiomÃ©dicas":13547,"Bharti":13548,"Cor":13549,"Car":13550,"City":13551,"Cand":13552,"CNA":13553,"Chip":13554,"Cruz":13555,"DB":13556,"DF":13557,"Dual":13558,"During":13559,"DOR":13560,"DROS":13561,"DApoptosis":13562,"Disease":13563,"DUSP":13564,"Em":13565,"EGR":13566,"EIF":13567,"EGG":13568,"ESEARCH":13569,"Equal":13570,"Edinburgh":13571,"Fin":13572,"FGFR":13573,"Factor":13574,"Frequ":13575,"FIK":13576,"Flt":13577,"GM":13578,"Go":13579,"Gro":13580,"GSE":13581,"GSD":13582,"Her":13583,"Hill":13584,"HIF":13585,"HBEGF":13586,"IU":13587,"ICL":13588,"IEC":13589,"Iparameter":13590,"INAL":13591,"JU":13592,"Ks":13593,"Kout":13594,"KEV":13595,"Lj":13596,"Lud":13597,"Long":13598,"Light":13599,"Like":13600,"LUT":13601,"Mit":13602,"Mod":13603,"MAT":13604,"Multi":13605,"Maf":13606,"MÃ©":13607,"Metal":13608,"Minimal":13609,"MDS":13610,"NY":13611,"Nf":13612,"NHK":13613,"Nacional":13614,"Nkx":13615,"Of":13616,"Ot":13617,"October":13618,"OQU":13619,"OBEC":13620,"Pl":13621,"Pre":13622,"Pen":13623,"Pelay":13624,"PRSL":13625,"Rap":13626,"Roc":13627,"Ref":13628,"Rev":13629,"Ruiz":13630,"SNK":13631,"SKB":13632,"SIP":13633,"Survival":13634,"Symbol":13635,"Sequ":13636,"SYN":13637,"Summary":13638,"SMAC":13639,"SMBF":13640,"TY":13641,"Tw":13642,"Tup":13643,"Tech":13644,"TCC":13645,"TIN":13646,"TOYNET":13647,"Tissue":13648,"Univers":13649,"USS":13650,"ULT":13651,"Universidad":13652,"Vari":13653,"WH":13654,"WASP":13655,"Xk":13656,"Xu":13657,"Xiz":13658,"XOR":13659,"XIAP":13660,"bs":13661,"bor":13662,"bation":13663,"bac":13664,"bur":13665,"betw":13666,"bations":13667,"bep":13668,"base":13669,"cile":13670,"cult":13671,"cAcid":13672,"categor":13673,"cJUN":13674,"cna":13675,"ctopic":13676,"dm":13677,"don":13678,"dam":13679,"date":13680,"dase":13681,"dag":13682,"days":13683,"dimen":13684,"documented":13685,"dataset":13686,"dotted":13687,"dele":13688,"describing":13689,"eosinoph":13690,"fan":13691,"fil":13692,"fyn":13693,"fail":13694,"find":13695,"future":13696,"fitting":13697,"finding":13698,"false":13699,"freec":13700,"floxed":13701,"gi":13702,"gis":13703,"gly":13704,"gio":13705,"gain":13706,"gand":13707,"grb":13708,"gression":13709,"gement":13710,"gmail":13711,"gives":13712,"hr":13713,"had":13714,"hap":13715,"homeost":13716,"ji":13717,"jnk":13718,"ki":13719,"kman":13720,"kyo":13721,"lp":13722,"lide":13723,"lationship":13724,"lands":13725,"length":13726,"living":13727,"mL":13728,"mes":13729,"mated":13730,"mary":13731,"mally":13732,"mek":13733,"master":13734,"missing":13735,"nor":13736,"nic":13737,"nol":13738,"now":13739,"noth":13740,"nhh":13741,"nisms":13742,"nitude":13743,"ologic":13744,"oupled":13745,"oured":13746,"oannis":13747,"pk":13748,"pth":13749,"pine":13750,"prec":13751,"pdk":13752,"pStat":13753,"patient":13754,"potent":13755,"pCAG":13756,"pjS":13757,"qRT":13758,"rd":13759,"ratio":13760,"sens":13761,"site":13762,"spre":13763,"sink":13764,"sampl":13765,"supplementary":13766,"siella":13767,"satis":13768,"secretion":13769,"slp":13770,"tL":13771,"tually":13772,"ttl":13773,"uit":13774,"uitive":13775,"vates":13776,"vulner":13777,"win":13778,"wig":13779,"web":13780,"water":13781,"ysis":13782,"ySt":13783,"yeng":13784,"yield":13785,"ytC":13786,"zes":13787,"|/":13788,"~:":13789,"Â®":13790,"Ãİ":13791,"ÅĴ":13792,"Ëĩ":13793,"Ïĥ":13794,"âĬ":13795,"Ġiv":13796,"Ġ://":13797,"ĠâĪĴ":13798,"Ġtz":13799,"Ġtub":13800,"Ġtive":13801,"Ġtalk":13802,"Ġtern":13803,"Ġtechnical":13804,"inate":13805,"inthis":13806,"inï¬Ĥux":13807,"include":13808,"instead":13809,"Ġated":13810,"Ġamodel":13811,"Ġagene":13812,"Ġacetic":13813,"ĠaCre":13814,"Ġakap":13815,"Ġaforementioned":13816,"heads":13817,"reduction":13818,"report":13819,"replic":13820,"reading":13821,"referen":13822,"rettl":13823,"ona":13824,"onent":13825,"onom":13826,"onyl":13827,"atr":13828,"attem":13829,"attraction":13830,"atta":13831,"atfault":13832,"atelet":13833,"atleast":13834,"Ġ([":13835,"ĠtheDNA":13836,"Ġthera":13837,"Ġtheoutput":13838,"Ġthetwo":13839,"Ġthesteady":13840,"Ġtheinhibition":13841,"Ġtheinhibitor":13842,"Ġtheinitial":13843,"Ġthedevelopment":13844,"ĠtheDCM":13845,"Ġod":13846,"Ġost":13847,"Ġsin":13848,"Ġsurv":13849,"Ġsake":13850,"Ġsmo":13851,"ĠsFas":13852,"erties":13853,"erived":13854,"erob":13855,"tiating":13856,"tides":13857,"tiï¬ģcation":13858,"ened":13859,"ening":13860,"enrichment":13861,"orange":13862,"alo":13863,"alog":13864,"Ġca":13865,"Ġcel":13866,"Ġction":13867,"Ġcos":13868,"Ġcome":13869,"Ġcexpression":13870,"ĠcFLIP":13871,"Ġcubic":13872,"Ġ)[":13873,"ede":13874,"eding":13875,"esim":13876,"Ġina":13877,"Ġinour":13878,"Ġincon":13879,"ĠinNEMO":13880,"Ġinversely":13881,"Ġinpresence":13882,"Ġinuntreated":13883,"Ġinthism":13884,"Ġofan":13885,"Ġofour":13886,"Ġofactivation":13887,"Ġofgenes":13888,"Ġofbiological":13889,"Ġofqualitative":13890,"Ġofcellcycle":13891,"ĠofIÎºB":13892,"anes":13893,"anion":13894,"anol":13895,"anges":13896,"anned":13897,"anconi":13898,"anosterol":13899,"isy":13900,"isan":13901,"isthe":13902,"Ġpt":13903,"Ġpas":13904,"Ġpot":13905,"Ġpack":13906,"Ġpicked":13907,"Ġplasminogen":13908,"elminth":13909,"Ġangio":13910,"rous":13911,"rote":13912,"rops":13913,"rohn":13914,"let":13915,"lez":13916,"lete":13917,"lead":13918,"Ġwt":13919,"Ġwed":13920,"Ġwid":13921,"Ġwound":13922,"Ġwind":13923,"Ġwish":13924,"Ġwaiver":13925,"Ġwrote":13926,"ings":13927,"icate":13928,"icated":13929,"ictions":13930,"icular":13931,"Ġfn":13932,"Ġfed":13933,"Ġfur":13934,"Ġfif":13935,"Ġfyn":13936,"Ġfill":13937,"Ġfits":13938,"Ġfetal":13939,"Ġfunding":13940,"Ġfitting":13941,"Ġfoster":13942,"Ġfairly":13943,"Ġmi":13944,"Ġmis":13945,"Ġmarg":13946,"Ġmedicine":13947,"Ġbur":13948,"Ġbench":13949,"Ġbesides":13950,"Ġbovine":13951,"Ġdu":13952,"Ġdin":13953,"Ġdam":13954,"Ġdifficile":13955,"Ġdash":13956,"Ġdrought":13957,"ĠAz":13958,"ĠAce":13959,"ĠAPL":13960,"ĠAPA":13961,"ĠAdozelesin":13962,"etc":13963,"ete":13964,"etr":13965,"etrans":13966,"ethem":13967,"eters":13968,"ethes":13969,"etothe":13970,"ĠandP":13971,"Ġandthe":13972,"ĠandMigration":13973,"Ġnal":13974,"Ġnum":13975,"Ġnaturally":13976,"Ġnerve":13977,"Ġnitric":13978,"Ġnitrate":13979,"arithm":13980,"arizes":13981,"asting":13982,"assemb":13983,"asomal":13984,"Ġrew":13985,"Ġreper":13986,"Ġrecep":13987,"Ġreag":13988,"Ġreï¬Ĥ":13989,"Ġremodeling":13990,"Ġrepository":13991,"Ġrearran":13992,"Ġreagents":13993,"acl":13994,"acon":13995,"accomp":13996,"acquisition":13997,"account":13998,"Ġtoa":13999,"Ġtowildtype":14000,"entro":14001,"Ġeis":14002,"igu":14003,"ĠTE":14004,"ĠTX":14005,"ĠTat":14006,"ĠTor":14007,"ĠTom":14008,"ĠTim":14009,"ĠTop":14010,"ĠTak":14011,"ĠTBID":14012,"ĠTotal":14013,"ĠTaken":14014,"ĠTICAM":14015,"oment":14016,"omaha":14017,"eco":14018,"ecan":14019,"ectopic":14020,"stop":14021,"store":14022,"status":14023,"Ġthod":14024,"imod":14025,"impro":14026,"imental":14027,"utualism":14028,"lose":14029,"ĠCre":14030,"ĠCub":14031,"ĠCaus":14032,"ĠCBP":14033,"ĠCho":14034,"ĠCST":14035,"ĠCSF":14036,"ĠCombin":14037,"ĠCbp":14038,"ĠCamp":14039,"ĠCNR":14040,"ĠCentre":14041,"ĠChaves":14042,"ĠCutucache":14043,"ĠCSNK":14044,"ĠNone":14045,"ĠNIA":14046,"ĠNAD":14047,"ĠNuclear":14048,"ĠNAB":14049,"ĠNatural":14050,"ĠNaturally":14051,"usive":14052,"usFe":14053,"uskey":14054,"resources":14055,"respiratory":14056,"Ġstoch":14057,"Ġstresses":14058,"Ġstomate":14059,"ellu":14060,"unted":14061,"unless":14062,"unomaha":14063,"vement":14064,"ĠOe":14065,"ĠOth":14066,"ĠIK":14067,"ĠId":14068,"ĠIEE":14069,"ĠIQGAP":14070,"Ġisan":14071,"Ġisactive":14072,"Ġisinhibited":14073,"Ġisoforms":14074,"ĠSN":14075,"ĠSel":14076,"ĠSto":14077,"ĠSmall":14078,"ĠSink":14079,"ĠSek":14080,"ĠSynchronous":14081,"ĠSilico":14082,"ĠSamples":14083,"ĠSVF":14084,"ĠSetting":14085,"ĠStochastic":14086,"ĠStimulation":14087,"ĠSeedSet":14088,"theoutput":14089,"themost":14090,"Ġhull":14091,"Ġhorm":14092,"Ġhydrogen":14093,"Ġgained":14094,
[...]
